#ja-tokenizer-v0.1 byte-level BPE merges; rank == 0-based line index below this header
Ġ Ġ
ĠĠ ĠĠ
ĠĠ Ġ
Ċ ĠĠĠĠ
e r
i n
s e
r e
Ġ t
o n
e n
a t
o r
s t
ĊĠĠĠĠ ĠĠĠ
Ġ a
Ċ ĠĠĠ
ĠĠĠĠ ĠĠĠĠ
Ġ =
Ġ i
. .
d e
h e
a l
Ġ "
Ġ c
l e
i t
a r
Ġ f
ĠĠĠĠ ĠĠĠ
se l
sel f
m e
Ġ re
c t
a n
Ġ n
Ġ s
l o
u n
c e
u t
u r
Ġ p
i on
r o
ĊĠĠĠĠ ĠĠĠĠĠĠĠ
in g
Ġt he
e x
ĊĠĠĠĠ ĠĠĠĠĠĠĠĠ
s s
Ġ b
Ġ w
" :
.. ..
Ġ in
a d
Ġ self
e d
o t
- -
en t
Ġi f
Ġ (
Ġi s
a me
Ġ m
Ġ o
Ġ de
) :
ur n
Ġ {
u e
t o
t urn
Ġa n
Ġ d
c k
m p
c h
( )
c o
_ _
u l
Ġt o
Ċ Ġ
e s
l a
Ġre turn
Ġ #
k en
l i
Ġ st
f i
Ġ e
Ġ 1
i z
r a
on e
i s
at e
Ċ ĊĠĠĠ
" "
i l
Ġ '
ĊĠĠĠĠĠĠĠĠĠĠĠĠ ĠĠĠ
g e
p e
Ġ h
Ġan d
r or
Ġt h
p er
" ,
v al
t h
Ġf or
.... ....
Ġde f
u m
Ġ ex
Ġ _
a s
Ġ T
Ġ 0
o de
to ken
Ġ N
at ion
Ġn ot
e ct
i d
Ġ <
v er
r i
u s
or t
Ġ }
p t
Ġ +
t er
l y
Ġ *
Ġc o
t _
Ġ se
an d
iz er
a p
Ġc on
n ame
Ġ l
-- --
Ġ -
_ t
Ġ lo
o d
k e
g s
it h
Ġb e
v e
Ġ" ""
b j
) ;
ĠN one
Ġo f
ct ion
ex t
un i
c on
i c
t e
en d
_ p
at h
Ġ P
E r
at a
Ġ [
Er ror
val ue
a ck
o ut
in t
a b
# #
uni per
a se
o l
u re
' ,
Ġ me
la ss
ul t
Ġ g
u p
u se
m a
it e
Ġw h
al l
in e
ĊĠĠĠĠ Ġ
y pe
Ġ 2
token izer
Ġ on
p y
ĊĠĠĠĠĠĠĠĠĠĠĠĠ ĠĠĠĠĠĠĠĠ
st r
ar t
Ġ I
an ce
m ent
Ġ S
ĊĠĠĠĠĠĠĠĠĠĠĠĠ ĠĠĠĠĠĠĠ
Ċ ĊĠĠĠĠĠĠĠ
er ror
i g
a ct
Ġt r
i f
i le
a c
_ c
Ġ A
he ad
Ġ x
er s
i se
q u
ut o
_ b
Ġa r
ro m
0 0
m s
) .
........ ........
Ġ C
Ġ |
= "
co de
ke y
o c
e p
Ġ 3
ce pt
iz e
Ġ or
s er
un d
ge t
it y
j uniper
mp ort
Ġp ro
or m
Ġ ra
re ad
| >
< |
a m
de f
) )
mp le
Ġw ith
Ġ ro
_ lo
u b
c l
0 2
Ġra ise
i me
Ġ{ "
o p
d er
Ġc h
c i
Ġth is
Ġb y
um ent
Ġi t
i r
Ġ at
al se
Ġa l
i st
l se
t r
o w
Ġ value
_ f
Ġn ame
= =
Ġ F
a y
fi le
e t
Ġ use
or k
Ġe lse
_ m
o bj
Ġst r
t ri
Ġ r
a ge
ar gs
Ġ /
Ġth at
at ch
_ s
Ġd ata
ul l
Ġs o
p end
u le
( "
t a
_ a
1 2
p a
Ġa s
Ġ R
p ath
f er
Ġ __
Ġ en
li st
e st
c lass
Ġto ken
t y
) ,
Ġ= =
m it
od ule
( '
se t
ce s
Ġ `
/ /
Ġ .
e l
Ġ %
Ġre s
e w
Ġ v
n t
cl u
Ġo bj
Ġ E
Ġf rom
le d
Ċ Ċ
Ġa d
i ve
0 9
he ck
o re
a it
clu de
Ġm a
fi g
Ġex cept
Ġn ode
p ar
co m
str ing
_ re
_ n
Ġa re
d ing
0 1
Ġ un
' )
ode l
l en
## ##
a g
Ġco m
: //
_ d
Ġtr y
" )
Ġl en
---- ----
Ġar g
Ġse t
Ġs y
Ġn ull
r ue
p ort
ab le
Ġp ar
3 1
Ġ y
"" "
p o
_a uto
Ġf un
in clude
Ġ O
juniper _auto
d s
o und
p ro
^ {
v i
ĠĠĠĠĠĠĠĠ ĠĠĠĠĠĠĠĠ
th od
val id
Ġ error
ar g
and l
N one
s h
ĠT he
Ġi mport
ar ch
h ase
as k
st d
re e
_ i
i re
Ġ key
p s
: :
b ack
< /
t es
Ġh as
Ġ head
_lo ss
Ġst d
il l
lo w
d u
un t
o ur
Ġs um
th on
* *
p re
t ext
R E
h er
en er
ge t_
il d
Ġ M
q ue
en ce
m o
ite ms
a ss
2 5
and le
Ġw ork
ce ss
0 5
d ata
Ġin t
an t
lo g
Ġch ar
h o
li c
Ġf ile
p ut
m b
Ġb u
ma in
i v
c al
f o
Ġlo g
Ġobj ect
c ur
8 0
Ġp re
andl er
a re
Ġ k
Ġc an
l ine
r ite
st ance
ur l
in d
Ġ= >
. #
ss age
Ġf i
Ġ >
a ult
i m
se d
al ly
S t
Ġw ill
_ w
Ġfun ction
a mple
Ġ le
u st
at or
ument s
g it
er e
p us
or y
i al
ĊĠĠĠĠĠĠĠĠĠĠĠĠĠĠĠĠĠĠĠĠ ĠĠĠ
st at
ver s
ow n
o ck
ig n
() )
pa ce
Ġd o
o f
r ad
co l
t t
n ot
Ġro ot
t ra
Ġ list
Ġl ine
Ġlo ad
_ ex
ap pend
te st
ve l
.. .
3 2
e m
Ġsy s
t ype
Ġsum _
b ut
m l
u ct
st ep
Ġres ult
T _
ance l
Ġtr ue
an s
s ize
] )
Ġ V
co ding
Ġcom mit
Ġc heck
f orm
Ġ1 2
Ġt est
8 8
m d
Ġad d
ul d
in it
i ct
y thon
at tr
Ġ 7
ar y
re am
' s
] ,
J uniper
ad d
at ed
de d
e mp
I N
2 02
Ġ U
con fig
" }
6 4
ime out
o k
pe ci
j a
Ġ B
Ġf alse
er r
to ol
Ġ get
li b
b le
Ġ L
b u
pt ion
Ġt ext
s _
St ate
Ġ D
r un
ro ut
Ġex p
202 6
er _
Ġ W
Ġ H
ĠT rue
t s
Ġc ode
Ġc lass
. """
Ġp ath
Ġstr ing
Ġf a
g th
ot her
Ġt ra
i fi
an g
x t
E R
ĠI f
................ ................
Ġw e
am l
lo ck
ver y
Ġa ss
i mport
lo ad
ree _
ser v
Ġ 4
O N
or ch
i p
7 6
Ġ( !
R e
Ġre ad
() ;
o m
Ġi d
Ġo ut
Ġtoken izer
Ġre n
y aml
== ==
ar n
Ġm odule
tri but
Ġ --
ĠF alse
Ġa b
re ss
he d
5 0
ancel led
ap ac
Ġme thod
Ġr un
apac ity
Ġren der
M E
ĠĠĠĠ ĠĠ
a k
he l
| |
_ id
1 9
al ue
d oc
ut h
li f
in stance
us er
Ġp o
s c
t he
c or
el d
u ation
t ent
_c all
Ġal l
qu ire
Ġe lif
st ate
1 4
at ter
o st
p l
par se
pe c
ch ar
Ġst art
er t
' :
Ġt ask
in es
Ġan y
8 4
tt ps
Ġa c
Ġ* *
Ġn ew
w ay
Ġ la
v ent
Ġc or
Ġm ust
- >
ect or
y n
( (
re q
_ name
f rom
is p
Ġc all
p hase
Ġwork er
obj ect
Ġt ype
_b ack
ĠT h
Ġnode _t
#### ####
2 4
A uto
_ file
r w
12 3
b y
le vel
Ġb ut
" ]
lo se
vers ion
I n
( ):
he s
Ġis instance
ex ample
6 7
2 3
a ction
it ion
ar d
_ se
Ġ j
_p ro
Ġ !
re s
a st
b o
up le
Ġde t
if act
w ait
Ġ end
it er
n ode
mple ment
] ;
ap p
f f
Ġen coding
T he
n ect
pe ct
p r
la ce
alue Error
en ame
Ġt orch
n ext
f fer
p i
2 2
to col
tri p
m odel
lo c
Ġdef ault
Ġuse d
O R
init __
_ token
ra p
3 6
Ġe very
Ġfor m
o us
r ame
Ġw ait
5 1
g er
fi x
Ġar gs
cept ion
Ġn o
c apacity
Ġ} );
3 4
Ġ other
Ġwh en
ĠV alueError
Ġco mp
Ġs ize
emp ty
25 6
Ġo s
ma x
Ġro ut
L E
se arch
se s
oc ab
_ h
Ġby tes
ame ter
_ in
A R
ĠTh is
Ġon ly
ĠN ot
a ve
Ġin st
-------- --------
Ġst ate
ĠĠĠĠ Ġ
st ream
Ġ q
A T
Ġass ert
al led
the ta
_n orm
isp atch
Ġst at
Ġso ck
xt ure
s g
} ^{
a il
in ing
ĊĠĠĠĠĠĠĠĠĠĠĠĠĠĠĠĠĠĠĠĠ ĠĠĠĠĠĠĠĠ
Ġex it
Ġ- >
Ġs u
ro up
ile d
ho uld
Ġs ub
' t
Ġ} ,
Ġs c
u int
con st
it ect
re n
ut ure
Ġ &
k w
itect ure
i ch
ĠS ep
x r
doc s
in al
Ġc le
ir on
en c
6 1
ate way
v ar
v iron
w rite
Ġs hould
f g
a ch
n o
Ġn um
e c
Ġchar act
Ġp r
te mp
at ive
Ġp ass
Ġt ar
Ġth read
Ġh andle
w ork
( {
lo b
C on
T rue
r y
Ġ one
Ġa uth
tribut e
g rad
Ġ G
M L
le ment
Ġ[ "
if y
pect ed
g ith
gith ub
our ce
Ġ 6
E N
A L
ĠR e
3 9
Ġh ttps
_p re
() .
Ġh andler
} ;
Ġn e
que st
Ġcon t
Ġ! =
enc y
m odule
serv ed
t ed
pus h
Ġ li
re ak
Ġwh ich
c a
_ code
_ con
n d
Ġd oc
4 8
in q
Ġfa iled
inq ic
Ġ @
C inqic
le ct
Ġre g
len gth
s on
i ss
Ġs h
Ġpr int
nect ion
Ġth en
f req
Ġ" /
Ġd if
Ġf ree_
v ector
re d
ul er
Ġme ssage
Ġa ct
yn c
Ġform at
88 123
s ign
re nt
us h
0 4
co unt
me thod
n s
A B
E _
it es
m ory
Ġload ing
in k
Ġg iv
Ġcon fig
l at
z en
Ġ ----
Ġbu ild
f ter
Ġm sg
_re s
ig h
o ol
ro zen
Ġ hel
s o
> >
ing s
Ġset State
Ġs peci
re ate
_ ac
se nt
Ġf il
_t ype
rout er_
x y
la y
o b
il ity
Ġdo es
g ener
Ġo ver
U T
sc ri
Ġ err
Ġ up
Ġstr uct
b er
n er
Ġs ame
fer ence
d one
g or
Ġt ime
7 9
= '
val uation
S e
o in
i eld
r t
stat us
Ġg rad
w e
Ġtest s
ites pace
Ġ qu
Ġlo cal
al ance
e ad
: '
un k
ap i
viron ment
Ġ+ =
Ġo p
E x
_ error
b e
3 0
v ocab
con fi
Ġo ption
" >
_b alance
` ,
en se
ĊĠĠĠĠĠĠĠĠĠĠĠĠĠĠĠĠĠĠĠĠ ĠĠĠĠĠĠĠ
Ġ version
Ġf in
Ġa p
gor ith
h andle
per ty
w or
Ġro und
me ssage
Ġ[ ]
1 6
B y
Ġ__ init__
** **
Ġ )
art ic
art ifact
l m
ot al
' '
5 6
or der
_m ap
la ble
S T
ifi ed
que ue
Ġcon text
form at
lo ss
de x
arg uments
Ġexcept ion
y p
9 9
Ġ< /
ac y
Ġin fo
po int
Ġ valid
Ġsys log
ation s
Ġg ener
% ]
' ]
_balance _loss
ff ect
gorith m
j son
s y
i es
Ġh ave
A D
G _
in f
un c
z _loss
Ġfi xture
an if
anif est
Ġin d
_ex per
l s
ĠE x
Ġal low
" /
t ime
a in
Ġcon st
N ot
q rt
Ġma in
D oc
lm _loss
pl it
art s
artic le
m in
80 80
arch itecture
Ġw as
"/ >
Ġpro du
T P
ac he
ec ut
Ġ z
Ġcharact ers
Ġm od
Ġ :
stat ic
ĠI n
Ġex act
router_ z_loss
op en
Ġs er
Ġso ur
cur acy
Ġ ...
Ġvalue s
0 7
I T
al s
ist ant
Ġwh itespace
_m odel
an ge
mo e
s in
ass istant
fi len
s ition
tool _call
Ġco s
al loc
ic al
il ing
Ġact u
Ġf n
_ac curacy
j oin
load _balance_loss
ĠP ython
Ġs qrt
Ġsour ce
8 5
g h
Ġs lo
st em
Ġp ort
D e
_p ar
h as
arg v
Ġ get_
Ġc ur
Ġex c
d ate
Ġd x
Ġin t_
Ġ| |
Re turn
en s
grad _norm
valid ate
Ġth an
Ġw r
9 1
Ġc ar
Ġ> >>
Ġdif fer
ure s
token _accuracy
E L
Ġin to
co mp
up port
ir st
Ġf ol
Ġout put
Ġname s
Ġen vironment
+ )
_ st
Ġre p
Ġy ield
u ffer
Ġit s
der r
se t_
m and
Ġwh ile
Ġc ancelled
Ċ ĊĠĠĠĠĠĠĠĠĠĠĠ
ma il
ms g
ĠI N
Ġin ter
Ġm odel
1 5
in fo
sh a
Ġma x
_res ult
_ head
er o
Ġ. /
E D
[ '
str uct
Ġ ent
_p ath
at es
Ġid ent
F O
.. /
F alse
b ility
Ġarg ument
Ġst ack
bu g
Ġhead er
0 3
def ault
Ġwh at
ire ct
Ġb ase
Ġslo t
la gs
[ "
i str
step s
ĠT ype
Ġb reak
_ string
en o
Ġf irst
U L
de v
it s
f s
lo cal
th is
Ġ us
Ġ uint
P ro
name __
Ġa fter
_pre pend
ang es
c lose
en code
ite m
p op
Ġw rite
E S
Ġarg c
+ +)
f or
node _t
Ġt uple
istr y
2 7
cl s
Ġspeci fi
Ġi mplement
_ de
_ to
u me
Ġc alled
vi ces
kw args
work er
Ġli mit
R O
_ value
ans port
Ġe vent
f ore
order ed
ĊĠĠĠĠĠĠĠĠĠĠĠĠĠĠĠĠĠĠĠĠ ĠĠĠĠĠĠĠĠĠĠĠĠĠĠĠĠ
Ġst or
g ateway
Ġi te
i ag
i e
ser vices
Ġle t
Ġp ush
s ock
F A
c ation
i ble
th er
5 5
o ken
Ġdiffer ent
8 6
c ancelled
Ġpar ser
read _file
vi ew
Ġab out
e ss
l ines
le ase
n ew
object ive
Ġstor age
ing le
re f
Ġin put
_ e
Ġnum ber
d ict
Ġ1 4
Ġexact ly
Ġ Y
ction s
Ġsock et
et ch
ut f
Ġn orm
Ġs pec
pa ces
Ġb lock
N ame
by tes
ĠĠĠĠĠĠĠĠ ĠĠ
Ġ+ +
Ġcle an
Ġp as
w o
is m
Ġ X
Ġc ase
Ġma ke
F ound
in eno
un ordered
I L
ab s
> (
Ġm ay
Ġpro tocol
Ġstorage _
Doc uments
_c ast
f ree_
push _back
unordered _map
Ġfol low
Ġsc hed
Ġse qu
Ġf lo
c le
Ġtar get
i ent
are d
p on
Ġat temp
R L
ic s
==== ====
T imeout
######## ########
09 6
ĠP hase
Ġlo op
Ġto p
i o
Ġco unt
5 8
s um
Ġe ach
Ġlen gth
Ġ 8
Ġ juniper_auto
ĠM o
Not Found
ro l
7 4
al th
er y
ta in
an ch
c all
Ġf rame
` `
en ces
Ġ K
Ġ{ }
E ffect
f set
la in
Ġk w
[ :
Ġx ml
py thon
Ġcon nection
Ġpar ameter
p ack
th en
2 1
ex port
ĠType Error
Ġin stance
Ġc fg
( ()
M s
Ġuse Effect
Ġuse State
Ġwait Ms
Ġ} ;
o u
ab c
Ġfil ename
Ġrout es
cur ren
Ġread er
cor d
he alth
ra w
ĠS t
Ġme mory
Ġt wo
by te
pro cess
ex pected
ho st
Ġd ict
f e
Ġactu ally
Ġl ines
H andler
mo ve
Ġme an
Ġp er
E X
Ġh ere
Ġpas sed
confi gs
peci al
Ġb in
Ġmod ified
)) )
_ g
f unc
} ,
filen ame
ok ie
health y
Ġm atch
ex it
iz ed
mb er
Ġex per
Ġi ter
_b y
Ġauth or
ce back
n own
Ġlo ss
Ġpro cess
C h
app ing
Ġ 5
L O
ce d
Ġb r
T ype
x ml
du ci
ig in
Ġa wait
Ġs ingle
---- -
' ):
ca use
fi ci
s ource
Ġ4 096
Ġsched uler
Ġbr anch
Ġc la
ind ow
Ġind ent
Ġcor pus
_ C
ith er
k ip
ot e
Ġ' .
Ġdoc ument
Ġt yp
1 50
an ner
lat ency
Ġd own
Ġwith out
_ read
p ed
std out
ĠIN FO
Ġde pend
Ġser ver
() ,
Ġd ispatch
A S
T oken
an y
Ġf rozen
I ME
N O
s plit
ul t_
F ile
_ ms
_ ro
Ġh ost
Ġcommit s
39 31
g n
pre sent
' .
................................ ........
................................ ........................................
Ġ0 5
ĠC on
Ġad m
atter n
d own
w h
ĠL O
Ġhel d
d rw
drw xr
e valuation
latency _ms
Ġc ls
o id
Ġt imeout
on g
Ġla st
] .
_s h
duci bility
Ġre present
per _token
ter min
D E
M S
_lo op
f ul
ro ss
var i
g ment
ty p
Ġp i
e y
re ct
3 8
ro py
Ġse par
A ML
O U
atter s
T TP
c la
l l
m ar
3 5
ist er
w ith
ĠY AML
Ġa v
Ġbe cause
o uld
p ri
ub lic
Ġreg istry
Ġwh ere
serv ation
Ġ J
Ġget attr
res ult
tool _result
Ġarg uments
tri ps
Ġcur rent
Ġre quire
con tent
l t
ob servation
tr y
Ġ queue
Ġcheck out
"} }
_t ra
P ar
a ms
Ġexit _code
ag es
lect or
Ġbe t
Ġe lement
Ġfa il
lic y
a mp
lo sed
ri p
Ġp y
ate ver
on ly
te g
f c
Ġwh atever
_token s
se ction
Ġn on
Ġz ero
l ate
p lace
Ġ` `
Ġcont in
Ġhas h
Ġch ild
Ġe ither
Ġv ar
_ S
cle ar
m anifest
ĊĠĠĠĠ ĠĠĠĠĠĠ
Ġ2 56
2 0
of t
ter n
Ġst ep
ĠRe turn
Ġs upport
ifi c
E T
I mplement
all back
at er
Ġ url
Ġcar ry
Ġcon struct
Ġgiv en
Ġm atters
la st
Ġa ction
Ġpre fix
indow s
Ġf ound
ri es
Ġdown stream
d a
ĠLO G_
Ġerror s
Ġg ate
Ġp art
ent ropy
n um
Ġcon s
Ġre quest
Ġw ould
Ġwr it
[ -
f n
iz ation
o i
Ġex ist
_ add
form ation
Ġco l
Ġd ist
Ġs im
Ġhas attr
Ġn ext
(" %
__ name__
c cess
Ġs paces
A N
Ġ' ''
i x
Ġla y
a fe
g t
s ses
v ed
Ġb ound
Ġex ecut
Ġname d
li m
re pr
Ġfun c
o s
Ġbe fore
il ar
ur ation
Ġad ded
Ġre st
Ġs ign
po s
re g
vi ce
Ġal gorithm
Ġde p
Ġstat us
Ġgrad ient
d o
Ġhead ers
RE AD
la g
w ard
Ġfi x
as ync
Ġ ver
Ġm ode
T I
at ure
er g
_ ch
k ind
4 3
an ag
co py
i b
re search
j ect
l ation
t tribute
Ġin formation
Ġb ack
ex act
he ther
name s
Ġident ity
_ list
class __
s pec
s pecial
Ġre port
Ġse c
code d
i ment
ra ct
to p
ta x
Ġat tribute
Ġg lob
Ġsim ilar
. "
36 8
Ġcontin ue
1 00
Implement ed
po st
Ġl ink
Ġsu per
ex c
g ress
ĊĠĠĠĠĠĠĠĠĠĠĠĠ ĠĠĠĠ
Ġd irect
_ j
ead er
ke ep
tt p
Ġs ample
act ory
} :
Ġus ing
Ġst derr
51 1
F C
P E
our ces
is ion
or igin
pro perty
we en
f fici
f t
Ġg roup
IN G
mp ty
pon se
ĠNot Implemented
erg es
Ġre lease
Ġsy n
00 07
M odule
Token izer
d ir
teg r
u al
ĠK ey
Ġthe ir
( [
_ count
n ing
Ġbet ween
qu al
wor d
Ġ2 0
Ġpre served
U N
al lable
de ad
UT F
en coding
o me
Ġallow ed
Ġconstruct or
Ġres ources
Ġth ere
I O
Ġin it
s r
w arn
Ġd is
Ġlo ck
( *
67 7
A C
ar ds
ĠĠĠĠĠĠĠĠ ĠĠĠ
ĠN o
S tr
in ed
iss ing
ĠO S
Ġw arn
Ġat tr
76 6
S ON
_in fo
ut il
Ġ ],
at ri
con text
LE V
LEV EL
atri x
de l
Ġ( )
Ġac quire
Ġar t
R OR
a ir
unt ime
ĠU se
Ġse nt
Ġspecifi ed
t abs
Ġart ifact
Ġcor rect
Ġstd out
? >
not es
ure d
ĠU n
Ġtra ining
02 1
UL L
ex per
t otal
tra iling
ut down
Ġ ^
Ġ< =
ĠC o
Ġcle ar
Ġreturn ed
< ?
b pe
m ap
manifest s
oft max
ta gs
te ger
Ġcom m
Ġcon tain
Ġle vel
Ġnot ation
Ġw hether
_ args
a ult_
is hed
Ġf uture
OU T_
_c heck
g ing
ĠX ML
Ex ception
_ r
t xt
wor ds
Ġi ma
Ġv is
S y
lo y
re place
Ġcont rol
Ġlimit s
Ġor der
02 2
O T
el ds
i de
pl an
ĠT IME
Ġc ross
Ġthread s
B U
R ound
__ class__
s_ on
Ġb o
Ġf lags
Ġgiv es
Ġre cord
ci i
th read
Ġ> =
ĠNot es
Ġde l
Ġite m
Q u
has hes
Ġ1 1
Ġin teger
Ġp ython
Ġst ream
Ġxml ns
I C
O _
t ar
Ġ \
Ġdep loy
Ġg ateway
Ġima ge
. </
: \
a i
c ision
o ption
od y
pre served
Ġm ore
" ?>
0 76
25 00
L o
_ len
curren ce
d ispatch
Ġc pus
Ġrep lic
368 64
scri pt
tegr al
wait ing
ĠJ SON
ĠLOG_ LEVEL
ĠR FC
ĠTIME OUT_
ĠTIMEOUT_ MS
Ġdepend s_on
Ġf ull
Ġport s
Ġreplic as
---------------- ----------------
_pro gress
are nt
dead line
f rame
h ttps
in _progress
mar ize
objective _id
re view
red is
sum marize
v _
Ġlog ger
" .
**** ****
__ init__
_s ize
n ow
tra ining
Ġc re
27 3
com mand
ra gment
so le
ĠC P
ĠV ar
Ġpy test
ĠA uto
Ġex tra
Ġgener ally
Ġm ost
_by tes
gener ate
s ers
Ġco un
I T_
_ arg
is h
ol d
read y
sy stem
Ġ keep
Ġw ay
_ config
_ k
anag er
d ist
i j
i k
ĠM ore
Ġh ow
ĠD E
ĠS e
om ial
w in
3 7
tribut es
Ġ 9
Ġbe st
Ġre currence
Ġprodu ct
U RE
b ase
up s
ĠOS Error
ĠW e
Ġne ed
Ġsimilar ity
Ġstat ic
Ġy ou
In tegral
_ state
c heck
lic it
sign ed
t ing
Ġbin omial
Ġobject s
_ rout
ci ent
cient ific
s ing
t an
Ġmethod s
) ^
24 58
_b ar
an not
ore m
Ġal so
Ġch anges
R I
d x
o pt
Ġ* ,
ĠC heck
Ġsum _i
99 79
^ -
^{ -
ar k
Ġ( ||
Ġcos ine
Ġp _i
Ġq _i
Ġsum_ h
Ġsum_ j
Ġt an
Ġv _n
Ġx _bar
Ġx _i
022 14
6 021
B ay
Bay es
E uler
S oftmax
Softmax _i
V ector
]) ^
de bug
id th
lim _
m alloc
std lib
u x
y le
z _i
z _j
{ -
|| ).
Ġ ~
ĠA _
ĠB _
Ġco mple
Ġde g
Ġdeg C
Ġm ol
Ġsum_ k
Ġthe orem
02214 076
6021 766
6021766 34
9979 2458
B ig
M atrix
S L
S cientific
k j
Ġr ange
B ase
H eader
l ing
Ġ user
Ġab s
ai lable
b el
k nown
m erges
mb ol
v ate
Ġf allback
Ġme ans
2 61
2 9
Ġe mpty
Ġflo at
artifact s
c ent
con d
ex t_
Ġpo sition
Ġtyp es
if t
s ub
t ings
Ġby te
Ġen um
Ġlay er
iter ator
le m
ma int
v en
vari ant
I G
ay load
Ġco py
iag n
iagn ost
Ġfi eld
Ġfin ally
Ġsequ ences
FA IL
_d ict
ac hes
ad er
out put
p ublic
um n
B uffer
M e
a ke
ck le
g roup
igh t
ĠI t
Ġconfig uration
FAIL URE
U RL
_ co
tent ion
un ction
Ġ( "
Ġinst ead
Ġse ction
Ġso me
Ġvar i
N ode
_ fi
ens or
Ġ( '
Ġ* =
ĠN ULL
Ġe val
Ġt ag
" );
: ]
Ġchar set
g o
in st
ot h
Ġbound ary
Ġc a
Ġup date
T h
_f rom
Ġ ?
Ġbe en
Ġbu g
Ġsyn tax
_lo ck
i ce
5 9
E nd
M P
_ F
size of
Ġop en
76 19
READ ME
at c
ur al
Ġ^ =
Ġl ang
Ġm alloc
Ġp error
S u
Se e
W indows
us r
Ġadd ress
Ġex pected
Ġre set
Ġy our
Ġch unk
Ġinst all
O n
U ser
arn ess
n one
Ġ2 16
Ġc lose
Ġk now
Ġkw args
Ġpro perty
T ER
] '
_ T
temp late
Ġprint f
_ tokenizer
al gorithm
as cii
es ca
iv ation
st rip
un ct
Ġ1 677
Ġ1677 7619
Ġ216 61
Ġ21661 36
Ġ2166136 261
Ġat oi
Ġfn v
Ġlist _prepend
Ġsize _t
Ġt re
" ],
EX IT_
EXIT_ FAILURE
]) );
gh t
il y
list _prepend
size _t
std int
std io
type def
Ġal ready
esca pe
rap per
ĠP ool
Ġp e
( `
T est
p art
ĠF or
Ġwith in
../ ../
8 9
Qu ery
R es
_h andler
Ġ_ get_
Ġbu ffer
Ġs s
Ġwrit ing
_m ask
l d
l ineno
st ract
1 1
_ me
andl ers
f inal
typ ename
u ed
Ġ} )
gn ore
Ġme ss
iss pace
tr ue
w ise
Ġcheck ed
/ .
\ \
ho me
i mple
set tings
tern al
Ġ $
Ġc atch
Ġdo main
Ġin her
1 85
A X
to ml
AR N
sh ift
ut e
ĠP re
Ġf req
at ing
de sign
ful ly
in ux
of fset
p ip
pri vate
t mp
ttribute Error
Ġc reate
Ġtra iling
_exper ts
b lock
gener ic
Ġap p
Ġar ch
Ġstart ing
e k
i er
li ent
maint ain
ri pt
u g
Ġbu f
Ġreturn s
_ P
_w ait
ĠĠĠĠĠĠĠĠĠĠĠĠĠĠĠĠ ĠĠĠĠĠĠĠĠĠĠĠĠĠĠĠĠ
Ġd i
Ġf etch
Ġv ocab
a uto
Ġcon sole
Ġfin ished
Ġlang u
Ġma ch
Ġcoun t_
Ġimplement ation
:// /
_ lay
and ard
app ly
el ative
loc ation
pack ages
run _p
Ġe valuation
BU G
U sers
ex p
model s
r ansport
s ite
w ards
Ġt otal
Ġth ree
84 43
c atch
Ġc apacity
Ġcommit ted
Ġcount_ words
Ġstatic _cast
Ġv oid
Ġ~ /.
( &
() );
* >
R elative
b lob
emp lace
emplace _back
h ra
mail to
pop _back
static _cast
tri c
un signed
Ġ ../../
Ġ gs
Ġattemp t
Ġh arness
Ġs sh
' "
End point
_m odule
back ups
github user
githubuser content
ion s
maintain ers
max _tokens
wh l
Ġf ragment
Ġo per
Ġthe y
_b uffer
bo se
er t_
iagnost ics
Ġun known
ar t_
und er
Ġe ffici
Ġm ark
" ;
5 4
] ()
and om
ĠR ep
Ġpar se
Ġre pro
C o
dict __
la p
Ġ"/ ":
Ġcon f
Ġlangu age
Ġwarn ings
bo un
f d
ib ly
o ver
_f ail
il t
in t_
-- -
_d im
c reate
Ġent ry
Ġm ult
Ġst op
Ġun expected
Sy mbol
in dex
t uple
ĠEx p
Ġcons ume
5 23
C O
scri b
Ġ( ...
ĠKey Error
ĠNotImplemented Error
Ġg it
Ġl ineno
_t ask
hra se
Ġ* [
Ġ[ ];
Ġset Timeout
) );
/ :
Se arch
h en
li mit
m atch
on th
ra m
ver ify
Ġ! ==
Ġ$ {
Ġ? ?
ĠR ing
ĠRing Buffer
Ġclear Timeout
Ġcom mand
Ġde boun
Ġdeboun ce
Ġdocument ed
Ġre try
Ġs kip
Ġuse F
ĠuseF etch
] );
_c lass
re act
re turn
Ġi gnore
Ġrender Error
Ġrender H
Ġrender NotFound
Ġrender Search
Ġrender User
ĠrenderH ome
Ġt urn
" ):
7 7
:' \
= {
parse Query
us ers
}: `,
Ġ uni
ĠE R
ĠU sed
Ġp ack
Ġstd lib
Ġwh y
Ġwork s
U P
i as
repr __
Ġinst alled
Ġs ort
Ġwork ers
5 51
cla red
und trip
ĠCP ython
_m ock
_s ock
ex ception
r u
st arts
Ġp ub
1 02
1 14
_ is
ig u
ĠER ROR
Ġinput s
c fg
head er
Ġcla im
Ġde que
Ġss l
6 6
NotFound Error
he ap
ma ke
sock et
termin ism
ĊĠĠĠĠĠĠĠĠĠĠĠĠĠĠĠĠĠĠĠĠĠĠĠĠĠĠĠĠ ĠĠĠ
Ġinit ial
Ġmach ine
Ġprodu ced
C I
` .
Ġhel p
Ġo k
Ġpro vi
0 8
F I
S I
S c
ar ing
li sh
t orch
Ġattemp ts
Ġse e
48 1
C lass
ccess fully
if f
m ode
n ess
Ġcon tent
Ġtr ansport
T Y
bo x
me mory
read able
Ġ ..
ĠH TTP
Ġbo ot
Ġco okie
Ġm in
12 0
_ro undtrip
li ke
ĠA ttributeError
9 02
U n
_w rite
ag ed
ch an
n v
o e
ĠA v
Ġint ro
Ġpe er
Ġre al
21 3
L ist
_fail ures
inst all
rap h
sy s
validate _
Ġ0 0
ĠW ARN
Ġan not
Ġc are
Ġin dex
Ġpre cision
5 50
Con fig
end ing
qu it
test _tokenizer
Ġlog ging
Ġme tric
le ss
ser ver
str u
ĠDE BUG
Ġde clared
Ġin variant
Ġindent ation
_call back
comp ile
key s
ĠA n
Ġl s
Ġo ld
Ġse q
e ar
li er
t en
w n
ĠP ro
Ġa g
Ġd f
Ġof fset
Ġp arent
all __
b it
f uture
mb ed
me d
Ġ4 1
Ġ8 3
L inux
ĠA ug
ĠSt ate
Ġat tributes
Ġfail ures
Ġme chan
Ġo pt
Ġun ame
Ġver bose
_d ata
d d
her e
ri but
um an
unct uation
Ġ 67
Ġ 88
Ġa head
Ġcall back
Ġd on
Ġlo ok
Ġor ig
Ġsh ared
attr s
li as
ri ght
Ġ2 34
Ġ7 4
Ġdist in
Ġme mber
Ġmechan ism
_ line
_t imeout
de ps
fi xture
i pe
p id
ul ar
Ġ1 48
ĠS ize
Ġa mb
Ġas ync
Ġeffici ency
Ġp hrase
Ġse ed
... "
0 6
523 8
[ ]'
b s
co re
low er
unt ed
ĠĠĠĠĠĠĠĠĠĠĠĠĠĠĠĠĠĠĠĠĠĠĠĠĠĠĠĠĠĠĠĠ ĠĠĠĠĠĠĠĠĠĠ
Ġc url
Ġcharact er
Ġpub lish
.... ..
........ ......
................ ..............
] :
_file s
_st yle
du ces
il ename
m apping
test s
test_tokenizer _roundtrip
Ġ0 3
Ġ12 84
Ġ14 5238
Ġ88 213
ĠAv ail
ĠMo unted
Ġdeque ued
Ġj q
Ġm y
Ġretry able
Ġst aged
> ..."
Ch anges
De f
File system
Y our
de code
iv ing
nv me
s S
sr m
st art
t i
tmp fs
ĠSe e
Ġoption al
84 3
col umn
de pend
h a
in ce
ver se
} }
Ġen coded
Ġh uman
Ġj ob
Ġj ust
Ġparameter s
O P
f ind
i et
Ġb ool
Ġexp licit
Ġite ms
Ġpar ses
Ġsequ ence
_ per_token
ameter s
cur s
f in
out ine
ĠR ound
Ġcorrect ness
Ġrepro ducibility
Ġround trip
_ char
am ily
ar ial
c re
it ative
se p
ul ary
vers arial
Ġcan not
Ġli ke
_p o
2 6
A ME
By te
I d
s_ per_token
se nd
ss l
Ġevent s
Ġformat s
3 3
EN D
_ex ception
reg ister
use d
vers ible
Ġav ailable
Ġdistin ct
Ġp unctuation
Ġroundtrip _failures
__ dict__
char s_per_token
go al
iter al
Ġ under
Ġauthor itative
Ġbytes _per_token
Ġlo gs
Ġw or
_ set
atc hes
n orm
sc anner
tool _error
Ġ' %
Ġ_ win
Ġc ache
Ġs it
Ġst andard
Ġstring s
Ġthe m
) ]
_pro tocol
bu d
d ence
hel d
l ter
pre ference
ri end
s afe
ĠI ts
Ġpo s
################ ################
12 9
ere ly
igh ts
ot ed
starts with
t il
Ġ1 843
Ġ[" --
Ġ_win api
Ġm erely
Ġnames pace
Ġp air
Ġvocab ulary
"] }}
Con text
Module NotFoundError
Sc anner
Scanner Error
_c ache
add r
bud get_
budget_ steps
exit _code
last _error
open _files
re versible
ri de
run_p ython
validate_ yaml
Ċ ĠĠ
Ġ juniper
Ġamb igu
Ġe mail
Ġexp lain
Ġn at
Ġp ast
Ġrequire d
Ġsit uation
G ener
Su ccessfully
_d ir
ad versarial
confi dence
def ault_
review _style
ta il
way s
Ġf riend
du ce
e ch
lo at
o se
pa rent
scrib ing
ĠRep ro
Ġb oth
Ġcomm as
Ġconsume s
Ġn ice
Ġnat ural
Ġpar ag
Ġparag raph
Ġse t_
S _
depend ent
ech n
ĠPre fer
ĠRepro ducibility
Ġac cept
Ġre aches
Ġun g
Str uct
m or
or b
ro ken
Ġc allable
Ġsent ence
_ get_
_id s
ind ent
ment s
w s
ĠB ase
Ġambigu ity
Ġsepar ates
ater ial
ect s
f a
g ate
ĠA r
Ġcar ries
Ġsituation s
Ġun til
E P
atch er
be aring
in y
w d
Ġabs orb
Ġi o
Ġinher its
Ġintro duces
Ġm aterial
Ġpo ss
Ġre main
Ġtra de
= [
ad ding
m od
orm at
ub i
ĠF ilename
Ġany one
Ġfriend lier
Ġglob al
Ġqu iet
Ġquiet ly
Ġre ference
Ġre training
Ġturn ing
ction ary
d ense
echn ical
es c
st ack
Ġ' '
Ġfi del
Ġfidel ity
Ġfragment ation
Ġh ttp
Ġloss y
Ġpast ed
Ġs and
' \
) ):
E n
Struct ured
_ un
ach er
ang er
at tention
has h
l ink
ra y
t imeout
ver t
vi ous
Ġ ubi
ĠD e
ĠFilename s
ĠI mport
Ġac cent
Ġaccent s
Ġconf et
Ġconfet ti
Ġf als
Ġfals ify
Ġflo ur
Ġflour ish
Ġle ans
Ġm issing
Ġm ot
Ġmess ier
Ġre wards
Ġso und
Ġsound s
Ġtre acher
Ġtreacher ous
Ġubi quit
Ġubiquit ous
Ġun for
Ġunfor g
Ġunforg iving
Ġung la
Ġungla mor
Ġunglamor ous
O C
T echnical
_h andle
_s parse
c ache
cation al
de scribing
of fs
th ing
work s
ĠExp lain
ĠR untime
Ġdef ense
Ġmot ivation
Ġnice ty
Ġstr anger
Ġvis ibly
38 7
De terminism
E du
Edu cational
Res ult
_f actory
ge st
qu ote
Ġfil ter
1 7
bu f
m t
st derr
Ġfi elds
A G
_head er
iv ed
r and
un ter
ĠMo E
Ġres ponse
P ath
ate ly
f ull
ĠS M
ren t_
__ all__
_exper t_
l er
I S
S et
_ M
c ase
fi r
new __
or g
ru pt
ĠW hen
Ġ_ re
H TTP
qu ence
ur i
Ġpro to
Ġrep lace
======== ========
AL L
Ġfile s
Ġraise d
0 32
_par ser
} )
Ġ util
ĠEx ception
Ġdefault s
Ġtra ceback
_tra ce
le ctions
qu i
script or
value s
Ġ__ repr__
Ġp attern
Me ssage
_ host
_ch ild
d en
er ver
up date
Ġde bug
Ġf lag
Ġf ut
Ġop code
ail ure
co very
w are
Ġd iag
Ġf d
Ġp arts
Ġpo int
Ġrout er
P I
_ valid
_id x
a v
arn ing
file obj
mb ers
ok ies
} ")
Ġdoes n
Ġm ock
Ġtr ans
Ch ild
_arg ument
c ated
ilt in
tra ce
Ġse lector
_head ers
al low
bel s
Ġre pr
5 7
_ str
d is
en um
ĠRuntime Error
Ġap pro
Ġsc ript
Ġse lect
Ġsy stem
p ol
ro p
ss ion
Ġi ss
Ġpo licy
9 4
O F
error s
po sition
u gh
ĠNot e
Ġdef ined
Ġexception s
Ġm anifest
O M
act ive
do main
ri ct
ĊĠĠĠĠĠĠĠĠĠĠĠĠ Ġ
Ġa uto
Ġe lem
Ġpi ckle
Ġspeci al
_w e
f rozen
mbed ding
Ġal ways
Ġcall s
Ġs ince
_add ress
_t ext
d ay
e ded
Ġdirect ory
ON T
_ get
_re pr
ch ild
d ition
item __
peci fi
ĠImport Error
Ġcla sses
Ġfunction s
Ġth ro
8 7
In valid
O S
doc __
e vent
ic ally
stru ction
re move
Ġ_ is
Ġexper t
Ġinter n
lo op
om in
pre fix
Ġra w
Ġw ant
Ġwait er
C H
_ attrs
qui val
ra ction
Ġ Q
Ġ' ,
Ġag ain
Ġdi ctionary
Ġpro xy
CI I
end s
r it
} '
Ġ' \
Ġcre ated
Ġtra ce
1 0
Par ser
T ensor
X X
_f uture
_h as
add ress
sha ke
Ġkey word
Ġre move
Ġw rap
Par se
_ at
t rol
test _model
Ġin s
Ġne ver
able s
d _model
Ġorig inal
s parse
Ġd one
Ġthread ing
I D
T H
_ or
_ version
_f ormat
_rout ed
init ial
m al
Ġadd r
Ġbe ing
Ġpi pe
Ġse cond
Ġv i
C T
N AME
_g roup
b atch
Ġ1 0
ĠP ath
ĠU RL
Ġde st
de vice
exper iment
f p
l ush
Ġ[ '
Ġc losed
Ġfollow ing
Ġlo w
Ġnorm al
Ġpack age
Ġtar info
51 6
S H
TI ON
_f d
_t ransport
z ero
Ġarch itecture
Ġd ir
_lo cal
_re g
c v
in put
mb da
ĠL o
Ġp ri
Ġre cor
F ailure
_n ew
_s pec
and shake
f fix
f loat
re sh
tar get
Ġse nd
default s
en ded
ĠS SL
Ġf inal
Ġf p
_ IN
_ l
s lo
Ġin clude
Ġs up
E vent
I ter
_d iagnostics
a x
add _argument
an k
ang ed
module s
ribut ion
Ġpar ams
S P
d b
filen o
n e
r on
u da
Ġd ense
Ġo c
Ġsub class
" ))
isp lay
ml ink
ool s
Ġc lient
Ġde vice
Ġposs ible
Ġw ere
4 6
A P
L ock
ST R
_ on
_m oe
_n um
ath er
ho ok
k _idx
opt im
Ġe mit
Ġthe se
FA UL
_f or
_lay ers
bu ffer
g ram
he me
n et
ter rupt
ĠReturn s
Ġf e
Ġseq _len
By tes
V ar
_name s
ac hed
fa ce
Ġcomple te
Ġst ill
4 7
_ com
_c lose
a uth
con ds
ine l
Ċ ĊĠĠĠĠĠĠĠĠĠĠĠĠĠĠĠ
Ġme mo
Ġother wise
Ġt b
67 74
] ]
__ doc__
se q
ta ining
z ip
ĊĠĠĠĠĠĠĠĠĠĠĠĠĠĠĠĠĠĠĠĠ Ġ
Ġsign al
ME N
Y _
_sh utdown
fir st
******** ********
_c ur
ces ses
h andler
par am
ta g
Ġb ody
A lias
E lement
Pro tocol
_c losed
curren t_
p attern
st rap
Ġf ind
Ġp ayload
Ġqu ote
Ġt er
48 387
V ER
_ ma
_ thread
as on
o ve
yn ci
Ġthro ugh
" {
Th is
_ le
_p art
_p hase
ad ata
ant s
er ate
re quire
s ort
se ed
ur ing
Ċ ĊĠĠĠĠĠ
Ġ heap
Ġ" %
Ġch ange
Ġex t
Ġon ce
W arning
_head s
_ro ot
u mp
Ġ val
Ġt emp
_d o
ac quire
ak ref
i bility
le an
names pace
re quest
rout er
w w
Ġactu al
Ġex ample
Ġmult ip
Ġp id
Ġpar am
032 25
Def ect
RO OT
_ lines
_pre fix
ator s
ext ra
id den
slo ts
t ext_
w rap
ĊĠĠĠĠĠĠĠĠĠĠĠĠĠĠĠĠĠĠĠĠ ĠĠĠĠĠĠ
Ġreg ister
19 35
6 5
O_ ROOT
U D
V alue
_s ource
ate g
c md
fi eld
ign ore
ynci o
ĠP ar
Ġcomp at
Ġcontain s
Ġglob als
C ase
_con text
_f rame
_re quest
ci mal
d om
g ative
ise s
own er
Ġiter able
80 64
H E
Pro cess
_s ub
cla sses
omin ator
on ical
pre cated
ption al
s u
Ġde scriptor
Ġm apping
Ġnew line
S erver
_ex c
ce ived
head ers
i mp
li ed
t ask
ĠN ode
Ġc t
Ġk ind
00 1
2 8
D ict
p ing
tail s
ue ue
ĊĠĠĠĠĠĠĠĠĠĠĠĠ ĠĠ
Ġload er
Ġn ow
I ON
W S
_ method
co mple
fi lter
h ttp
ro ot
ĠM e
Ġl ong
Ġresult s
Ġtop _k
' ))
4 9
H AS
_string s
are n
it ive
slots __
Ġ' {
Ġelement s
Ġm ap
K E
S E
_s y
c s
il der
ot strap
se e
u d
we ight
Ġ_ s
Ġan other
Ġc l
Ġre mo
Ġsort ed
Ġvalid _mask
= %
AT E
] (
_ raw
a pe
ecut or
id ate
t b
Ġind ic
A r
Gener ic
_f ork
ar ray
ext end
mo st
scri ption
stat s
up lic
w idth
Ċ ĊĊĠĠĠ
Ġap pend
Ġav oid
Ġexist ing
Ġit self
Ġp op
Ġre l
_c fg
_d ispatch
_p arts
ct ype
e lement
it ies
r ans
run ning
std in
ĊĠĠĠĠ ĠĠ
Ġ( `
Ġab lation
Ġma il
Ġmatch ing
Ġrun ning
. ")
516 129
Q U
ateg ory
id ent
par ser
upport ed
Ġannot ations
Ġc md
Ġnum er
Ġover ride
00 0
G et
LO C
Z E
_h andshake
def ects
ent er
m ary
Ġpre sent
_ message
ĠUn i
Ġr andom
" ),
1 3
Doc ument
_exper t
_lo git
_p ending
_po sition
_tra ceback
ab stract
c ard
ch ron
hel p
Ġ__ slots__
Ġcon taining
Ġd ay
Ġh andlers
Ġkey s
Ġre q
F F
O L
ab led
act or
b ody
c uda
curs ive
par ams
tra verse
Ġco uld
Ġintern al
Ġres ol
Ġs afe
Ġs ave
Ġs ig
6 9
Se lector
_ key
_e vent
ced ence
in ter
lo bj
sh ared
ĠĠĠĠĠĠĠĠ Ġ
Ġcomp ute
Ġexper t_
Ġoption s
Ġp hase
Ġvis it
A b
] [
_to p
g ger
ha vi
norm al
} ')
ĠR a
Ġco okies
Ġcol lections
Ġo b
Ġpre vious
Ġre fer
Ġscript s
' {
09 6774
RE P
_ qu
ist ic
kw ds
r ary
tool s
yp es
ĠG ate
ĠGate Failure
ĠT here
Ġe quival
Ġf amily
Ġinter face
Ġo wn
Ġprovi ded
Ġsupport ed
7 5
Pro xy
_ architecture
b in
ch unk
f low
t adata
Ġin valid
Ġm anager
N S
at al
ĊĠĠĠĠĠĠĠĠĠĠĠĠ ĠĠĠĠĠ
Ġapp lic
Ġcon n
Ġexper iment
Ġg o
Ġuse s
S ER
_ and
_ level
_ ssl
_f lags
_re f
and idate
p th
par ameters
u ally
ĊĠĠĠĠĠĠĠĠĠĠĠĠĠĠĠĠĠĠĠĠĠĠĠĠĠĠĠĠ ĠĠĠĠĠĠĠ
Ġle ast
Ġme mbers
Ġprovi de
Ġsu ch
' re
A M
_me mber
ase s
me mber
pa ss
t ic
ĠE OF
Ġab ove
Ġagain st
Ġinstance s
Ġopt im
" \
OR T
_ ab
_a fter
_ex it
em on
m an
r iter
sr c
Ġ escape
ĠO n
ĠX XX
Ġ__ get
Ġen code
Ġi m
Ġpar sing
Ġw idth
EN T_
R un
_ B
ist ics
lo sing
main __
ĊĠĠĠĠ ĠĠĠĠĠ
Ġcount s
Ġm onth
A dd
C reate
Lo ader
N o
_ length
_t iny
c ul
d iff
el l
ent ic
g lob
id ual
ig its
pr int
ser t
ter m
v es
ĠO ptional
ĠS et
Ġac cess
Ġexist s
Ġgener ator
Ġh app
Ġs plit
Ġto k
' ),
A s
AN D
Th read
_t est
bu ild
char set
ep re
on ent
pr int_
read line
Ġs imple
AT H
_d one
_f ut
abstract method
ck ling
e mbedding
exit __
g ument
lay er
p ayload
ub class
ĊĠĠĠĠĠĠĠĠĠĠĠĠĠĠĠĠĠĠĠĠ ĠĠ
Ġd uring
Ġde code
Ġg ot
Ġre f
Ġs parse
G I
_ D
_b lock
ar is
d i
e ver
f lags
ĊĠĠĠĠĠĠĠĠĠĠĠĠ ĠĠĠĠĠĠ
ĠO ther
Ġass ert_
Ġattr s
Ġd type
Ġe ven
Ġexecut ed
Ġr ather
Ġre ason
. ')
1 8
EN T
I P
LO W
NO DE
P RO
_ ent
_ filename
_ offset
_in dex
_se ed
ass ert_
d irect
pa ir
ust om
Ġ- =
Ġbe havi
Ġcon dition
Ġde cor
Ġdet ect
Ġdirect ly
Ġne eded
1935 48387
O D
REP O_ROOT
_con nection
co me
ends with
ifi cation
lap ped
log ger
m on
o ok
ound ation
s pace
ĊĠĠĠĠĠĠĠĠĠĠĠĠĠĠĠĠĠĠĠĠĠĠĠĠĠĠĠĠ ĠĠ
Ġ' <
Ġbin ary
Ġmake _tiny
Ġqu oted
Ġs pace
Ġsub process
Str ing
_ UN
_g lob
_lo st
_p ipe
_w ith
ation al
me an
res pon
s ure
ĠA ll
ĠB y
ĠSM TP
Ġ_ make
Ġd _model
Ġent ries
Ġp lace
L e
Re ad
U RI
_ of
_host name
bj ect
encode d
load er
med i
po licy
t ect
Ġbreak point
Ġcall ing
Ġcompat ibility
Ġdef ault_
Ġimplement ed
Ġl ater
Ġp ublic
2 00
: **
> '
L A
N E
T O
UD A
_read er
_se nt
_t uple
aren t_
cl one
er m
f unction
le ction
ou gh
pro ject
ĊĠĠĠĠĠĠĠĠĠĠĠĠĠĠĠĠĠĠĠĠĠĠĠĠĠĠĠĠ ĠĠĠĠ
ĠG ener
ĠUni code
Ġ_ C
Ġcon ver
Ġcor outine
Ġkw ds
S SL
St ream
_lo ad
ab ility
aris on
class method
e fore
h andlers
p u
s pecifi
Ġap pe
Ġex pre
Ġla bels
Ġst ore
A n
ED _
P hase
_ obj
_ only
_par ams
_s c
ent ly
for ward
po se
re lease
ĊĠĠĠĠĠĠĠĠĠĠĠĠĠĠĠĠĠĠĠĠ ĠĠĠĠ
Ġ" )
ĠCon tent
Ġcase s
Ġct x
Ġlocal s
Ġm atches
Ġmodule s
Ġremo ved
Ġst rict
Ġsu ffix
Ġvi a
H andle
R IT
S E_
TY PE
ar ri
b ers
fi ed
ĠF raction
Ġenum erate
Ġexplicit ly
Ġfile obj
Ġmultip le
Ġro w
Ġt ree
4 4
__ new__
_add r
_n o
arri er
clu ding
doc ument
fin ite
in valid
m at
s ide
sha pe
ĠA PI
) [
Generic Alias
In fo
MP TY
_s ign
_sparse _config
as ic
fici al
he tic
nt hetic
r c
rand n
st art_
tr ans
{ }
Ġ_ P
Ġa li
Ġass ign
Ġfull name
Ġiss ubclass
Ġm any
Ġmail box
Ġmake_tiny _sparse_config
Ġpri or
Ġs at
Ġtoken s
( ?
D ata
ER ROR
K EN
S S
_ all
_se t_
_we ights
` )
char s
e qual
exper t_
mlink s
ro und
st ore
ĠAn y
ĠC I
ĠF uture
Ġcor respon
Ġf actory
Ġin v
Ġrequire s
Ġrout ing
, ))
AC E
Bytes IO
Con tent
IN E
_ ST
c ancel
count ing
e lem
en ominator
Ġblock s
Ġcl one
Ġde le
Ġth ose
OR D
T ab
[: -
_char set
_par ameter
ay er
pol ation
Ġ ]
Ġ/ ,
ĠF ile
Ġbe low
Ġerror Tab
Ġexecut or
Ġspec ify
Ġy et
) }
4 5
9 7
M o
OR M
_ option
_b reak
ant i
comple te
id s
im um
m issing
m onth
n el
or ms
pa wn
Ġ1 00
Ġ1 6
ĠC h
Ġ_ set_
Ġde precated
Ġread y
Ġreg ular
Ġstd in
Ġurl lib
Ġvalid ation
Ġwor d
AL _
M ock
Me thod
_ encoding
_lay er
ens ion
h ore
ix in
ly ing
n on
phase s
pro tocol
us al
ĠT o
Ġc andidate
Ġcon nect
Ġfun ct
Ġfunct ools
Ġ{ '
M anager
N orm
ON L
St at
T R
_ W
_ col
_ empty
_ v
_f ds
_read ing
ake up
cur rent
en viron
ep copy
our s
process ing
script s
sg i
t ml
warn ing
Ġ' /
ĠA S
Ġc ustom
Ġla mbda
Ġoper ation
Ġp l
Ġpro cesses
Ġre du
Ġt ri
EL ayer
IT ER
_ lineno
_e of
bo ol
cl us
module __
unk nown
ĠE n
ĠS AX
Ġappe ar
Ġat t
Ġat tention
Ġb atch
Ġchunk s
Ġen v
Ġr ule
Ġsat is
Ġsh utdown
Ġspecifi c
Ġst art_
Ġto o
Ġw rapper
6 8
Co okie
D O
Ex it
LA G_
Parse Error
_a ctions
_f unction
_n ot
arg in
de st
gener ator
ifi er
li ce
p arts
ress ion
typ es
Ġ uri
ĠR E
Ġb roken
Ġd ate
Ġd ot
Ġexc _info
Ġinter pre
Ġp adding
Ġpart ial
Ġsc heme
Ġsign ature
Ġter min
A ttribute
Iter ation
KE Y
OC K
T ransport
_ ss
_m atch
cess ary
e q
enter __
er ator
esc ap
ex cept
f it
l ank
qu ences
t ensor
Ġde coded
Ġin dependent
) '
B IN
F orm
IN G_
LE N
__ module__
_c or
_n ode
_w ork
_wait er
annot ation
mb er_
p atch
pi pe
return code
st op
Ġ Juniper
Ġ/ /
Ġbuild _model
Ġca pt
Ġsu ite
DE FAUL
I R
Re ader
Re quest
V E_
_ default
_ q
_C ONT
_child ren
_p air
at io
ct x
ffici ent
he ma
mit ted
re l
sh utdown
Ġ right
ĠW indows
Ġ_ format
Ġbu iltin
Ġfor ward
Ġm o
Ġn et
Ġo v
Ġp ut
Ġr untime
Ġse m
'' '
B lock
Er r
_b efore
_pro j
on es
ta ch
uplic ate
x ies
| ---
Ġ u
ĠA l
ĠOther wise
ĠR es
Ġ_ check
Ġ__ new__
Ġe qual
Ġequival ent
Ġiter ator
Ġread ing
Ġreturn _diagnostics
Ġwr iter
, )
5 3
6 0
B u
P E_
_c ase
_call s
ek day
pl at
se quence
termin istic
ult ip
ĠĠĠĠĠĠĠĠ ĠĠĠĠĠ
Ġcheck point
Ġcomp are
Ġcomp arison
Ġrepresent ation
Ġse en
Ġsh ort
( -
5 2
RO L
_F LAG_
_id ent
_routed _experts
_sock et
_w rit
bo ard
cal e
experiment s
g in
grad ient
man ual
res ponse
ro w
sel ine
ter s
Ġ --------------------------------
ĠDe f
ĠF P
ĠS top
Ġc al
Ġca use
Ġcomm on
Ġd a
Ġd rop
Ġdoc s
Ġdocument ation
Ġm ask
Ġpro b
Ġpro be
Ġtime s
7 8
= -
A F
Header Defect
allow ed
block ing
c um
ial ize
id er
ist s
ition al
ock et
po sed
s ig
y ear
yn chron
ĠP ass
ĠSM ALL
Ġcan onical
Ġd st
Ġh and
Ġmult i
Ġof f
Ġre view
Ġse n
Ġsh ow
Ġsup p
Ġt ak
(' -
AS CII
I X
In terrupt
S pec
_a uth
_f unc
_m ode
_par ameters
mo ck
ol ute
token _type
ut ed
} "
ĠAS CII
ĠBase Exception
ĠSt at
Ġinst anti
Ġnum bers
Ġt ail
Ġtask s
--- +
H el
_ encode
_ hook
_ queue
du mp
er c
h ing
ire d
ist ent
medi ately
pi ckle
uni code
ĠC UDA
ĠCo unter
Ġ_ call
Ġ_ split
Ġapplic ation
Ġcall er
Ġle ft
Ġpro per
Ġrout ed
Ġstack level
, ),
88 59
D esc
ET TER
Header ParseError
Le vel
O ver
P U
P ipe
_b ase
_s o
_shutdown _timeout
_so on
_w rapper
a seline
ab lation
at tribute
board Interrupt
co der
erm inal
file __
plat form
str __
Ġcon vert
Ġen sure
Ġo ur
Ġvari able
AR K
C F
L S
Lo op
Q ueue
_architecture _config
_handshake _timeout
_rout er
ck ler
f ws
id x
optim ized
or d
orm al
sign ature
tra ceback
um ber
ĊĠĠĠĠĠĠĠĠĠĠĠĠĠĠĠĠĠĠĠĠĠĠĠĠĠĠĠĠ Ġ
Ġ' '.
ĠL ETTER
ĠPro cess
Ġb p
Ġdif f
Ġdist ribution
Ġi mp
Ġis n
Ġm ight
Ġposition al
Ġrefer ences
Ġ{ !
E num
ONL Y
Return s
Stat us
_cur rent_
_has hes
_i mport
_k v
_pro bs
_qu ery
_re turn
a used
bo otstrap
ch itecture
data class
ject ion
max size
qual name__
u ff
ud it
ĠA s
ĠA ss
ĠN e
ĠT ext
Ġi ds
Ġload _architecture_config
Ġp ur
Ġpair s
Ġpro gram
Ġrecor ds
Ġuse ful
) "
* .
03225 8064
AD ER
G OR
N U
P o
UP P
_ RE
_fi elds
_p id
_ss lobj
ar ge
embedding s
m ote
s __
ub le
ur ro
ĠD epre
ĠE lement
ĠMe ssage
Ġ_ de
Ġass ume
Ġbehavi or
Ġbuf size
Ġd id
Ġhapp en
Ġim mediately
Ġl on
Ġm ath
Ġme tadata
Ġne cessary
Ġqu ery
Ġre cursive
Ġsatis fied
)) ,
. ",
= """
CO D
NO RE
S ET
_p arent
_se nd
_st art
ab ly
c an
entic ation
future __
he x
ire s
ise d
j unk
ject ed
ot es
pro to
r ange
se ns
test_model _moe
yn tax
Ġ" <
ĠCP U
ĠCo mp
ĠT oken
Ġ_ M
Ġ__ future__
Ġaccept ed
Ġact ive
Ġarch ive
Ġb ias
Ġcom ment
Ġcorrespon ding
Ġde scription
Ġform atter
Ġh ard
Ġl iteral
Ġm ut
Ġneed s
Ġoc cur
Ġse conds
8 1
C TION
STR ING
_ output
__ main__
_d is
_do main
_re mo
_task s
g ic
it ory
manual _seed
ra g
Ġ1 5
ĠCo py
ĠI D
Ġb it
Ġd isplay
Ġh igh
Ġhas hes
Ġm an
Ġp arent_
Ġpar sed
Ġs ure
Ġset attr
Ġtop k_idx
Ġtra ck
Ġvari ables
(' \
8 3
9 6
B O
D R
M TP
_com mit
_lo g
_local s
_p os
a use
ad ing
en vironment
ff n
fi ll
la bels
ol l
re cord
re duce
te ll
v id
var s
Ġ ):
ĠA dd
ĠT ra
Ġ_ bootstrap
Ġ__ name__
Ġcheck s
Ġconst ants
Ġexpre ssion
Ġj oin
Ġn args
Ġnext char
Ġpro file
Ġres ource
0 12
7 3
: %
== =
> "
C ES
IG NORE
O UT
V AL
W ORD
_ keys
_fi lter
_l ong
_p attern
_sh ared
_t ypes
a ded
architecture _id
c ast
cation Warning
ch anged
eq __
err no
h i
hel l
iv ity
or s
y cle
ĠD o
ĠI P
ĠKey boardInterrupt
ĠN OT
Ġbase s
Ġc ategory
Ġco ver
Ġen viron
Ġins pect
Ġm oe
Ġp ending
Ġraise s
Ġrecor ded
Ġsu ccess
"] ["
C annot
M odel
Node s
T ext
_ end
_ init
_ url
__ get
_char s
con nect
ex ecut
f lush
m all
o o
pro g
r int
ta var
tar info
test ing
val s
ĊĠĠĠĠĠĠĠĠĠĠĠĠĠĠĠĠĠĠĠĠĠĠĠĠĠĠĠĠ ĠĠĠĠĠ
Ġ' -
ĠN ame
Ġc ancel
Ġc te
Ġhead _dim
Ġre covery
Ġwe akref
Ġwrit ten
9 8
E M
_ enum
_ out
__ qualname__
_d iff
com ment
im er
ion Error
m iss
part ition
re ference
s kip
static method
tra ct
Ġ( ?
ĠLo g
ĠO R
ĠRe ad
Ġar bit
Ġcurrent ly
Ġdif ference
Ġextra ct
Ġor igin
Ġremain ing
Ġstack _after
Ġstack _before
Ġt able
Ġun less
Ġunder lying
Ġwait ing
Ġwr ong
Ġwrap ped
02 4
: `
AT E_
FI LE
O DE
T erminal
W rapper
] ))
_ al
_value s
b reak
con n
e fficient
ext ract
glob al
or ig
part ial
r b
vocab _size
Ġbyte array
Ġch anged
Ġerr no
Ġh i
Ġline sep
Ġmess ages
Ġoption _string
Ġre mote
Ġrel ative
Ġrun s
Ġst rip
Ġuni code
Ġus age
8 2
8 22
= (
ATE GOR
As ync
Con nection
L I
R a
RE _FLAG_
_ as
_ make
_ op
_ opt
_CONT ROL
_exper iment
_glob als
_m anifest
_norm al
_reg istry
_sy mlinks
_t otal
end ar
n l
pa re
par ator
ra ps
se mb
specifi c
st ant
un s
wh ich
ĊĠĠĠĠĠĠĠĠĠĠĠĠĠĠĠĠĠĠĠĠĠĠĠĠĠĠĠĠĠĠĠĠĠĠĠĠ ĠĠĠĠĠĠĠĠĠĠĠĠĠĠĠĠ
Ġ2 00
ĠS T
Ġ__ set
Ġa lias
Ġde tails
Ġl b
Ġma k
Ġmax size
Ġnot hing
Ġres ume
Ġreturn code
Ġsupport s
Ġtak es
Ġto ol
" '
Form atter
V ENT_
_ async
_ it
_ ok
_ order
_ex ternal
_has h
_in put
_wait ers
assert_ close
at ures
c losed
clus ive
ed Dict
for med
g ers
il ter
ol ve
re cv
result s
rout ing
tect ed
ter polation
ule d
ww w
Ġ" "
Ġ" .
Ġ( %
Ġ3 2
ĠA B
ĠAr gument
ĠDepre cationWarning
ĠP o
Ġ__ exit__
Ġal p
Ġde limit
Ġfe ature
Ġj son
Ġme as
Ġnames paces
Ġne gative
Ġpath s
Ġreturn ing
Ġs co
Ġtuple s
() `
/ `
6 3
BO X
DEFAUL T_
ES T_
FI X
ITER AL
LE D
LOW BOX
M apping
MEN T
MEN T_
Re cord
S ub
T E
Test Case
_ std
_le ft
_writ ing
call _soon
co okie
d ic
f ork
g ine
h tml
pro xy
rout ed
sc ape
warn ings
ĊĠĠĠĠĠĠĠĠĠĠĠĠĠĠĠĠĠĠĠĠ ĠĠĠĠĠ
ĠA p
ĠTh at
Ġ_ un
Ġappro pri
Ġcons ider
Ġd ri
Ġfa st
Ġinher it
Ġlook up
Ġoper ator
Ġregister ed
Ġtyp ing
Ġver ify
Ġz ip
## #
AT ION
E K
Sy stem
_ NO
_n on
_position s
_query _heads
_st op
fo o
ib ling
is o
pos itory
se ek
se lect
us age
ĠAr chitecture
ĠS tr
ĠT est
Ġas yncio
Ġre pe
Ġwor ds
Ġy ear
AN C
K ey
M sg
P ATH
S ibling
_ item
_a ction
_p aused
_par se
andl ing
args __
c pu
con nection
cor outine
cre ment
en v
f amily
k _weights
m ut
o per
res ses
top k_idx
ĠĠĠĠĠĠĠĠ ĠĠĠĠĠĠĠ
ĠA N
Ġ__ del
Ġdecor ator
Ġformat ted
Ġiter tools
Ġm u
Ġo w
Ġre ceived
Ġset ting
Ġt ake
Ġwe ights
. '
. )
7 1
O bject
V AR
W N
_ app
_b u
_c losing
_kv _heads
ce ed
co gn
cor rect
event _loop
f lat
ist ing
iter __
s_ per
Ġ' --
ĠA t
ĠCopy right
ĠT ar
ĠThe se
Ġback ward
Ġcomp onent
Ġde lay
Ġn s
Ġopcode s
Ġs il
Ġs imp
() ):
AR T
C lose
M ixin
S MTP
S ame
_ open
_ step
_logit s
_re ceived
ancelled Error
c annot
cor ding
d iag
file s
la bel
la mbda
mar k
p en
state __
t d
t le
to k
ul ation
Ġ ),
ĠĠĠĠĠĠĠĠ ĠĠĠĠ
Ġ" -
ĠC F
ĠE ach
ĠF ield
ĠIn valid
Ġ__ str__
Ġat ol
Ġcapt ure
Ġchild ren
Ġcommand s
Ġcor o
Ġcur rent_
Ġexecut able
Ġf ree
Ġg u
Ġignore d
Ġo bs
Ġp lat
Ġpr int_
Ġs ide
Ġsem ant
Ġsepar ate
" ).
' ).
9 5
AP P
F or
IL L
IT ION
_ active
_ const
_con n
_f lag
_po licy
_read y
_rout ing
_s ig
_t ime
al id
call __
comp at
d r
escap ed
ing IO
qu oted
t ion
validate _phase
w sgi
ĊĠĠĠĠ ĠĠĠĠ
ĊĠĠĠĠĠĠĠĠĠĠĠĠĠĠĠĠĠĠĠĠĠĠĠĠĠĠĠĠĠĠĠĠĠĠĠĠ ĠĠĠĠ
ĠSt ack
ĠStop Iteration
Ġ_ new
Ġallow s
Ġany thing
Ġarbit rary
Ġb lank
Ġblock ing
Ġd igits
Ġfor k
Ġh idden
Ġiss ue
Ġma de
Ġpl us
Ġq name
Ġset s
Ġtar file
Ġuni que
Ġwarn ing
I ZE
SI ZE
T uple
W ait
[: ]
_ default_
_ items
_break down
_de bug
_e lement
_f rozen
_p ass
c at
c ing
comp ress
con tain
e lse
ent ry
f ol
i ke
la v
out ines
sign al
v ailable
ĠP EP
Ġent ire
Ġfuture s
Ġover r
Ġre ce
Ġre served
Ġspec _set
' ])
(' %
). """
AC K
C alled
F uture
HAS E_
S end
U p
] *
_ entropy
_ over
_c ancel
_check point
_co mple
_d enominator
_sh are
_st art_
act ual
arn ed
ass ert
attr __
c d
dic ate
er ing
num ber
ound ary
ra ises
set default
to l
vari ate
ĠB IN
ĠD OM
ĠO K
ĠOn ly
Ġabs olute
Ġb po
Ġbet ter
Ġcomple x
Ġcontent s
Ġe ffect
Ġex ten
Ġexten ded
Ġfix ed
Ġh andling
Ġhost name
Ġin cluding
Ġlist s
Ġmean ing
Ġpo ol
Ġprovide s
Ġs mall
Ġwh ose
(" \
Ab stract
C RE
Event Loop
F in
IT H
L U
S h
_ initial
_ int
_ router_
__ file__
_c aches
_ch unk
_n ext
act er
al e
atc hed
atter ns
b ar
lav our
n ance
ol ds
re covery
sent inel
ul ate
um mary
Ġ lib
ĠDE FAUL
ĠIn it
ĠTh read
Ġ__ enter__
Ġac ross
Ġcom ments
Ġex erc
Ġgener ated
Ġins ide
Ġre t
Ġsco pe
Ġse p
Ġw in
AR TI
C P
C RI
CRI P
I te
KEY WORD
L INE
Name d
ORM AT
P UT
P ool
_ limit
_ max
_ self
_con d
_f in
_s ide
_se conds
_w idth
_w riter
a pt
a wait
ad r
def ined
et a
g en
it le
iter able
k _norm
l ations
le ft
normal ization
oi ces
ok ed
pi ckling
t ree
top _k
tribut ion
vid ence
Ġ% (
Ġ[ (
Ġallow ance
Ġannot ation
Ġbe come
Ġexper ts
Ġid x
Ġlon ger
Ġlow er
Ġnumer ic
Ġor d
Ġpoint s
Ġselect ed
Ġser ial
Ġso ft
Ġsupp lied
(' /
01 4
04 7
EL D
En coding
I Z
OS ITION
T_ D
__ repr__
_co unter
_e ffect
_event s
_m ut
al k
annot ations
b c
cl ar
in ation
lat in
ok up
par ameter
pol l
r strip
read er
sh ow
t ary
ver t_
ĠC lass
ĠIn dex
Ġ__ eq__
Ġappropri ate
Ġbu ilt
Ġbyte code
Ġc ycle
Ġdef ect
Ġk lass
Ġmark object
Ġper miss
Ġpro ject
Ġs cal
Ġsocket s
Ġstart ed
Ġw ell
( ",
516129 03225
A Y
Bu ilder
C allable
IN T
P re
_ last
_b ias
_p ort
_pro be
_w h
al ias
ces sed
exc _info
in sert
li ct
line sep
mat ically
mb o
owner Document
r andom
ra ise
st rict
ver sed
Ġ Error
Ġ: =
ĠA DR
ĠA uth
ĠD on
ĠE num
ĠH eader
ĠS ub
Ġ_ f
Ġ_ write
Ġexecut ion
Ġm on
Ġnode s
Ġpre vent
Ġprocess ing
Ġprotocol _factory
Ġstate ment
( %
(" <
(' .')
01 6
4 02
7 2
9 2
: ])
=[ ],
ARTI FA
D own
F rom
Invalid HeaderDefect
S IG
S ocket
T ra
_ ew
__ set
_de pth
_remo vals
e val
f oundation
g al
g ot
get text
igh t_
it able
it ivity
it tle
j or
mail box
path __
spec __
stru ctions
urro gate
|--- |---
Ġ' ')
Ġ' \\
ĠG RE
ĠP y
Ġback end
Ġbase d
Ġbe gin
Ġdata class
Ġde ad
Ġdo uble
Ġex ternal
Ġl arge
Ġr tol
Ġr v
Ġread able
Ġredu ction
Ġsil ently
---- ---+
>> >
A ction
L ine
M ap
O SI
OSI X
P T
V ED
V alueError
W rite
_ stats
_con nect
_de tails
_done _callback
_lo c
_n orms
_pro cess
_s kip
_se lector
b p
child Nodes
ens ure
ex ec
fin ished
in dependent
ism atch
m ro
me mo
old en
po _root
re al
running _loop
sens itivity
term ine
w here
z e
Ġ" \
Ġ""" ),
ĠDef ault
ĠE MPTY
ĠIndex Error
ĠMo ELayer
ĠN on
ĠPro tocol
ĠSt ream
ĠU N
ĠY ou
Ġab stract
Ġcall ers
Ġco pi
Ġcol umn
Ġcon version
Ġf resh
Ġfrozen set
Ġgener ic
Ġimplement ations
Ġle ss
Ġm ime
Ġre direct
Ġrout er_
Ġse arch
Ġstandard Msg
Ġstat istics
Ġt a
Ġ| =
(" --
(' <
= ""
AT A
F ilter
Protocol State
_ NAME
_ copy
_ kwargs
_c allable
_c ancelled
_de tected
_m argin
_se arch
code Error
cs v
cur frame
d isplay
exper t
g ed
gine ering
il er
or __
per s
pro be
quire d
res sed
serv ing
Ġ7 9
ĠA b
ĠC reate
ĠF LOWBOX
ĠGener ic
ĠS H
Ġ_ header
Ġda emon
Ġf ds
Ġf lat
Ġg re
Ġpass ing
Ġper form
Ġre duce
Ġserver _hostname
Ġsome thing
**************** ****************
Ab lation
EX T
Gener ator
IT S
LOC K
T rans
U R
_config _path
_f allback
_se q
_se quences
`` .
ad ded
check point
cogn ized
cor o
ent ion
full name
i an
ig it
ign ment
lap sed
li es
lock ed
node Type
oc ument
or ies
origin __
p write
pre ss
pro file
re cedence
run_p hase
st yle
we ekday
} .
Ġ' )
Ġ' *
ĠQ ueue
ĠS RE_FLAG_
Ġa round
Ġac cording
Ġcomp ile
Ġex ec
Ġident ical
Ġnet loc
Ġt mp
Ablation Config
D ist
IL TER
LO B
[ ^
_ defaults
_ server
__ origin__
_con text_
_s pecifi
_source _traceback
_t ar
ag ic
as semb
c fws
d im
i ally
i mplement
it test
m y
map hore
name d
oc i
q a
reduce __
set_ result
t p
to list
tr ansport
un ded
yntax Error
Ġ3 4
Ġ_ create
Ġ_ parse
Ġ_ path
Ġc ap
Ġch ain
Ġcre ating
Ġfail s
Ġimport lib
Ġinput _ids
Ġmax imum
Ġn bytes
Ġpro fi
Ġpur pose
Ġrule s
Ġs a
Ġs hell
Ġs p
Ġtoken _type
################################ ################################
-------------------------------- --------
4 2
9 3
==== ===
ATEGOR Y_
END S
Ex ecutor
R ep
_ allowed
_ indent
_n s_
_num erator
_p open
_t rue
c lient
c ular
co ver
f lag
ir cular
is finite
lo ver
m anager
o log
p adding
res idual
we akref
ynchron ous
Ġ" ,
ĠAss ert
ĠF lag
ĠGRE EK
ĠO F
Ġ__get item__
Ġarg parse
Ġass oci
Ġatt n
Ġenum _class
Ġfilter s
Ġla bel
Ġle ading
Ġm id
Ġpro ble
Ġre pository
Ġreplace d
Ġrepresent ing
Ġsepar ator
19 1
IC ODE
RIT E
_ H
_ N
_ running
_ent ries
_f p
_re move
act ivation
ag er
bu iltin
cor ds
est ed
hash __
i ces
it ter
le te
log ging
mt p
o otstrap
} ".
ĊĠĠĠĠĠĠĠĠĠĠĠĠĠĠĠĠĠĠĠĠĠĠĠĠĠĠĠĠĠĠĠĠĠĠĠĠ ĠĠĠ
ĠArchitecture Config
ĠCh ar
ĠCo okie
ĠEx ample
ĠH andle
ĠU T
ĠU ser
Ġ__ call__
Ġcol lect
Ġconver ted
Ġcor outines
Ġdep th
Ġen c
Ġfollow ed
Ġlo cation
Ġlog its
Ġmulti processing
Ġn _experts
Ġp ax
Ġpro xies
Ġssl _handshake_timeout
Ġssl _shutdown_timeout
Ġwork ing
A uth
C ON
S OCK
UP LE
[: ,
_ E
_on ce
_path s
_prefix es
_st ack
_tra ck
_value _
` :
alid ation
an te
ar ante
c read
cal led
con trol
dis able
ens ions
f ail
in ary
iv es
k lass
le x
ore d
res olve
return _value
set_ exception
sy nthetic
ĊĠĠĠĠĠĠĠĠĠĠĠĠĠĠĠĠĠĠĠĠĠĠĠĠĠĠĠĠ ĠĠĠĠĠĠ
Ġ'. '
ĠL ic
ĠM AX
ĠUn ion
ĠW h
Ġ_ compile
Ġ_ read
Ġ__ iter__
Ġa ctions
Ġadd itional
Ġauth key
Ġca usal
Ġdata classes
Ġde cimal
Ġde ep
Ġe t
Ġext ension
Ġfin ish
Ġgroup s
Ġh ad
Ġin ser
Ġlocal e
Ġme di
Ġmsg id
Ġnamed tuple
Ġow ner
Ġresol ved
Ġselector s
Ġstore d
Ġun pack
Ġvalid ate
Ġvar s
Ġy aml
================ ================
AR G
F e
G roup
M A
RE D
_ G
_c b
_in to
_p ack
_par am
_parameter _breakdown
all en
av ing
case d
d ated
d igits
for ms
g i
lap se
li s
me mbers
nt ity
o v
on ic
oper ator
se c
seq _len
split lines
terrupt ed
ult i
unct ools
Ġ5 12
ĠB uffer
ĠR out
ĠT imeout
Ġauto matically
Ġb aseline
Ġcomple ted
Ġcoun ter
Ġdi gest
Ġdist ribut
Ġe vidence
Ġex pect
Ġfail ure
Ġhandle s
Ġl ittle
Ġm time
Ġma int
Ġmod ify
Ġo mitted
Ġop _result
(' :
. %
0 31
5 12
={ "
AR SE_
E ST
M D
O per
PE CI
Run ner
SP ACE
_ msg
_IN ET
_callback s
_con trol
_ex p
_loc ations
_r atio
_top k
a iled
b est
cre ated
f _code
ffn _dim
future s
h ab
h ours
i ence
is it
iss ue
k g
le ar
len __
mp t
n _tokens
n args
s ave
store _true
t ac
tri b
v ing
valid ation
variant s
w rit
| \
Ċ ĊĠĠĠĠĠĠĠĠĠĠĠĠĠĠĠĠĠĠĠ
ĊĠĠĠĠĠĠĠĠĠĠĠĠĠĠĠĠĠĠĠĠĠĠĠĠĠĠĠĠĠĠĠĠĠĠĠĠ ĠĠ
ĠAB C
ĠS y
ĠStat istics
ĠT ask
Ġ_ find
Ġ__ reduce__
Ġal tern
Ġassoci ated
Ġc type
Ġclass method
Ġconsider ed
Ġcontain er
Ġcre ation
Ġd im
Ġdate time
Ġe ar
Ġf lush
Ġget s
Ġgu arante
Ġinitial izer
Ġprotocol s
Ġre ally
Ġread line
Ġse ver
Ġst uff
A t
Co mp
E qual
Fin der
G TH
Re g
UT H
__ args__
_b ootstrap
_from _
_se m
_w hen
ac cept
ac counting
ap s
back ward
base d
c hed
ch ain
er ge
ers ion
hab et
head er_
if fer
la ces
n ull
ol der
or ary
py test
r v
re qu
require d
ript or
u de
u id
ultip art
uni x
ven ience
ĠĠĠĠĠĠĠĠĠĠĠĠĠĠĠĠ ĠĠĠ
Ġ" {
Ġ_ debug
Ġapp lied
Ġb arrier
Ġd er
Ġdis able
Ġk nown
Ġme th
Ġn _kv_heads
Ġpre dicate
Ġprior ity
Ġvisit _
' ll
00 08
3 84
AN G
AS E
F unction
O ST
ON G
RE AM
Token List
W A
W R
W S_
_ST REAM
_al ive
_c reate
_is _detected
_r ate
_s u
_t able
`` `
al p
an t_
ay s
c ategory
ce pth
cepth ook
col lections
f ds
ft p
ier arch
input _ids
ist er_
log its
mod ified
pa rent_
pre v
pre vious
r fc
r p
t_ handler
ĠG it
ĠV alue
Ġback wards
Ġdef ine
Ġdel ta
Ġdepend ency
Ġdirect ories
Ġe mbed
Ġframe s
Ġma gic
Ġoc curs
Ġoverr idden
Ġpas ses
Ġsent inel
Ġsub type
Ġtri gger
Ġwh o
) ",
) `
00 09
ANC EL
ANCEL LED
Auto Model
CO L
Def ault
Desc riptor
ER R
HAS H
LE T
M AX
M eta
PE AT
S T_
TER N
Value Terminal
] ):
_ IGNORE
_ annotation
_m time
_t ree
as sed
create _future
d ot
da emon
de epcopy
e g
event s
j ust
n n
oi ce
or ity
reg istry
s ax
ĠG roup
ĠL iteral
ĠM IME
ĠMoE AblationConfig
ĠPar ameter
ĠW S
Ġ_ p
Ġare n
Ġclass dict
Ġcomp ress
Ġent ity
Ġerr write
Ġformat ting
Ġhead er_
Ġhel per
Ġint ended
Ġinterpre ter
Ġline cache
Ġmemory view
Ġno qa
Ġoccur red
Ġoper ations
Ġp ers
Ġposition s
Ġread _
Ġth ing
Ġversion s
Ġy i
======= +
Ex pected
In struction
NE W
OL D
ORT ED
S imple
SI ON
St ack
T ML
_ DE
_ kind
_ main
_a vailable
_ch ange
_d type
_f ull
_p y
` `,
allen ge
auth key
buf size
de limit
di gest
local e
model _copy
ne gative
print able
re p
s sed
ser ve
teg ers
unt il
x ff
yp edDict
} ",
Ċ ĊĠ
Ġ he
Ġ( (
ĠA L
ĠA c
ĠM ake
ĠS h
ĠS ol
ĠSe quence
ĠTra ceback
Ġ_ add
Ġ_ b
Ġ_ current_
Ġ_ get
Ġ_ load
Ġali ases
Ġblock size
Ġchar s
Ġconnection s
Ġfe ed
Ġg ates
Ġimport ed
Ġin sert
Ġin structions
Ġinclude s
Ġplat form
Ġpos itive
Ġre tri
Ġre verse
Ġspecifi es
Ġth ough
Ġtotal _sent
Ġw on
( **
() '
() ))
. **
. \
01 9
C lean
D OM
D is
Lo gger
M _
MS Norm
O MP
OU N
Par ameter
S ING
S U
System Exit
UN K
] ])
_ ignore
_ per
_UN IX
_ac cept
_error s
_f lavour
_f n
_part ial
_res ume
_t rans
a fter
c ate
call back
contain s__
d rop
d type
de scription
dump s
execut able
exp and
git _commit
ix ed
l strip
local s
not ated
on net
ork ing
reak point
res ult_
s urrogate
t ies
t in
un link
util s
wh en
ĊĠĠĠĠĠĠĠĠĠĠĠĠĠĠĠĠĠĠĠĠĠĠĠĠĠĠĠĠĠĠĠĠĠĠĠĠ ĠĠĠĠĠĠ
Ġ very
ĠĠĠĠĠĠĠĠ ĠĠĠĠĠĠ
Ġ2 9
ĠBy tes
ĠEOF Error
ĠNe ed
ĠS o
ĠStatistics Error
Ġ__ dict__
Ġc wd
Ġcheck ing
Ġcon sequence
Ġconnect ed
Ġdef ects
Ġdoc string
Ġet c
Ġlo aded
Ġn ested
Ġout side
Ġpass wd
Ġprob ably
Ġreal m
Ġresult ing
Ġsemant ics
Ġsub pattern
Ġtarget path
Ġtop most
Ġun quote
' [
( \
096774 19
4 0
6 2
7 0
Ar gument
ER _
IO Base
LE ADER
MENT_ NODE
N ULL
Name s
Po licy
R ule
T o
U E
VED _CONTROL
WS_ LEADER
_ hel
_ object
_IN FO
_buffer _size
_co okies
_fi eld
_future s
_re po
_sparse _dict
_t b
_to c
` '
` ).
ap hore
ck et
cor pus
cre te
dis card
ect ion
em aphore
ent ial
er_ state
f ut
igh ted
k in
line len
module _search
n _routed_experts
option _strings
option s
ore ver
pos ix
s upported
sparse _config_path
st it
un nel
ut ion
Ġ' "
Ġ2 2
ĠCF WS_LEADER
ĠM odule
ĠUn ix
Ġ_ S
Ġ_ co
Ġ__ hash__
Ġ__del __
Ġad apt
Ġali ve
Ġat om
Ġc ached
Ġcon current
Ġe as
Ġembed ded
Ġen co
Ġindic ates
Ġj unk
Ġlog gers
Ġn _routed_experts
Ġr fc
Ġrest ore
Ġs pawn
Ġse gment
Ġse ssion
Ġsimp ly
Ġt z
Ġw atcher
) ")
00 04
4 1
: "
A T_
C E
C EP
E VENT_
In it
P i
Re move
Request Handler
SH A
SP ARSE_
T ime
TO COL
[ (
_ help
_ up
_ x
__ func
_at om
_b ody
_con tent
_i mp
_map _
_n s
_res ponse
_t ail
b ias
back end
c ap
cat en
direct ory
ear Down
em ory
f _back
f actory
g uments
gn it
gnit ude
group s
is ing
m time
o lean
pa w
s ol
struct or
us hed
validate _repo
Ġ1 3
ĠAl so
ĠAssert ionError
ĠC ON
ĠCon nection
ĠDEFAUL T
ĠN O
ĠRa ise
ĠRa ises
ĠS IG
ĠS imple
ĠS ource
ĠS yntaxError
ĠType Var
Ġ_ imp
Ġ_C all
Ġ__ len__
Ġa st
Ġad ding
Ġadd resses
Ġar ray
Ġb ad
Ġde lib
Ġde lim
Ġde scrib
Ġde terministic
Ġdef init
Ġdid n
Ġdir s
Ġdo ctype
Ġerr msg
Ġevery thing
Ġex posed
Ġfollow _symlinks
Ġle arned
Ġlocal Name
Ġmak es
Ġn ext_
Ġof ficial
Ġpath lib
Ġqu otes
Ġremain s
Ġrepresent s
Ġs pe
Ġstart s
Ġsystem Id
Ġtre ated
Ġun changed
() ]
([ [
36 0
4 80
A ll
B arrier
C om
Context Manager
L AG
M IT
N G
OC U
P RE
P ython
T ree
UN ICODE
_ KEYWORD
_ generator
__ forward
_m anager
_p ayload
_re cv
_reg ister
_sign ature
_w akeup
` ),
ar ily
at om
atal _error
enum _class
ex ists
f unctools
get_ debug
head _dim
ignment _count
in s
int s
iv en
l iteral
mo ke
module_search _locations
namespace URI
of f
oft ware
pa gate
re po_root
read _text
se n
se qu
sort ed
ue ss
ur rent
Ġ3 0
ĠF RO
ĠO ver
ĠS erver
ĠS ince
ĠSt art
ĠW ITH
Ġ_ W
Ġ_ init
Ġ_ name
Ġ_ test
Ġassign ment
Ġb asic
Ġbu ilder
Ġconst ant
Ġd uplicate
Ġde termine
Ġexpert_ ffn_dim
Ġfil eno
Ġident ifier
Ġn _query_heads
Ġnamespace URI
Ġnot e
Ġopt s
Ġp at
Ġskip ped
Ġsyn chron
Ġt imer
Ġt rip
Ġta ken
. ,
00 05
01 1
AT CH
B J
C ol
Ch ar
Hel p
IME OUT
IT Y
Ite m
M ARK
N umber
NO T
Oper ational
P ush
Pro actor
R AM
St art
_ artifact
_C H
_T O
__func __
_ex ecutor
_it ers
_specifi ed
as h
b ad
c b
con text_
de lay
debug level
get attr
la sh
load s
not ify
num erator
r ant
r st
rel ated
res ume
ri ption
s v
ul ename
vari ance
w i
x x
y s
z y
Ġ ----------------
Ġ ke
Ġ2 1
ĠA F
ĠG PT
ĠN ormal
ĠO P
ĠTar Info
ĠUT F
Ġ_ as
Ġac counting
Ġalp ha
Ġappear s
Ġb its
Ġcal cul
Ġcon struction
Ġdo ing
Ġe mbedding
Ġen gineering
Ġen ough
Ġent er
Ġex clude
Ġexpert_ id
Ġf s
Ġget_ cfws
Ġin ner
Ġin struction
Ġlay ers
Ġlist ener
Ġme tavar
Ġn n
Ġon exc
Ġr c
Ġre cent
Ġremain der
Ġs lice
Ġsign ific
Ġslo ts
Ġsoft ware
Ġspecifi cation
Ġstruct ure
Ġsub classes
"] .
) ],
00 00
04 0
129 032258064
32 2
A c
LEN GTH
Mo ELayer
O ut
R AN
Re f
S ource
TO KEN
Type Error
] ')
_ ext
_ grad
_ owner
_conn _lost
_exception _handler
_ident ical
_p assed
_re place
_se ctions
_sign al
_w s
c c
command s
d st
den ominator
e t_
ert ific
g ics
g y
ge ther
get pid
get value
iagnost ic
lay er_
m ask
m k
m ul
me tadata
n ed
n g
o ke
pack age
pass wd
routed _experts
sub process
t ty
um my
wrap ped
yn am
Ġ und
Ġ1 99
Ġ2 822
ĠB roken
ĠC Y
ĠCY R
ĠCYR ILL
ĠCYRILL IC
ĠD ense
ĠF inal
ĠG et
ĠL inux
ĠP i
ĠW ith
Ġ_ alias
Ġ_ handle
Ġ_ over
Ġ_ thread
Ġa udit
Ġad ds
Ġappro val
Ġbin ascii
Ġbo olean
Ġchunk size
Ġd t
Ġd uplic
Ġdest ination
Ġf ig
Ġimport s
Ġin ference
Ġin tegers
Ġle ak
Ġlib rary
Ġnormal ized
Ġoptim izer
Ġp atch
Ġpo st
Ġpro g
Ġres ult_
Ġsc hema
Ġsepar ators
- %
/ *.
04 5
: -
AB LE
AR Y
H ub
I F
M B
NO T_
OSITION AL_
RE SS
] +
_ abs
_ def
_ stream
_S IZE
__ spec__
_by te
_f loat
_in ner
_m atcher
_me mory
_n ext_
_p adding
_s pecial
_s plit
_se parator
_send file
_share s
_t ag
` ;
ar ies
arg er
b its
en gth
er ce
fe ed
func s
g id
parent Node
paw ning
pend ing
po int_
re st
resh olds
ro ad
se quences
ss ue
state _lock
th at
vers al
Ġ Z
Ġ ed
Ġ" <|
Ġ'{ }'
Ġ+ --------
Ġ1 7
ĠA d
ĠG PU
ĠIn terrupted
ĠL ist
ĠMe thod
ĠP er
ĠR NG
ĠRes ource
ĠS onnet
ĠSSL ProtocolState
ĠToken izer
Ġ_ type
Ġ__ all__
Ġ_p print_
Ġapp ly
Ġarg _strings
Ġarg repr
Ġas cii
Ġauth entication
Ġcomp act
Ġcomp ression
Ġcorrect ly
Ġcre ates
Ġd enominator
Ġday s
Ġder ived
Ġdescriptor s
Ġe q
Ġerr code
Ġexerc ise
Ġg en
Ġimplement s
Ġinclude d
Ġiter ation
Ġl arger
Ġn one
Ġnew Child
Ġnew lines
Ġnot ice
Ġover lapped
Ġp ip
Ġpi ck
Ġre use
Ġre versed
Ġrequest s
Ġro ws
Ġsh ape
Ġsh are
Ġto gether
Ġvi ew
A l
AT ED
AT TERN
CES S
CF WS
Co py
Con trol
D i
E MPTY
F unc
I mport
L ITERAL
LET ED
Mo E
Name space
ON E
RE F
S F
T D
UPP RESS
V ersion
Var i
W h
X ML
_ lm_loss
_F ORMAT
_a ss
_d ense
_d i
_empty _waiter
_f orever
_l iteral
_of ficial
_se gment
act iv
anch or
arg ument
class _get
compat ible
d iagnostics
emp late
end ian
et scape
hed uled
ial ect
id om
ierarch y
implement ation
in ternal
l ong
le ave
mber_ name
one st
pre cedence
ra cket
rag ma
requ ency
s_ name
se cond
set ter
tary _dim
token s
tt ention
typ ing
u ard
ur ations
Ġ# #
Ġ' ;
Ġ'/ '
Ġ3 5
Ġ3 6
ĠF rozen
ĠF unction
ĠG NU
ĠH TML
ĠI ssue
ĠInterrupted Error
ĠR EP
ĠS kip
ĠS ome
Ġa ble
Ġa ver
Ġac cum
Ġas ynchronous
Ġde clar
Ġdelimit er
Ġg olden
Ġgener al
Ġhand led
Ġle ader
Ġlo c
Ġmax linelen
Ġmedi an
Ġp ure
Ġpos ix
Ġpre v
Ġproble m
Ġs w
Ġsy nthetic
Ġtoken ize
Ġvari ous
Ġver ified
' <
() [
) (
) *
00 03
193548387 09
=' ',
A ttributeError
AB C
C al
C all
D o
ED_ ARTIFA
Header Error
IN FO
Lo g
M ore
N on
NO WN
PECI AL
Pro be
RE SH
RESH OLD
_ ascii
_ iter
_ user
_ zero
_d ist
_domain s
_option s
_routed _expert
_s cale
_test s
_wh itespace
` /`
and ir
ang le
ap pro
batch _size
c name
ct e
d igit
de lim
do ctype
g ree
get ter
id _to
in jection
ingIO Error
is instance
j itter
l n
lace ment
last Event
li p
m ime
next Sibling
pre cision
reg ister_
se lector
side _effect
un ittest
us ing
y be
z one
Ġ escaped
Ġ3 1
ĠC ATEGORY_
ĠC an
ĠH el
ĠIP v
ĠM ay
ĠP open
ĠPar se
ĠU RI
Ġ_ T
Ġ_ safe
Ġa m
Ġc m
Ġcallback s
Ġconf lict
Ġd ra
Ġdis card
Ġh ist
Ġhapp ens
Ġnumer ator
Ġp artic
Ġposs ibly
Ġpro cessed
Ġpro ven
Ġpublic Id
Ġq names
Ġqu al
Ġrequire ment
Ġretri e
Ġro l
Ġsched uled
Ġse maphore
Ġst ale
Ġsu c
Ġsub set
Ġun signed
Ġup per
Ġvari ance
. '''
02 6
22 31
3 05
=' \
AG IC
AR D
CO MP
COD ES
E G
E ntity
G EN
HASH ED_ARTIFA
I nt
In ter
L ength
LOB AL
ME SS
MESS AG
O W
S upported
St d
T orch
U se
UL T
UPP ORTED
W e
Z EN
_ run
_ status
_ steps
_b it
_block s
_c lean
_c ls
_con vert_
_connection _lost
_ident ity
_ma de
_mut ated
_num ber
_pair s_
_pro xy
_r ms
_reg ex
_sent inel
_sig ma
_tar get
_track er
_w ord
_work ers
am ma
b b
base name
class_get item__
co _filename
com m
cor ator
curs ion
date time
f _counter
f ast
f b
flow s
fol low
kin ds
list ener
me tavar
node Name
ns itive
over ride
pe ction
r der
resh old
ri gh
ro ls
router _logits
rt ifact
sc heme
ser ial
shared _expert
ss ible
tar file
ultip le
un pack
up per
ven v
w akeup
ĊĠĠĠĠĠĠĠĠĠĠĠĠĠĠĠĠĠĠĠĠĠĠĠĠĠĠĠĠĠĠĠĠĠĠĠĠ Ġ
ĊĠĠĠĠĠĠĠĠĠĠĠĠĠĠĠĠĠĠĠĠĠĠĠĠĠĠĠĠĠĠĠĠĠĠĠĠ ĠĠĠĠĠĠĠ
Ġ 64
Ġ' ?
Ġ'{}' ".
Ġ2 55
ĠAb stract
ĠC ancelledError
ĠDe cimal
ĠE very
ĠL ITERAL
ĠP HASE_
ĠR o
Ġ_ sys
Ġadd ition
Ġartifact s
Ġassign ed
Ġbreakpoint s
Ġc losing
Ġclient _address
Ġco re
Ġd b
Ġd iagnostics
Ġd iv
Ġen abled
Ġend time
Ġexc _type
Ġfin der
Ġg zip
Ġhard ware
Ġindic ate
Ġmanifest s
Ġmeas ured
Ġoptim ized
Ġout _b
Ġp ie
Ġper cent
Ġproper ly
Ġre ach
Ġs rc
Ġsen ding
Ġserver _side
Ġsig ma
Ġstat es
Ġsy mbol
Ġt ell
Ġtemp orary
Ġter m
Ġtop k_weights
Ġtrans p
Ġtre at
Ġvalid ated
Ġwe ek
Ġwe ight
# --------------------------------
' \\
( ',
- \
3 55
> ')
C ONT
C T_
CT S
De cl
END ING
HASHED_ARTIFA CTS
LAG S
M T
RI B
RO UP
Se quence
T RIB
TER S
Y PE_
] ),
_ AC
_ HASHED_ARTIFACTS
_ instance
_ab s_
_get frame
_import s
_lock ed
_pending _removals
anag er_
b roken
cur Node
dir name
f old
f ound
f t_
form atter
in ery
in to
is _file
iz ing
key word
key words
log ue
orig inal
pe ak
pri ority
rand int
ru _cache
s a
se parator
sole te
su ccess
t ab
tac lass
tra in
ure Path
ĊĊ Ċ
Ġ utf
Ġ< <
ĠBIN PUT
ĠC GI
ĠC ONT
ĠF ull
ĠN ow
ĠP OSIX
ĠP RO
ĠP UT
ĠRa w
ĠRe move
Ġ__ class_getitem__
Ġcom b
Ġcomp ut
Ġdebug ger
Ġend s
Ġexp at
Ġexp ires
Ġf ill
Ġf l
Ġfast er
Ġg id
Ġm erges
Ġmetric s
Ġmu ch
Ġn orms
Ġo l
Ġold Child
Ġoptim ization
Ġpermiss ion
Ġpers istent
Ġprefix es
Ġre cv
Ġrece ive
Ġreplace ment
Ġreport ed
Ġresol ve
Ġrol lover
Ġrouter _probs
Ġsu itable
Ġw raps
Ġwrit able
" ])
) ')
00 2
193548387 096774
37 7
AF _UNIX
AL ER
C ancelledError
C heck
CRIP TION
Co mple
Desc ription
ES CRIPTION
I PE
IC AL
IS SING
Iter ator
L oc
M atcher
O RE
PI PE
PI PE_
Pre fix
R FC
S emaphore
S top
Trans fer
W atcher
_M AX
_S U
_ST ART
_ab lations
_at tributes
_checkpoint ing
_d ot
_de precated
_fi rst
_fi xture
_frame s
_lock s
_m u
_me an
any object
assemb le
be low
c write
chunk s
cle an
day s
de tach
e of
el net
element s
er ately
er ts
est ing
in cluding
irect ory
ise ct
l li
lection s_
lections_ abc
ler ance
moe _layers
o g
op ener
p read
re served
rout e
s imple
s pawning
se u
send file
sequ ent
seu do
struct ured
surrogate escape
system Id
t itle
top k_weights
u ght
uni form
upport s
w er
} ',
Ġ 50
Ġ er
Ġ' :'
Ġ6 0
ĠCon text
ĠCon trol
ĠEx per
ĠG B
ĠH ow
ĠLog Record
ĠM ARK
ĠP ATH
ĠP SF
ĠRe g
ĠRe quest
ĠT HE
ĠThe y
Ġ_ con
Ġ_ heap
Ġ_ shutdown
Ġ_ signature
Ġ_over lapped
Ġact ivation
Ġappro ved
Ġbe ta
Ġc ircular
Ġclean up
Ġcomm uni
Ġcomp ared
Ġcomp uted
Ġd isp
Ġdele te
Ġdele ted
Ġdepend ing
Ġdescrib ed
Ġenco unter
Ġent ropy
Ġequival ence
Ġf all
Ġf it
Ġf ul
Ġfix es
Ġfound ation
Ġgener ate
Ġh ome
Ġind ices
Ġinitial ization
Ġmark ed
Ġmark ers
Ġmax len
Ġoption _strings
Ġoverride s
Ġpartic ular
Ġpax _headers
Ġprint ed
Ġprodu ce
Ġren ormal
Ġrequest ed
Ġse lection
Ġsever al
Ġsh ards
Ġssl context
Ġsup press
Ġsy mlink
Ġtar get_
Ġthere fore
Ġun supported
Ġv env
Ġwhen ever
Ġwork _item
00 12
1 01
3 01
51612903225 8
7 34
8064 516129
:] :
=" %
Add ress
B Y
COD E_
D ATA
DE BUG
F N
FF FF
H ED
HE ADER
Help Formatter
L ONG
M IN
ME TH
P ACE
RE PEAT
Result Base
S ummary
TRIB UT
T_ NAME
W RITE
[ ...
_ ONLY
_ attr
_ comp
_ environment
_ extra
_ stat
_F I
_P ORT
_P recedence
_S E
_S SL
__ mro
__ path__
__ traceback
__traceback __
_call method
_de cl
_ex act
_f e
_f fn
_ma gics
_method s
_mock _name
_pack age
_pro actor
_pro c
_re cords
_re ference
_sem lock
_st derr
_w atcher
_w or
add _done_callback
ag ing
attention _mask
call s
check __
con f
du ction
ed ir
f _globals
g z
get_ content
ire ction
ive ly
lt __
m ulti
mut able
n _routed
optim izer
over nance
per f_counter
pro xies
qu ery
quival ence
r untime
re set
require ments
ri cul
ro y
router _probs
st amp
tain ed
to re
un expected
w b
â Ģ
Ġ" ".
Ġ" #
Ġ" &
Ġ( {
ĠC ol
ĠF FN
ĠGit Hub
ĠL ike
ĠL oc
ĠN etscape
ĠO pen
ĠR MSNorm
ĠREP O_ROOT
ĠS pecial
ĠSequence Matcher
ĠSy stem
ĠW ait
ĠWS GI
Ġ_ Un
Ġ_ active
Ġ_ in
Ġ_ warn
Ġ_re build
Ġacquire d
Ġam ong
Ġbug gy
Ġcont rols
Ġd ump
Ġdata set
Ġexit ed
Ġfunc name
Ġgate _phase
Ġguarante ed
Ġh aving
Ġkw _only
Ġlay out
Ġlocal name
Ġlook ing
Ġmark er
Ġn c
Ġp lain
Ġp ragma
Ġpack ages
Ġpass word
Ġpre pare
Ġprodu ces
Ġprofi ling
Ġqu ot
Ġre pl
Ġsafe _repr
Ġser vers
Ġsign ed
Ġst yle
Ġstat s
Ġt ab
Ġt t
Ġuni form
Ġw sgi
Ġ{} )
' ],
' }
', '
( ...
. ',
00 14
00 4
01 0
2 24
3 02
79 7
80 6
AN ON
AS S
AT ES
An y
B OS
Block ingIOError
Buffer ed
C L
CF G
De codeError
E CT
EX T_
H A
L ike
M atch
MP L
Over fit
RE QU
RE SER
RESER VED_CONTROL
Ra w
W riter
_ gradient
_ if
_ one
_ val
_b ases
_change _rate
_co efficient
_con t_handler
_count s
_expert_ ids
_f atal_error
_f inal
_fork server
_hel per
_n ow
_node s
_pro perty
_router_ jitter
_start ed
_sy s
_wor ds
agic Mock
ail box
ask s
at uration
bo s
c mp
call _exception_handler
ch oices
char ter
com ing
con struction
d f
de coded
de terministic
dr s
ext ended
f allback
f ree
fer red
fi elds
go ver
gover nance
h and
i li
ic ro
igu ous
ild ir
iny Overfit
is dir
la s
layer_ kinds
link name
maint ype
n bytes
next __
olog y
p at
que e
quire s
red irect
ricul um
se ct
sub module_search_locations
unicode string
ut on
ver bose
zip File
}. {
Ġ' :
Ġ-------------------------------- --------------------------------
Ġ1 9
Ġ29 65
ĠAdd ress
ĠArgument Descriptor
ĠAuth entication
ĠB ut
ĠBuffer ed
ĠC alled
ĠCon tribut
ĠD ocument
ĠE X
ĠE vent
ĠElement Tree
ĠF oundation
ĠI O
ĠLic en
ĠLicen sed
ĠM a
ĠStr ingIO
ĠT ry
ĠURL Error
Ġ[ ],
Ġ_ F
Ġ_ iter
Ġ_ len
Ġ__ a
Ġ__set state__
Ġ` ...
Ġaccept s
Ġarg val
Ġauto spec
Ġbehavi our
Ġcode s
Ġde cision
Ġde termin
Ġdebug ging
Ġf fn
Ġgiv ing
Ġgo ing
Ġgo od
Ġh old
Ġinherit ed
Ġinitial ized
Ġkw only
Ġlimit ations
Ġm argin
Ġmin idom
Ġmod ification
Ġp ause
Ġperform ance
Ġre search
Ġreg ard
Ġrepe at
Ġrun ner
Ġstrip ped
Ġt im
Ġth ings
Ġtrip le
Ġuni x
Ġup dated
Ġvari ants
Ġwho le
(' --
12 5
= (),
> \
A LE
A rtifact
APP ED
Artifact Error
Attribute Node
Child Watcher
F FIX
F atal
FILE S
IC T
IN IS
INIS HED
J ar
LO AD
More Data
Not Supported
P HASE_
PRO TOCOL
Pool Executor
RL F
Res ponse
SER VER
SOCK _STREAM
S_ D
Su ite
T O_
U S
_ EX
_ join
_ label
_ uri
_M AP
_attrs NS
_c ached
_cor outine
_de code
_group s
_in tern
_line _length
_norm case
_p arent_
_p ool
_pairs_ hook
_read _fut
_s afe
_se nsitive
al ys
alys is
am Spec
app op
ar m
con struct
context __
de c
de cimal
ec ause
el t
ent ities
f mt
f ragment
fe ature
g acy
gor ies
gree ment
ident ity
kw _only
le ep
lic ense
ma jor
moe _diagnostics
ol ved
on d
qu ir
quee ze
re ams
re t
run _cfg
s lice
st andard
termin ate
termin ated
token ize
trace _dispatch
tri ct
ve lo
x z
ĊĠĠĠĠĠĠĠĠĠĠĠĠĠĠĠĠĠĠĠĠĠĠĠĠĠĠĠĠĠĠĠĠĠĠĠĠ ĠĠĠĠĠ
Ġ ja
Ġ" ")
Ġ' ',
Ġ' [
Ġ-- -
Ġ= ====
ĠAL L
ĠAN Y
ĠAp p
ĠB oth
ĠC om
ĠClass Var
ĠExp at
ĠI S
ĠIn dependent
ĠL e
ĠM atch
ĠName space
ĠNeed MoreData
ĠR ES
ĠW hether
Ġ__ contains__
Ġ__ main__
Ġa hi
Ġan ch
Ġapp ended
Ġassume d
Ġauthor ity
Ġb hi
Ġb ig
Ġbe y
Ġbegin ning
Ġbey ond
Ġc types
Ġcomp ressed
Ġcon d
Ġde s
Ġe lapsed
Ġe st
Ġent ities
Ġexc _value
Ġf low
Ġf mt
Ġfa i
Ġfai lobj
Ġfe atures
Ġfilename s
Ġfrom list
Ġg rp
Ġglobal ns
Ġh it
Ġhttp _error
Ġin f
Ġinstanti ate
Ġline ar
Ġlock ed
Ġmak ing
Ġmap s
Ġout er
Ġp atterns
Ġp laces
Ġpi ckling
Ġproper ties
Ġreg ression
Ġres p
Ġsepar ated
Ġspe ed
Ġspecial ization
Ġsu ccessfully
Ġt iny
Ġtermin ate
Ġtermin ated
Ġtrack ed
Ġun modified
Ġvocab _size
################################################################ ################
( ":
0 34
00 9
03 7
24 1
3 04
88 7
=======+ =======+
> .
A ss
A ttention
ALER T_D
ALERT_D ESCRIPTION
AND LE
Argument Parser
B asic
C GI
CRIP T_NAME
F IC
FI ELD
IL D
IN IT
L IN
O BJ
OC AB
OS Error
Out put
Process Error
S kip
T oo
T ypes
Test s
Vari ant
W ARN
_ AND
_ fileno
_ mailbox
_ var
_T H
_TO KEN
__mro __
_auth key
_b in
_b ound
_c al
_check _closed
_comple te
_d ump
_ent ity
_in ter
_lo cation
_m ark
_new lines
_normal ized
_of f
_re init
_res ult_
_s lo
_s ummary
_se en
_t unnel
_v ram
addr info
annotations __
ant ic
ar b
arch ive
break s
bu gs
c y
cal ly
can onical
ceed s
char acter
ci es
com mit
comp are
comp ute
current_ process
de cess
duci ble
er nel
ex ecutor
ex pr
ff ers
file date
full _url
h lo
hash ing
ine ls
l ang
lic ation
map s
ng _state
oc p
ot onic
par sed
pi ckler
po ses
pre pare
pre ter
previous Sibling
pri me
public Id
re shape
se en
spec _set
stant ive
u ine
uns upported
v ant
v isit
valid _mask
we ights
x im
} '.
Ġ'< %
Ġ= ================
ĠA greement
ĠAN D
ĠAs ync
ĠB reakpoint
ĠE mpty
ĠG ET
ĠIn st
ĠNOT E
ĠPy Torch
ĠS Y
ĠS ign
ĠS ocket
ĠT LS
ĠTimeout Error
ĠTokenizer ArtifactError
Ġ_ col
Ġ_ hash
Ġ_ order
Ġ_ os
Ġ__set item__
Ġ_de epcopy
Ġannot ated
Ġb are
Ġb lo
Ġbecome s
Ġc um
Ġch oices
Ġcompress level
Ġcon fir
Ġcon vent
Ġcontin uation
Ġd en
Ġdis abled
Ġdrop less
Ġf tp
Ġfinal izer
Ġfor ce
Ġfunction al
Ġg arb
Ġget ter
Ġgre ater
Ġh ig
Ġi gn
Ġimport ant
Ġin crement
Ġlike ly
Ġlist ed
Ġm atched
Ġmeas ure
Ġmime _version
Ġon to
Ġp oll
Ġp ushed
Ġper formed
Ġposition als
Ġpre ce
Ġprob ability
Ġr ank
Ġregard less
Ġres pect
Ġser vice
Ġsub stit
Ġt p
Ġtest ing
Ġtyp ed
Ġun link
Ġun safe
Ġw ake
Ġwr ites
096774 1935
12 7
2 05
25 2
29 65
32 9
79 4
86 9
A UTH
AT OR
BOS E
C K
Con stant
D epre
DO WN
FFIX ES
G LU
I VE_
I f
IG ITS
Implement ation
In terpolation
Init ialize
LO G
M emory
O ption
P rint
String IO
T IMEOUT
U MP
V E
_ J
_ enc
_ th
_ usage
_C L
_C ON
_CH AR
_P RE
_T O_
_T Y
_ac ross
_c lear
_con dition
_d oc
_d rop
_exception s
_glob al
_id _cache
_in ternal
_m anager_
_or ig
_s imple
_sc heduled
_to _bytes
a udit
abs path
alidation Error
ang ing
ar ator
aren a
av ailable
b a
bin ation
c wd
cause __
ce ive
check ed
co d
cond ition
coroutine function
count s
cur ity
d le
de lete
el ls
ent ity
er ic
er tain
ertific ate
expert_ id
fi gs
g ated
g le
glob als
hash able
i ps
ist ribution
iz es
las hes
licit ly
n _query_heads
o S
op code
parse _args
r partition
re try
s_ and
sc hema
se gment
st e
struct ure
su ffix
sub class
t ation
t iny
tin ue
trans late
ul ated
ul ative
um ns
ut able
ver ifi
w ice
wi GLU
ĊĠĠĠĠĠĠĠĠĠĠĠĠĠĠĠĠĠĠĠĠĠĠĠĠĠĠĠĠĠĠĠĠĠĠĠĠ ĠĠĠĠĠĠĠĠ
Ġ hex
ĠĠĠĠĠĠĠĠĠĠĠĠĠĠĠĠ Ġ
Ġ' +
Ġ1 024
Ġ1 50
Ġ20 60
ĠAr guments
ĠChar set
ĠCo mple
ĠContribut or
ĠFRO ZEN
ĠH E
ĠHow ever
ĠI mplement
ĠIn put
ĠL I
ĠM atches
ĠM od
ĠRout ing
ĠT H
ĠUn pickling
Ġ[ ('
Ġ_ FIELD
Ġ_ exit
Ġ_ has
Ġ_ sentinel
Ġ_ sha
Ġ_ wait
Ġ_ warnings
Ġ_M AX
Ġab ort
Ġaddr _spec
Ġaltern ative
Ġarg _string
Ġb ind
Ġbuiltin s
Ġcheck er
Ġco efficient
Ġcode c
Ġcom ma
Ġcomponent s
Ġcon tribution
Ġcondition s
Ġdelib erately
Ġdis c
Ġdistribut ions
Ġduplic ates
Ġe ver
Ġerr read
Ġexp onent
Ġf ew
Ġf our
Ġf ra
Ġfn match
Ġful ly
Ġfun copy
Ġgarb age
Ġgen uine
Ġh onest
Ġindependent ly
Ġindic ating
Ġle x
Ġlock s
Ġlook s
Ġm erge
Ġma jor
Ġme ant
Ġmethod _a
Ġmin im
Ġmode s
Ġmultip art
Ġnew _exc
Ġnot ify
Ġover head
Ġre ached
Ġreview ed
Ġs ur
Ġsec ure
Ġsh a
Ġshow _caches
Ġsub part
Ġsy mlinks
Ġtemp file
Ġtransport s
Ġun wrap
Ġus ually
Ġuser name
Ġutil s
Ġvari ant
Ġz lib
(' '.
-------+ -------+
00 21
00 6
01 5
01 7
48387 09677419
={ !
? ?
AR AME
AT TRIBUT
CH AR
Con nect
ED iagnostics
ER TI
F inal
H e
IO Wrapper
L IC
MD F
O K
Over lapped
P attern
P open
Pi ckler
Pro file
R out
RE S
T ES
T X
T ar
UN I
Un able
Un known
V alidationError
]( ../
_ R
_ append
_C OMP
_C RE
__ context__
__ unittest
_b oundary
_c alled
_c data
_const ant
_fork _reinit
_format Message
_imp l
_limit s
_local _part
_n one
_p rint
_re q
_se ction
_sh ort
_ssl _protocol
_t state_lock
_wait pid
_write _fut
a usal
abc d
ag ent
al t
angle _from_
ar ded
ass ignment_count
atal og
ate gories
be fore
c p
call ers
connect ed
ct et
current_ thread
e ep
er ation
event_loop _policy
ex isting
f ram
g r
ge th
geth ost
gorith ms
h n
http _error
i ms
in file
ir d
it ed
le gal
lo sure
n ume
names paces
nt l
nume l
op ri
option _string
option al
out _a
p kg
p lain
position _encoding
pre ssion
r atio
rder edDict
replace ment
sc ill
set_ precedence
so me
sock opt
un ch
un t_
vi a
w ater
we ek
writ ten
xt asks
ynam ic
Ġ oth
Ġ righ
Ġ" ."
Ġ' #
Ġ1 8
Ġ2 4
Ġ3 3
ĠA CTION
ĠC all
ĠF ILTER
ĠI ter
ĠIn terpolation
ĠP ipe
ĠQ K
ĠR TX
ĠS UPPRESS
ĠSSL Context
ĠT O
ĠT rans
ĠUnicode En
ĠUnicodeEn codeError
ĠUnpickling Error
ĠWh at
Ġ_ clear
Ġ_ inst
Ġ_ log
Ġ_ n
Ġ_ ssl
Ġ_bootstrap _external
Ġ_un pack
Ġalp habet
Ġattention _mask
Ġcase _sensitive
Ġco me
Ġcomp iled
Ġcompute _hashes
Ġcon caten
Ġcons ist
Ġd iagnostic
Ġd ue
Ġdefinit ion
Ġdelimit ers
Ġdiffer ences
Ġeval u
Ġexc _details
Ġg overnance
Ġin correct
Ġinit args
Ġinter val
Ġk v
Ġkey _valid
Ġkey words
Ġli ve
Ġm is
Ġmaint ype
Ġmodule _name
Ġnet work
Ġnorm ally
Ġopen ed
Ġoth ers
Ġout come
Ġp db
Ġpop ulation
Ġreg ener
Ġrequire ments
Ġres pon
Ġreturn _trace
Ġs cale
Ġs moke
Ġspecify ing
Ġstart up
Ġstop s
Ġt m
Ġtra ined
Ġun used
Ġvar args
" %
", "
' ve
(': ')
() ).
) ).
* ,
19354838709 677
31 7
32 8
61 7
8 74
="" ,
== '
> ',
A p
BU FF
BUFF ER
C an
Decl Handler
E W
E mpty
ERTI FIC
EVENT_ READ
F ind
F rozen
Fe ature
File Loader
ING ET
In ternal
N ING
N UT
T CP
V i
VER BOSE
_ END
_ NODE
_ iterator
_ labels
_ serial
_ serving
_PRE FIX
_TH RESHOLD
__ annotations__
__ cause__
_bu f
_bu iltin
_element s
_g old
_h andlers
_lo okup
_manager_ thread
_member _map_
_re jected
_request ed
_result s
ab y
add __
am ble
ap es
at ype
b all
b ind
b z
bos ity
cal endar
ck ed
complete Read
cor ded
de scriptor
en cies
en coder
es mtp
escap es
exp ires
f _lineno
filter ed
fin ity
go ing
iffer ent
il ities
ili ary
initial ization
iv idual
la ke
local Name
match ing
me ta
mo unt
n _experts
opt s
ps is
rand bits
ri ve
scill ation
set blocking
set up
son net
st ar
tegr ity
um ing
un ctions
un quote
ur pose
url lib
ux iliary
ver ified
versal _newlines
w r
w raps
y et
y ield
ync Manager
{ !
} {
Ġ ))
Ġ'- '
Ġ( ((
Ġ2 3
ĠA ST
ĠA fter
ĠAF _INET
ĠB db
ĠC urrent
ĠCon fig
ĠD istribution
ĠMa ildir
ĠNormal Dist
ĠRe jected
ĠS OCK
ĠS wiGLU
ĠST OP
ĠSh ared
ĠT inyOverfit
ĠW H
Ġ_ GenericAlias
Ġ_ append
Ġ_ fix
Ġ_ time
Ġ__ doc__
Ġ_s ync
Ġ` (
Ġadapt ive
Ġapplic ations
Ġar cname
Ġback log
Ġbu il
Ġc c
Ġcancel lation
Ġchunk _left
Ġcollect ed
Ġde li
Ġde terminism
Ġde v
Ġdetect ed
Ġdetermin ed
Ġdict s
Ġe pi
Ġear lier
Ġh andshake
Ġh ook
Ġheap q
Ġi de
Ġi p
Ġign or
Ġim mutable
Ġinfo s
Ġinterpre ted
Ġinv oked
Ġke pt
Ġlocal ns
Ġm app
Ġm ove
Ġm sv
Ġmach inery
Ġmsv c
Ġmsvc rt
Ġon es
Ġp ad
Ġp seudo
Ġpart ially
Ġpe ak
Ġread _string
Ġrel ated
Ġrelease d
Ġres idual
Ġse ek
Ġsend file
Ġst and
Ġsub sequent
Ġt ensor
Ġt id
Ġtime zone
Ġtool s
Ġun pickling
Ġv s
Ġw alk
Ġwe ekday
Ġyi el
"" ",
( ('
() ')
() }
---------------------------------------- --
0 30
00 02
00 06
00 3
00 7
31 6
79 6
AF _INET
AL LOW
ARAME TERS
C ode
Close Handle
Co unt
D ate
D iff
F ORM
IN D
LOC ALE
LOCK SIZE
M ix
O ptional
OT E_
OU R
P OSIX
P ri
Query Attention
RL ock
S C
Un ion
V OCAB
WA RE
WARN ING
_ ERROR
_ QU
_ ensure
_ variants
__ __
_a mp
_ab lation
_artifact _hashes
_b lank
_b roken
_chunk ed
_co activation
_co okie
_d ate
_de ad
_name _
_r andom
_r fc
_sc heme
_se quence
_sock _fd
_st ar
_thread s
_w ater
_w rap
_we ight_
_work _items
a N
abc def
aby l
action s
add _flag
ain Map
al formed
al one
an e
at tributes
b f
b oundary
c m
co oked
com ments
cooked q
create _task
ct est
ct ime
cul ate
current_ frame
de que
decess ors
ed QueryAttention
end _lineno
ent rant
er ved
execut ed
f ailure
g ates
get_ context
get_ running_loop
h older
if t_
l ru_cache
lat es
m atches
m ore
mbo lic
of ficial
position al
pro c
q k_norm
rel ative
safe _load
sh m
sh ort
string s
ull dom
unt ra
vi de
wh itespace
} \
Ċ ĊĊĠĠĠĠĠĠĠ
Ġ" --
Ġ" \\
Ġ" {}
Ġ' (
Ġ2 001
Ġ> >
ĠA P
ĠC allable
ĠC lose
ĠCh ild
ĠCon ver
ĠDo main
ĠE VENT_
ĠF rame
ĠGener ator
ĠI nt
ĠInit ialize
ĠK eep
ĠR un
ĠRead Error
ĠS oftware
ĠStream Reader
ĠTar File
ĠText Context
ĠV alidation
ĠW arning
Ġ_ UN
Ġ_ ctx
Ġ_ sock
Ġ_ spec
Ġ_P recedence
Ġ__ path__
Ġ__ r
Ġ_co erce
Ġ_new _parent
Ġ_order _
Ġa lo
Ġa way
Ġab c
Ġad vert
Ġadd _flags
Ġan gle
Ġappro xim
Ġb isect
Ġb racket
Ġbreak s
Ġcompat ible
Ġcontext lib
Ġcopi ed
Ġd rv
Ġdef ines
Ġdiag _b
Ġdis k
Ġdis position
Ġe p
Ġe ps
Ġen able
Ġencounter ed
Ġexecut ing
Ġexp r
Ġext ensions
Ġextra _args
Ġfd st
Ġfile system
Ġfol der
Ġg ather
Ġg uess
Ġh ack
Ġh ours
Ġhow ever
Ġident ify
Ġinstanti ating
Ġl iter
Ġlimit ed
Ġlo sses
Ġn a
Ġoption ally
Ġorder ed
Ġpar sers
Ġpro mpt
Ġre d
Ġrout ine
Ġstr ong
Ġsum mary
Ġt abs
Ġt e
Ġt itle
Ġtry ing
Ġun it
Ġun register
' m
( ("
) """
) }")
---------------------------------------- ---
032258064 516129
19 2
21 09
6 14
61 6
6774 193548387
8 64
80 7
9 0
: ],
; ')
======== ====
AL _P
AS E_
AT TR
C ASE
C UDA
Cal endar
Con vert
EventLoop Policy
Ex p
F ailed
F lag
G uard
Hel lo
Juniper AutoModel
KE EP
LOC AL
METH OD
OF T
OFT WARE
P END
P ass
P er
P y
PRO TO_
RO M_
ST ART
Su ccess
Test Result
UNK NOWN
UT DOWN
VAL U
Vi ew
_ command
_ raise
_F ROM_
_FI ELD
_TOKEN S
_b its
_con tribution
_connect ed
_de vice
_e lem
_f lush
_group _depth
_level _dir
_m issing
_mock _new
_option _string
_p r
_pr int_
_q name
_s cal
_s pawn
_s um
_slo t
_trace _tokens
_valid _token
a gs
act ers
ager _task
as yncio
attribute __
b ot
b yn
bu ilder
byn umber
c ached
c ref
col lapse
d ates
display _name
dist ribution
el f
em ote
en abled
ens ive
erm iss
filter s
g ence
h ind
he st
in ference
is ible
l r
lease Lock
li ant
lis hed
lli psis
m ust
min or
mon str
n or
n t_
net loc
o scillation
ol ded
over fit
owner Element
pair s
qu otes
ram mar
re port
re v
ren a
rit ical
s age
s p
scri be
sec ure
set trace
su ite
t able
tb _frame
un register
up press
ust ed
version __
Ġ âĢ
Ġ" '
Ġ"< %
Ġ'" ':
Ġ4 0
Ġ= ==
ĠA T_
ĠAc cept
ĠAn notated
ĠAuth or
ĠE xt
ĠEn try
ĠF irst
ĠF rom
ĠGroup edQueryAttention
ĠH andler
ĠIn ter
ĠJuniper AutoModel
ĠM ISSING
ĠPar ser
ĠS hould
ĠSign ature
ĠSystem Exit
ĠW AR
ĠWAR RAN
Ġ_ G
Ġ_ State
Ġ_ empty
Ġ_ g
Ġ_ validate
Ġ_ w
Ġ_P OSITIONAL_
Ġ_re duce
Ġa mount
Ġauto cast
Ġc b
Ġc ertain
Ġconnection _lost
Ġcons istent
Ġcont ext_
Ġcopy right
Ġde op
Ġdet ector
Ġdisplay _name
Ġex port
Ġexit code
Ġexp ans
Ġf ar
Ġf c
Ġfollow s
Ġform ul
Ġfunctional ity
Ġh ierarchy
Ġh olds
Ġinser ts
Ġinter polation
Ġkey ed
Ġle gacy
Ġlog ic
Ġm p
Ġme mber_
Ġme taclass
Ġmod ulename
Ġmodule _globals
Ġmoe _cfg
Ġn _valid
Ġnew url
Ġover lap
Ġp ot
Ġpermiss ions
Ġprofi ler
Ġpur poses
Ġre comm
Ġre cursion
Ġread s
Ġreason s
Ġrep ly
Ġsample s
Ġsc an
Ġse curity
Ġsen ds
Ġsepar ately
Ġstruct ures
Ġt msg
Ġt wice
Ġtest ed
Ġthro w
Ġto _encode
Ġtotal _parameters
Ġun re
Ġvalid _sparse_dict
Ġvalid ator
Ġwrap ping
Ġ{} ".
#-------------------------------- -------------------------------------------
(" .
(" /
(' \\
('/ ')
(? :
* ?
** *
+ ',
01 3
024 193548387096774
16 9
23 4
3 56
4 04
5 09
67 5
8 05
8064 516129032258
99 9
ANC E
C E_
C OR
C losed
Clean up
D OCU
D OT
Di ctionary
Dist ribution
ER T_
En code
F ilename
FI ED
HE AD
I AL
IG H
IN DO
In clude
LI ST
M issing
MESSAG E
NUT YPE_
O pen
OSITION AL
Option Error
R andom
S ep
S ize
SPARSE_ PATH
STR U
TY PE_
UN NING
V I
[ [
_ OP
_CL ASS
_P OSITIONAL
_balance_loss _raw
_col _offset
_const s
_current_ line
_ex clusive
_ex isting
_f amily
_f ind
_f oundation
_f raction
_foundation _probe
_get_ value
_h ttp
_m apping
_m od
_mut ually
_mutually _exclusive
_orig inal
_p lacement
_pass wd
_pre cedence
_raw q
_re p
_su ffix
_to _key
_tra ining
_tuple s
_type _
_type _check
address list
all close
ar ly
arm up
byte array
chunk _left
comp iler
comp ressed
d n
default_ factory
er name
exception s
exp at
first weekday
gener ated
got i
gt __
i ck
i ed
ified Name
ing Instruction
inter leave
lay ers
le __
le ader
lo sses
loader __
local host
n s_
olog ical
or ization
or sel
p hrase
par ators
parse _tree
pe ername
pt im
quir ing
r find
raw q
re main
s ame
s cal
s cale
s il
sh ot
spawning _popen
st _mode
su per
sum er
th ough
thread ing
to m
u ss
uni que
uns queeze
w as
w riter
wait pid
way s_
Ġ escapes
Ġ quest
ĠĠĠĠĠĠĠĠĠĠĠĠĠĠĠĠ ĠĠ
ĠĠĠĠĠĠĠĠĠĠĠĠĠĠĠĠ ĠĠĠĠ
Ġ' ='
Ġ'. ':
Ġ-------------------------------- ----------------
Ġ---------------------------------------------------------------- ----
ĠCF WS
ĠD TD
ĠE N
ĠEx tract
ĠGeneric Alias
ĠID s
ĠLO AD
ĠM odel
ĠNO T_
ĠP OP
ĠP ermiss
ĠQ P
ĠR Lock
ĠRe al
ĠS ame
ĠS im
ĠSH A
ĠStack Object
ĠT CP
ĠToken List
ĠW rite
ĠWARRAN TI
ĠWARRANTI ES
Ġ_ VAR
Ġ_ cache
Ġ_ close
Ġ_ copy
Ġ_ dispatch
Ġ_ do
Ġ_ r
Ġ__ file__
Ġ_as dict
Ġ_col lections_abc
Ġa mt
Ġal loc
Ġan ame
Ġblock ed
Ġbo unded
Ġca ught
Ġcal endar
Ġcapture _output
Ġch r
Ġclient s
Ġcon figs
Ġcon venience
Ġconfig _paths
Ġconfig ure
Ġcontext s
Ġcount ed
Ġcur r
Ġdata gram
Ġde al
Ġde coding
Ġde epcopy
Ġde scribe
Ġde vi
Ġdecor ated
Ġdes ired
Ġdomain s
Ġeffici ent
Ġexpans ion
Ġexperiment s
Ġexplicit _arg
Ġfol ding
Ġframe _summary
Ġget text
Ġhash able
Ġhead s
Ġhig her
Ġhist ory
Ġin complete
Ġind ividual
Ġinstanti ated
Ġinv oke
Ġis method
Ġle ave
Ġm map
Ġn b
Ġn or
Ġob type
Ġobs _local_part
Ġord inary
Ġp added
Ġp print
Ġparent_ path
Ġplat forms
Ġpop ped
Ġpre tty
Ġprint ing
Ġproven ance
Ġq k_norm
Ġr er
Ġra ce
Ġre build
Ġreport s
Ġrouter_ z_loss
Ġscal ar
Ġsignific ant
Ġsome one
Ġsub stantive
Ġt earDown
Ġt ext_
Ġtemp late
Ġtext wrap
Ġth resholds
Ġtr unc
Ġunicode data
Ġw ild
Ġw indow
() ."""
0 123
00 24
22 9
25 8064516129
31 5
31 9
33 3
37 5
39 6
5 74
58 9
66 6
76 7
77 7
8 14
88 4
99 19354838709677
: ].
A K
AC HE
AG ES
An notated
Ass ert
Auth Handler
CO M
CTION _NODE
Com ment
Cookie Jar
Data gram
De code
Depre cated
EST_ FILES
Element Handler
F actory
F ormat
HTTP RequestHandler
Hel per
IL INE
Ite ms
M ismatch
M utable
N L
O f
OUN D
P ET
Pipe Error
R AG
RIT ICAL
ROUP REF
S OL
S Y
ST AR
SU FFIXES
Send file
T A
T ask
Tra ceback
ULT ILINE
[^ \
] ).
_ alloc
_N L
_NO T_
_T EST_FILES
_T LS
__ dataclass
_a re
_as yncio
_atom ic
_bootstrap _external
_c ausal
_child _handler
_chunk s
_de scriptor
_decl _handler
_dis card
_empty _elements
_f ault_
_f mt
_fault_ injection
_fixture s
_list ener
_ma gnitude
_ma ybe
_n an
_p ax
_qu oted
_r ange
_re l
_s ingle
_sub class__
_test _manifest
_to _
_to _type
_trans form
_w in
_wait _for
a f
al ways
alp habet
an ded
ar er
are ns
auth ored
b r
ced ure
ch oice
clean up
clus ion
code __
d rive
default_ section
dev null
e quivalence
ed i
ex cepthook
ex ternal
flow box
follow _symlinks
fork server
fram er
frozen _v
g reg
gate _passed
ge __
generate _phase
get_ payload
header len
i od
import __
inf our
infour l
init _subclass__
ith ost
j ac
le es
le st
li mbo
lm _head
m ultipart
mal lest
multi processing
oc ation
ol ated
package __
pair _coactivation
pl ithost
q name
re verse
ro ws
row ser
rupt ed
s pawn
s_per _expert
se m
sens itive
sh ould
shared _expert_
sock name
st ub
tag Name
ty ing
type id
un safe
uple x
v s
verifi able
wait er
wh at
win error
write ln
xml ns
Ċ ĊĠĠĠĠĠĠĠĠĠĠ
ĊĠĠĠĠĠĠĠĠĠĠĠĠĠĠĠĠĠĠĠĠĠĠĠĠĠĠĠĠĠĠĠĠĠĠĠĠ ĠĠĠĠĠĠĠĠĠĠĠĠĠ
Ġ Qu
Ġ ut
Ġ' &
Ġ' ':
Ġ2 026
ĠA UTH
ĠAr gs
ĠB ecause
ĠB lock
ĠC OR
ĠC RLF
ĠCON NE
ĠCheck point
ĠControl Token
ĠConver ting
ĠD ata
ĠDEFAUL T_
ĠEx act
ĠF I
ĠG MT
ĠH AS
ĠI gnore
ĠIn completeRead
ĠLic ense
ĠLo gger
ĠM H
ĠN L
ĠN ew
ĠNode Filter
ĠRe view
ĠRes erved
ĠS E
ĠU SE
ĠUN IX
ĠW SP
Ġ_ c
Ġ_ complete
Ġ_ encode
Ġ__ lt__
Ġ__ spec__
Ġ__get attr__
Ġ_current_ indent
Ġ_current_indent _level
Ġac cessed
Ġan s
Ġany way
Ġat tach
Ġbu ffers
Ġbuffer ing
Ġc aches
Ġc ategories
Ġcap ability
Ġch allenge
Ġcomb ined
Ġcomp aring
Ġcomple tion
Ġconfig ured
Ġconnection _made
Ġconsume d
Ġcopi es
Ġdel _flags
Ġdest roy
Ġdiffer ing
Ġdri ft
Ġe ol
Ġe w
Ġepi logue
Ġexp anded
Ġextra ction
Ġextra s
Ġextract ed
Ġfc ntl
Ġfilter _function
Ġfrom _line
Ġg h
Ġg rammar
Ġgo es
Ġhash lib
Ġhttp_error _
Ġif f
Ġin line
Ġint s
Ġinter esting
Ġis _package
Ġissue s
Ġm atrix
Ġm ismatch
Ġman ual
Ġmethod _b
Ġmid dle
Ġn diff
Ġol der
Ġp kg
Ġp ow
Ġparent s
Ġpro actor
Ġprodu ction
Ġre cognized
Ġre ject
Ġre ly
Ġread_ uint
Ġrepe ated
Ġresource _tracker
Ġs ays
Ġs li
Ġsc andir
Ġsemant ic
Ġsen se
Ġser ve
Ġsmall er
Ġst reams
Ġstatic method
Ġsu g
Ġsub dir
Ġsub parts
Ġsy mbolic
Ġt ells
Ġtra in
Ġtrans form
Ġtrigger ed
Ġu id
Ġwe ak
Ġy y
! \
' ."""
'] :
(' =
, '
." ),
0 64
00 5
05 7
1 19
1 30
2 04
200 8
25 5
3 00
32 4
39 7
45 67
51 61
6 55
67 4
7 84
; ")
> ,
? ',
ARG U
ARGU MENT
AT OM
B ad
C R
Con struct
DEFAUL T
E LE
E OF
EN SE_
Ex ecut
F ail
FI R
FIR ST_
Function Type
G ET
H ANG
I RED
I t
IN VAL
J ECT
J SON
KEN _FROM_
KEN_FROM_ ARGUMENT
L D
M ailbox
MB ER
Mix In
OR T_
OUN T
O_ RE
On ly
P ES
Pipe Transport
Proxy Type
RE N
Re quired
Res ol
Resol ver
S ingle
S pecial
ST D
Sub process
T UPLE
V ENT
VER SION
Value Mismatch
We ak
[ ,
_ LEN
_ ctx
_ origin
_ static
_ until
_ use
_C OUNT
_S UPPORTED
__ code__
__ del
__ next__
__get item__
_after _fork
_alloc ated
_buffer _limits
_check Closed
_comple ted
_con structor
_cor o
_cor pus
_de clar
_dir ty
_e val
_ew _allowed
_ex ec
_field _type
_filter s
_i ocp
_i p
_m atches
_moe _layers
_names pace
_op ener
_order ing
_out going
_over ride
_p ri
_pass word
_re duce
_re port
_re quired
_router _logit
_scal ing
_se cond
_se lect
_sh ape
_sh ow
_stop ped
_t ry
_th reshold
_valid_token _count
_vram _bytes
_write _ready
ac ility
activ ated
an cy
ane ous
base s__
c r
ce eded
chunk ed
ci pi
cipi ent
ckling Error
cl s_name
con s
context manager
drop out
du ced
er n
ex e
exper ts
failure Exception
ff ff
final izer
finished _tasks
for ce
h ave
in her
in v
jac ent
l u
le arned
mber_name s_
me as
mon otonic
n _kv_heads
n a
named tuple
normal ized
ns ure
omin ant_
orking Pickler
orm atter
own ed
path name
ra structure
res ource
set_ data
sh lex
signature __
son ly
sub dir
sub type
t z
tain er
test_model _fault_injection
tra ined
u ck
untra ined
ur ther
v oid
valid _sparse_dict
w rapper
zero s
á ²
Ċ ĊĠĠĠĠĠĠĠĠĠ
Ġ" *
Ġ""" )
Ġ' "'
Ġ' $
Ġ'* '
Ġ-- >
Ġ... ]
Ġ1 000
Ġ2 045
ĠAp pro
ĠAss ume
ĠB ar
ĠCon t
ĠD is
ĠF ind
ĠG zipFile
ĠInst ead
ĠNon Callable
ĠO ne
ĠP IPE
ĠP OST
ĠP rint
ĠP urePath
ĠRe covery
ĠRo PE
ĠS OFTWARE
ĠS PECIAL
ĠS end
ĠStr ing
ĠT UPLE
ĠT ypedDict
Ġ_ acquire
Ġ_ class
Ġ_ layer
Ġ_ lock
Ġ_ logger
Ġ_ stub
Ġ__ import__
Ġ__del item__
Ġ__get state__
Ġ_new _name
Ġ_stub _layer
Ġ_test _generator
Ġal one
Ġany object
Ġapp lies
Ġassert_ frozen_v
Ġat exit
Ġawait ed
Ġb road
Ġbe g
Ġc nt_
Ġch an
Ġchan nel
Ġcol lapsed
Ġcol lection
Ġcol umns
Ġcomp type
Ġconstruct ed
Ġconver ting
Ġd igit
Ġdead lock
Ġdebug level
Ġdeclar ation
Ġdense _layers
Ġdri ve
Ġear ly
Ġemit ted
Ġenum eration
Ġexit ing
Ġexpre ss
Ġf name
Ġf ws
Ġframe work
Ġg ive
Ġheaders only
Ġimp ro
Ġin cre
Ġin file
Ġinit _cfg
Ġinitial ize
Ġis o
Ġis pkg
Ġkeep s
Ġlo st
Ġm anag
Ġm ixed
Ġm m
Ġmaint ain
Ġmin imum
Ġmin or
Ġmin us
Ġmodel s
Ġn t
Ġnext tok
Ġnormal ization
Ġoffset s
Ġpie ces
Ġpro pagate
Ġr an
Ġr ational
Ġrecursive ly
Ġrenormal ize
Ġrep laces
Ġretrie ved
Ġro t
Ġs r
Ġsa ved
Ġset tings
Ġsort _keys
Ġsource _address
Ġspecial ized
Ġspecifi cally
Ġspecifi er
Ġstartup info
Ġsug gest
Ġterm inal
Ġtotal _parameter_breakdown
Ġtri ck
Ġup on
Ġvar kw
Ġwant s
# !
################################################################ ########
') ):
(" .")
(" >
(' "
* ()
03 5
09 8
1 07
1 16
12 1
3 34
31 4
35 9
38 9
4 84
55 5
67 9
79 5
8 15
85 7
=' '):
> <
> </
A vailable
AL_ ARTIFA
AL_ARTIFA C
AL_ARTIFAC T_D
AL_ARTIFACT_D IR
AND SHA
ANON IC
ANONIC AL_ARTIFACT_DIR
Ar g
As yncio
BU F
C DATA
CH LD
Con dition
D IGITS
Element NS
H ook
In dex
LO S
Line ar
Lo ad
M OD
M ULTILINE
ME x
MEx ception
Named Item
Not Available
OU S
P air
Ra ised
Re set
S trict
SPARSE_ CFG
SSL Context
Test Run
Tests From
U SE_
Un ix
W arn
WR APPED
_ ep
_ old
_ uint
_ via
_H ANDLE
__ bases__
_at tribute
_b aseline
_c lip
_call ers
_clip _norm
_co prime
_com ment
_commit _removals
_coprime _int
_coprime_int s
_cur riculum
_curriculum _state
_ex cepthook
_executor _manager_thread
_f req
_fe atures
_fi ll
_fin ish
_fin ite
_format s
_g en
_h igh
_in st
_initial izer
_intern ing
_list _len
_log gers
_m erges
_m ultipart
_m ust
_mock _call
_mock _children
_not ifier
_official _model
_pro b
_resume d
_segment s
_t ags
_t z
a uss
ac ing
add _parser
alp ha
an ity
and below
ap shot
assignment_count s_per_expert
at ives
attr text
av es
b ound
bp bynumber
by name
c data
ch mod
co _name
d on
dense _ffn
do es
e very
entic ated
er_ index
exc _value
final _norm
flat _x
flow Error
full _path
g ra
get Logger
h ig
h igh
h ref
he mat
i B
id ing
is k
it ch
k sum
la cing
la zy
le gate
le vant
lo ok
m ath
ma y
main _thread
min ate
module _name
moe _ablations
moe _dispatch
mp ath
n _sequences
n apshot
new line
notify _all
nt act
o ining
p db
p gettext
par sers
pl ural
pop left
pro bs
pro cesses
process _obj
pt ext
random _router
re ason
re ed
ro me
ro ugh
s ample
s ingle
s_per _second
set sockopt
set_ defaults
set_ seq
sh are
st and
ste ms
tb _next
test_model_moe _dispatch
time s
u ch
ul ator
urro gates
w alk
w indows
wrapped __
|> ",
} ]
}, '
ĊĠĠĠĠĠĠĠĠĠĠĠĠĠĠĠĠĠĠĠĠĠĠĠĠĠĠĠĠĠĠĠĠĠĠĠĠ ĠĠĠĠĠĠĠĠĠĠ
ĊĠĠĠĠĠĠĠĠĠĠĠĠĠĠĠĠĠĠĠĠĠĠĠĠĠĠĠĠĠĠĠĠĠĠĠĠ ĠĠĠĠĠĠĠĠĠĠĠĠ
Ġ" ),
Ġ" ;
Ġ"/ "
Ġ' @
Ġ( ),
Ġ( *
Ġ-------------------------------- ------------------------------------------
Ġ2 7
Ġ= ================================
ĠAl low
ĠAt tributes
ĠBroken PipeError
ĠCon dition
ĠD AM
ĠDAM AGES
ĠF INISHED
ĠFile NotFoundError
ĠHE AD
ĠHTTP Status
ĠInput Source
ĠJuniper Tokenizer
ĠL M
ĠLe vel
ĠM ock
ĠNode List
ĠPar amSpec
ĠPi cklingError
ĠPo licy
ĠPro xy
ĠQ Name
ĠR est
ĠS upports
ĠUser String
ĠXML Parser
Ġ_ D
Ġ_ base
Ġ_ patch
Ġ_ process
Ġ_ socket
Ġ_ wrap
Ġ_Call List
Ġ__ get_
Ġ_con vert_
Ġ_deepcopy _atomic
Ġ_re quire
Ġaddress _list
Ġal most
Ġat trib
Ġatt ached
Ġavoid s
Ġcap ath
Ġch anging
Ġcla ims
Ġcommuni cate
Ġcon crete
Ġconvent ion
Ġcycle s
Ġd irection
Ġde ci
Ġde tail
Ġdist ing
Ġdisting u
Ġdiv mod
Ġdomain _literal
Ġeas ier
Ġend ing
Ġer hn
Ġest ab
Ġexec _module
Ġexp and
Ġexpected _regex
Ġf oo
Ġf raction
Ġfield _name
Ġfield _names
Ġfin ding
Ġgener ators
Ġgenuine ly
Ġh list
Ġignore _exp
Ġin tegrity
Ġk ernel
Ġlimit ation
Ġline term
Ġload _bin
Ġlon gest
Ġman ip
Ġmay be
Ġmeaning ful
Ġmock s
Ġmoe _layers
Ġmon key
Ġn _layers
Ġnew l
Ġnon local
Ġop map
Ġoption als
Ġout file
Ġprefix _skip
Ġprevious ly
Ġprint able
Ġpro ve
Ġr isk
Ġra ising
Ġredu ct
Ġreduct or
Ġrouter _logits
Ġs amp
Ġscal er
Ġse ctions
Ġserial ized
Ġshould n
Ġsock type
Ġstruct ural
Ġsuccess ful
Ġsuffix es
Ġth ird
Ġtime d
Ġtrans fer
Ġtyp ically
Ġun locked
Ġund ers
Ġuni versal_newlines
Ġwait ers
Ġwh ence
Ġ{} '.
"" ,
' ^
' }:
'' .
(" '
() ")
() ),
) ',
00 17
09 5
12 8
4 05
64 9
8 50
9 86
= \
A W
ANCELLED _AND
ANCELLED_AND _NO
ANCELLED_AND_NO TI
ANCELLED_AND_NOTI FIED
Ar ray
C ATEGORY_
CEP T
CEP TION
CL UD
CO RE
Char acter
D P
DOM Implementation
EN TI
ER ATOR
ER_ ID
EX CEPTION
EXT_ NODE
F ORMAT
HA VE_
I A
I ST
IP PET
IPPET S
IZ ER_ID
In put
In stance
Int Enum
Iter able
LOS ED
M od
N IPPETS
NEW LINE
NO HANG
NU MBER
OP RI
P ATTERN
P N
Po int
Prefix Mapping
Result Mixin
S RE_FLAG_
S yncManager
S_ IS
Set Up
State Error
System Id
V ID
]( ../../
_ DEFAULT_
_ fix
_ stdout
_ unix
_COMP LETED
_M OD
_S pecial
__ exit__
__ str__
__get attribute__
_active _parameter_breakdown
_args _list
_back ward
_base string
_bound _arg
_by pass
_c lient
_ch ain
_cor rect
_def ect
_ex clude
_ex ecut
_f ailed
_from _coprime_ints
_g olden
_group _actions
_in terpolation
_ip v
_lo ader
_lo w
_me mber_
_n e
_or _type
_over fit
_p oll
_pair s
_re use
_s oftmax
_sc ript
_se p
_sh a
_shared _expert
_sock et_
_start_ element
_thread safe
_un pack
_valid ation
_we ighted
ack age
al f
al ive
al ways_
an alysis
ang ling
arg parse
base Filename
c andidate
c ut
ce lain
ci p
co _flags
co uld
code _or_type
col on
config ure
const ants
context_ length
curren ces
e ager_task
e hlo
em Lock
ext ension
f _locals
f handle
f l
find all
fs path
g name
get cwd
get timeout
hash _manifest
ime d
in ser
initial space
is digit
issue s
list dir
log it
mark er
message _from
mk dir
mo us
model _fixtures
mul __
n ext_
norm case
or celain
or th
os fhandle
ose n
pa red
parent s
pro fi
pro pagate
quival ent
ra in
re corded
red ential
redirect ed
rep ly
ro pe
s lashes
s n
ss ibly
start_ method
string _type
sy m
task s
tr unc
trans fer
ued iv
ump tion
un ame
url parse
use s
ver gence
w a
{} '.
| '
Ċ ĊĠĠĠĠĠĠ
Ġ license
ĠĠĠĠĠĠĠĠĠĠĠĠĠĠĠĠ ĠĠĠĠĠĠĠĠ
Ġ(' ',
Ġ* (
Ġ12 8
Ġ2 04
Ġ< -
ĠAsync Mock
ĠB U
ĠB abyl
ĠB e
ĠBytes IO
ĠC H
ĠC OMP
ĠE nsure
ĠEMPTY STRING
ĠEn vironment
ĠEx ecut
ĠExpat Builder
ĠFuture s
ĠHel per
ĠI MP
ĠIN T
ĠIn ternal
ĠInit Var
ĠJSON DecodeError
ĠL et
ĠLo ad
ĠM apping
ĠM on
ĠO ption
ĠOpen SSL
ĠP ri
ĠPo int
ĠPo sition
ĠRe ference
ĠResource Warning
ĠS P
ĠS ection
ĠSOCK _STREAM
ĠT uple
ĠTH IS
ĠTest Case
ĠURL s
ĠWe ak
ĠXML Reader
Ġ[ [
Ġ_ L
Ġ_ after
Ġ_ validate_
Ġ__a exit__
Ġ_clear _id_cache
Ġ_heap replace
Ġ_s ift
Ġ_s plithost
Ġ_un quote
Ġ` .
Ġac c
Ġac count
Ġaccept ing
Ġallow ing
Ġanch ors
Ġans wer
Ġarchitecture _id
Ġarchitecture s
Ġas k
Ġassert ion
Ġb s
Ġbase _events
Ġbo x
Ġc p
Ġc ut
Ġch oice
Ġcheck ers
Ġcomparison s
Ġcon tract
Ġconsist ency
Ġcur _len
Ġcur _line
Ġde velo
Ġdis cover
Ġenter ed
Ġexecut e
Ġext end
Ġf et
Ġf ron
Ġf urther
Ġfig ure
Ġfilter ed
Ġfron t
Ġfull _path
Ġg amma
Ġg raph
Ġgate _passed
Ġhas n
Ġignore_exp ires
Ġimp licit
Ġimplement ing
Ġin _table
Ġj ump
Ġkey_valid _mask
Ġlast _charset
Ġlevel s
Ġlist en
Ġlocal _addr
Ġlog ged
Ġm at
Ġm ixin
Ġm ro
Ġman age
Ġmo ved
Ġmut ated
Ġnormal ize
Ġoper and
Ġout queue
Ġpath name
Ġprefix ed
Ġpro bs
Ġpro cedure
Ġpro gress
Ġproxy host
Ġquote _types
Ġrep lacing
Ġrepresent ed
Ġrepro ducible
Ġresol ution
Ġse ct
Ġsee ded
Ġsegment s
Ġseq _type
Ġset up
Ġsh ut
Ġsignific and
Ġskip initialspace
Ġskip ping
Ġst ar
Ġstart_ index
Ġsubpattern append
Ġsup pre
Ġsy stems
Ġtag Name
Ġter ms
Ġthe ta
Ġtime stamp
Ġtop k
Ġtra ces
Ġver ification
Ġwork flow
Ġy r
Ġyi elds
Ġz one
ĠâĢ Ķ
' %
' +
'< {
(' @
('- ',
('.') [
) ?
---------------- ---+
---------------- --------
00 19
00 23
00 8
02 5
02 9
09 4
12 2
22 7
25 9
3 74
35 4
35 7
39 9
4 23
4567 89
48 2
80 4
84 4
84 9
88 5
AD R
ATTRIBUT E_
Ac cept
At tr
B ACK
B ITS
BY TES
Base Handler
C ACHE
Case Class
Clean ups
D AY
D N
DE F
DO MException
De lete
ERTIFIC ATE_
En abled
En coder
Ex ists
Exists Error
F OR
F d
G H
H ER
I LED
I RE
I s
IGNORE CASE
ING_ IN
In finity
LE S
LO G_
M ake
Mo EDiagnostics
O VER
O w
OCK ET
ON G_
OR OUT
P ACK
PATH _INFO
Pro perty
R untime
RO UT
Ra ises
Rep ort
Rout ing
S CRIPT_NAME
S ection
SI VE_
SIG INT
ST OP
U SE
U sing
UMP _
VAL UE
W ith
X Y
Y Y
[ \
_ limbo
_ ov
_ vari
_ vars
_IN TER
_S OCKET
__ eq__
__ iter__
__set attr__
_ac cum
_add _reader
_and _
_app _protocol
_app _transport
_c pu
_com mon
_data _handler
_data class
_ex __
_exit code
_expert_ id
_expert_ output
_fail ure
_final izer
_for ward
_is _rejected
_j ob
_m ro
_name _len
_names paces
_next_ value
_official _architecture
_option_string _actions
_par sing
_pro file
_re served
_ro pe
_se parators
_shutdown _lock
_skip ped
_state _dict
_sub process
_to_type id
_w indow
_weight_ tying
_win api
add resses
all _seconds
am b
ame tr
ar gest
as ing
at exit
at t
auto spec
c rc
ca usal
child _watcher
de sc
e e
e ve
et loc
exc _type
f resh
f to
fail fast
fe atures
ff ort
fin ish
form ance
from _
fto ver
g ens
generate _next_value
global _step
gra de
gress ion
h ard
hig hest
i mit
if ted
import lib
info s
instance check__
inter val
ip es
is link
k ill
l an
la x
le ted
m ultiple
ma gic
me th
mod name
mod ulename
mt ree
ne __
nor mpath
normal ize
o mous
ol ding
ord iv
output _charset
p ow
p ulldom
path lib
pe at
pect ing
per child
pro mpt
re lation
re versed
replace _routed_expert
ro tary_dim
s aturation
s b
s lash
s qrt
s ynchron
se lection
se par
sel ves
self __
ser ialize
specifi cation
ssl _handshake_timeout
ssl _shutdown_timeout
t ition
t ls
top k
total _ordering
tric s
u v
un less
up Fd
uton omous
validate _caches
w file
warn msg
we ight_
wh ile
write _buffer_size
x text
xtasks perchild
z _raw
z ma
|---|--- |
|> "
}: {
Ġ" :"
Ġ'/ '.
Ġ( -
Ġ* **
Ġ2 047
Ġ2 5
Ġ5 322
ĠA T
ĠAuthentication Error
ĠB ad
ĠB asic
ĠB u
ĠC TE
ĠD iffer
ĠF OR
ĠG NUTYPE_
ĠHTTP Error
ĠIN D
ĠInit ial
ĠL AT
ĠLAT IN
ĠLOG_ LOCAL
ĠN aN
ĠName d
ĠP db
ĠPATH _INFO
ĠProcess Error
ĠR ational
ĠR emote
ĠRE AD
ĠS parse
ĠSource Spec
ĠTextContext Variant
Ġ_ Barrier
Ġ_ Selector
Ġ_ cal
Ġ_ no
Ġ_ on
Ġ_ parent
Ġ_ strip
Ġ_ weakref
Ġ_Barrier State
Ġ_acquire Lock
Ġ_iter encode
Ġ_split type
Ġauthor ization
Ġb pe
Ġbit wise
Ġc ertificate
Ġcause s
Ġch osen
Ġclose _fds
Ġcol no
Ġcol on
Ġcomput ation
Ġcum ulative
Ġdepend encies
Ġdepend s
Ġdestroy ed
Ġe m
Ġeas y
Ġeffect ive
Ġeval _str
Ġex ha
Ġexclude d
Ġexist _ok
Ġexp ensive
Ġfig ures
Ġfloat s
Ġfol ded
Ġfork server
Ġfra ctions
Ġget proxies
Ġhonest ly
Ġide a
Ġident ities
Ġignore _discard
Ġin queue
Ġinser ted
Ġis cased
Ġis olated
Ġl p
Ġlast i
Ġlink _next
Ġlink name
Ġlink s
Ġload _tests
Ġloop s
Ġm alformed
Ġm and
Ġm angle_from_
Ġmark s
Ġmax headerlen
Ġmeasure ment
Ġminim al
Ġmonth s
Ġmsg _id
Ġn s_
Ġne goti
Ġnew _params
Ġnumer ical
Ġob tained
Ġobject _hook
Ġobject _pairs_hook
Ġop ener
Ġorder ing
Ġover write
Ġp wd
Ġpause _writing
Ġpick led
Ġpl ural
Ġposition _ids
Ġpre ferred
Ġpro tect
Ġpro vid
Ġprovid ing
Ġqual name
Ġre jected
Ġre li
Ġre po_root
Ġrece iving
Ġreg ex
Ġreturn _when
Ġs low
Ġs mallest
Ġsem i
Ġset Up
Ġsh ift_
Ġso le
Ġsock _recv
Ġsoft max
Ġstandard _active_parameter_breakdown
Ġstart_ response
Ġsuite Class
Ġsup posed
Ġsupport ing
Ġsuppre ssed
Ġt up
Ġtarget s
Ġtest _case
Ġtest _sparse
Ġtoken _ids
Ġtrans late
Ġun available
Ġun ne
Ġunix from
Ġvi ol
Ġwe ight_
Ġwin ner
Ġwork flows
Ġwrite _eof
" \\
' -
( ['
---- --
00 11
00 15
01 8
02 7
05 6
07 8
09 9
12 4
32 6
36 9
387 09677419
50 7
51612903225 806
64 4
64 6
74 4
84 7
85 9
86 6
91 7
: ',
AN T
AR CH
ATEGOR Y
B AD
C RITICAL
C urrent
CORE _CONTROL
De corator
Descriptor Type
EG IN
END ED
ER G
EVENT_ WRITE
Ex tract
F D
F LAGS
F raction
G NU
H LO
H older
I M
IG IT
IN S
IP PROTO_
IRE CT
IT ES
LOG G
List ener
M MDF
M agicMock
Module Lock
N ew
Name P
NameP atterns
NotFound Err
O _CRE
OUND ARY
Ow ner
Owner Document
P Y
P art
PE P
R AC
RE AK
RE G
Reg ister
S ect
S ome
SOL _SOCKET
ST ATE_
S_D IR
Sect ionError
Sh ow
T ypedDict
TER M
TION AL
V er
XX X
[... ,
_ ERR
_ NUMBER
_ READ
_ arguments
_ array
_ defects
_ verbose
_C OROUT
_D IR
_M AGIC
_NAME SPACE
_P RO
_SSL v
_TY PES
__ self__
__ weakref
__weakref __
_a wait
_a ware
_balance _raw
_boundary _
_c ases
_c ircular
_cal lees
_call _connection_lost
_check able
_clean ups
_close _conn
_convert_ string_type
_d own
_di gest
_expert_ gradient
_fd _no
_fd_no _transport
_h ours
_it er_
_logit _abs_
_mask _
_member _type_
_new line
_norm _mean
_now ait
_p i
_p ipes
_p ut
_prob _margin
_re main
_remove _reader
_rms norm
_side _effect
_simple _enum
_to _exitcode
_to lerance
_tunnel _host
_un hashable
_un register
activ ate
al i
ar Down
armup _iters
async gen
b solete
be gin
be hind
bsolete HeaderDefect
copy doc
cur index
d _value
d antic
d uplicate
dense _layers
dir s
dis abled
e mail
e mit
end _col_offset
end ers
ep i
et y
flat ten
fol ded
h aps
h ib
ig lu
igin t_
in enum
is _alive
is _closed
is abs
it ize
ith me
ith read
ithme tic
lat er
line ar
lo aded
lo okup
logger Dict
max _line_length
meas ured
member _map_
mut ex
n _protocol
name _from
ne ver
new url
no _grad
non ce
num eric
o unded
olded Case
op s
opcode s
os ix
out file
over load
p open
parameters __
pre decessors
qui ck
r file
ro te
s amp
s uppress
safe _repr
semb le
send _error
set Level
set_ name__
stance s
state ment
status _to_exitcode
su ch
synchron ize
te arDown
token _ids
tokenizer _id
up Count
v oke
w args
work flows
x fb
y ml
z lib
}) ".
ĊĠĠĠĠĠĠĠĠĠĠĠĠĠĠĠĠĠĠĠĠĠĠĠĠĠĠĠĠĠĠĠĠĠĠĠĠĠĠĠĠĠĠĠĠĠĠĠĠĠĠĠĠ ĠĠĠĠĠĠĠ
Ġ ;
Ġ ge
Ġ sel
Ġ""" +
Ġ' >
Ġ( ))
Ġ(" <|
Ġ3 00
Ġ: ]
Ġ: ],
ĠArgument Error
ĠC ode
ĠCon stant
ĠDense Block
ĠE HLO
ĠE ither
ĠE nd
ĠExper iment
ĠF ilter
ĠF ork
ĠFile ExistsError
ĠFor ward
ĠG EN
ĠG LOBAL
ĠH ere
ĠI s
ĠL ONG
ĠL ock
ĠLo ok
ĠLoc al
ĠMethod s
ĠMoE Block
ĠMod erate
ĠN umber
ĠO bject
ĠO p
ĠP air
ĠQ oS
ĠRE QU
ĠRe quired
ĠS EM
ĠTh en
ĠU DP
ĠValue Terminal
Ġ[ ])
Ġ[ {
Ġ_ Proactor
Ġ_ compiler
Ġ_ dis
Ġ_ io
Ġ_ proc
Ġ_ root
Ġ_ setup
Ġ_ state
Ġ_C S_
Ġ_M IN
Ġ__ or__
Ġ_coerce _result
Ġ_path _is
Ġ_re leaseLock
Ġ_re move
Ġ_s re
Ġa ffect
Ġa uxiliary
Ġab sent
Ġac cur
Ġamb ient
Ġannot ate
Ġappro ach
Ġassign ments
Ġaver aging
Ġbase _dir
Ġbasic Config
Ġbatch _size
Ġbuffer ed
Ġbytecode _path
Ġc ell
Ġc uda
Ġcalcul ated
Ġchild Nodes
Ġcla imed
Ġco st
Ġcom bination
Ġcon sumer
Ġcopy ing
Ġde monstr
Ġde ta
Ġdeclar ations
Ġdel attr
Ġdeta iled
Ġdevi ation
Ġdis assemb
Ġdoc uments
Ġensure _ascii
Ġentire ly
Ġenum _member
Ġerr pipe
Ġexpress ions
Ġf actor
Ġf ault
Ġfield names
Ġfin ite
Ġflo or
Ġform atters
Ġget_ time
Ġgradient s
Ġgre en
Ġh olding
Ġh yp
Ġhas cased
Ġhe appop
Ġin finite
Ġin tr
Ġindic ated
Ġint ention
Ġintern ally
Ġinv ocation
Ġj itter
Ġkeep ing
Ġl zma
Ġlink _pre
Ġlink_pre v
Ġmapp ings
Ġmark up
Ġmax _count
Ġmax _trace_tokens
Ġmonkey patch
Ġn _moe_layers
Ġne g
Ġnew OwnerDocument
Ġnew item
Ġon error
Ġover fit
Ġow ns
Ġp atched
Ġp er_
Ġp la
Ġpath _parts
Ġpip es
Ġplace d
Ġplace holder
Ġpop ulated
Ġposix path
Ġpre training
Ġprint s
Ġprobe _token
Ġpy c
Ġquot ing
Ġr atio
Ġraw val
Ġre levant
Ġread_string nl
Ġref old
Ġremo val
Ġreport ing
Ġro tary_dim
Ġs in
Ġs l
Ġs mtp
Ġsemaphore s
Ġset_ exception
Ġsever ity
Ġsh apes
Ġshared _expert_
Ġsource get
Ġst ub
Ġstruct ured
Ġsy ntact
Ġsys call
Ġsys id
Ġt ries
Ġtemp lates
Ġthem selves
Ġthey ear
Ġtim ings
Ġto lerance
Ġtr uth
Ġtrace _dispatch
Ġtrace malloc
Ġtype id
Ġun ittest
Ġvisit or
Ġwait pid
Ġweakref _slot
Ġx bar
' d
(" ."
() "
(? :\
) ])
** :
+ '
+ +
00 29
04 3
09 7
1 34
123 4
19 7
2 001
2 88
25 8
26 9
3 38
3 39
3 67
3 76
34 7
37 8
38709677419 355
56 6
64 7
64 8
7 00
85 4
87 5
89 3
98 38709677419355
? )
? [
? \
AL TH
ALTH _THRESHOLD
ALTH_THRESHOLD S
AL_ DEFAULT_
AL_DEFAULT_ TIMEOUT
AL_P ARAMETERS
AP E_
Al low
Ar gs
Ar guments
BIN BYTES
BIN UNICODE
C ORD
C O_
CESS ING_IN
CESSING_IN STRU
Comple ted
Con tainer
D E_
DO UT
DOT ALL
De bug
Description HelpFormatter
ELE MENT_NODE
ER VER
ES S
En try
F LOWBOX
G RAM
Gener ate
HE ALTH_THRESHOLDS
HTTP S
I _IGNORE
I mp
ING_ HEALTH_THRESHOLDS
Import er
LOB AL_DEFAULT_TIMEOUT
M AC
MIN ATE
N F
Node Map
O r
OR _KEYWORD
OT AL_PARAMETERS
O_ R
P OP
PRE C
PU S_DIR
Q P
Qu it
ROUT ING_HEALTH_THRESHOLDS
Rep lace
S ign
SE EK
SER T_
SH UTDOWN
SP ENDED
Sep arator
T emplate
TA KEN_FROM_ARGUMENT
Test Suite
Thread ing
U B
UMP_ IF
UR N
VALU E_
VOCAB _SIZE
W indow
[ ~
] }
_ attention
_ err
_ escape
_ generic
_ like
_ maintype
_ oscillation
_ untrained
_ used
_C LOSED
_D GRAM
_D ICT
_S H
_SU SPENDED
_Special Form
_T OTAL_PARAMETERS
_UN I_IGNORE
__ contains__
__ enter__
__ loader__
__ package__
_b inary
_b ind
_break s
_c uda
_ch allenge
_cookies _lock
_d b
_db g
_default_ executor
_dict s
_ensure _fd_no_transport
_f f
_f ragment
_fd _to_key
_full _trace
_group _width
_head er_
_hook s
_in her
_m ime
_me mber_names_
_mock _methods
_n ative
_n eg
_official_model _probe
_or _filename
_p orcelain
_p ush
_parts _normcase
_path ological
_pending _calls
_pending _start_element
_pro jection
_re al
_re quires
_re store
_read _ready
_ref count
_res p
_return _value
_s ync
_serial ization
_shared _experts
_ssl copydoc
_status _porcelain
_t emp
_tra ces
_un finished_tasks
_untrained _official_model_probe
_w arning
_we akref
_zero s
a a
active _children
ad apt
ali ases
append Child
ar ators
ar sa
arsa w
at tach
ator y
b are
b er_
be led
c hes
caten ate
check point_
col lect
com mon
conf lict
config uration
ct al
d if
de cision
ded ent
def property
defaults __
disable _routed_expert
e v
edi a
entic ate
er _cache
f ort
f y
fi c
field names
fir med
generate_next_value _
git _status_porcelain
he s_
i ous
id_to _refcount
ident ifier
ifi ers
in ned
in tern
ir ror
ir t
irt ual
it er_
j ar
kw only
l legal
local _part
m erge
mat ic
matching _blocks
miss ion
n _layers
o ch
ob s
ocument ed
okup Error
opri mime
or outine
po ch
po ssibly
pon ent
position s
py c
quit ting
re mo
re pro
re set_
read lines
red ri
redri k
replacement _map
res olved
ri ver
ribut ions
ror __
runtime _checkable
s_ queue
sc hed
se ssion
sent inels
server _hostname
sh ards
show _caches
st _size
target path
te p
tern ative
test_model _official_architecture
text_ encoding
th rough
tra ck
ump y
unix from
ur b
with _segments
work _id
write _buffer_limits
x form
y m
zero _expert_output
|> ":
}) '
ĊĠĠĠĠĠĠĠĠĠĠĠĠĠĠĠĠĠĠĠĠĠĠĠĠĠĠĠĠĠĠĠĠĠĠĠĠ ĠĠĠĠĠĠĠĠĠĠĠ
Ġ 86
Ġ es
Ġ" ":
Ġ" (
Ġ" +
Ġ" ]
Ġ% #
Ġ' !
Ġ', ':
Ġ'? '
Ġ'{ }
Ġ+ =======+=======+
Ġ+=======+=======+ =======+
Ġ... ,
Ġ22 31
Ġ3 02
Ġ: -
ĠA ctions
ĠAppro val
ĠBar ry
ĠBdb Quit
ĠC ALL
ĠC la
ĠCon s
ĠCont act
ĠD ict
ĠDEFAULT_ ROUTING_HEALTH_THRESHOLDS
ĠE SMTP
ĠEX T
ĠExper t
ĠF TP
ĠFROZEN _TOTAL_PARAMETERS
ĠH EL
ĠImplement ation
ĠM U
ĠM agicMock
ĠM ax
ĠM emory
ĠO ptim
ĠOver flowError
ĠR ights
ĠRout er
ĠS _
ĠS elf
ĠS trip
ĠSRE_FLAG_ LOCALE
ĠSY MB
ĠSYMB OL
ĠSub classes
ĠText IOWrapper
ĠTraceback Exception
ĠUnicode Error
ĠW arsaw
Ġ[ -
Ġ_ HAVE_
Ġ_ Wait
Ġ_ indent
Ġ_ int
Ġ_ kwargs
Ġ_ local
Ġ_ loop
Ġ_ module
Ġ_ serialize
Ġ_ value
Ġ_G ive
Ġ_Give up
Ġ_Giveup On
Ġ_POSITIONAL_ ONLY
Ġ__ add__
Ġ_make _line
Ġ_s imple
Ġ_shutdown _locks
Ġ_type _check
Ġa ware
Ġadd infourl
Ġal ong
Ġal though
Ġali gn
Ġan n
Ġany where
Ġarg v
Ġas _ew_allowed
Ġb rowser
Ġc lock
Ġca file
Ġchar map
Ġchar ter
Ġchild pos
Ġclear ly
Ġcode cs
Ġcol width
Ġconfir m
Ġd n
Ġd ummy
Ġdef er
Ġdefault_ port
Ġdefinit ions
Ġdelib erate
Ġdetect _routing
Ġdi ction
Ġdiction aries
Ġdrop ped
Ġe lt
Ġed it
Ġencode _chunked
Ġequal ity
Ġex ceed
Ġex clusive
Ġexit priority
Ġexit s
Ġf act
Ġf src
Ġfirst _enum
Ġflat ten
Ġfloat ing
Ġfor get
Ġformul a
Ġget_ name
Ġgroup _list
Ġh int
Ġheader_ name
Ġimport ing
Ġin str
Ġintro s
Ġk ill
Ġl atter
Ġle ftover
Ġload _shares
Ġloc ator
Ġlocal _part
Ġm erg
Ġman ually
Ġmanifest _path
Ġme ta
Ġmember _type
Ġmut ex
Ġn _tokens
Ġn ic
Ġn ti
Ġnargs _pattern
Ġne ither
Ġnic er
Ġnum _blank
Ġo ctet
Ġoc currences
Ġoutput s
Ġparse _tree
Ġpart ies
Ġpart ition
Ġpi ckler
Ġpie ce
Ġpla us
Ġplace ment
Ġpre amble
Ġpre ference
Ġpre serve
Ġprece ding
Ġprevent s
Ġpri mit
Ġpro c
Ġpro ves
Ġproble ms
Ġre construct
Ġre duces
Ġreason able
Ġrecomm ended
Ġrelease s
Ġrepe tition
Ġreq _host
Ġresume _reading
Ġreturn _annotation
Ġreturn _value
Ġrigh ts
Ġroot _dir
Ġrout e
Ġrun _foundation_probe
Ġs io
Ġs k
Ġs urrogate
Ġsafe ly
Ġser ialize
Ġser ves
Ġserial izer
Ġserve _forever
Ġskip _bound_arg
Ġsource match
Ġstack slice
Ġstand alone
Ġstrict ly
Ġsuc ceeds
Ġsuccess or
Ġsy m
Ġt ables
Ġtak ing
Ġtext s
Ġthem onth
Ġtim ing
Ġtimeout s
Ġtop _level_dir
Ġtrack er
Ġv irtual
Ġver bosity
Ġverify _weight_tying
Ġwrite lines
Ġxml reader
" ^
% (
' ")
(" {!
(' ')
(' ',
(' [
() ``
({ '
) [:
) `.
)) ):
* (
- {
-------- +
00 8064516129032258
01 14
0123 456789
04 4
07 1
07 4
12 6
2 047
24 8
3 32
31 1
34 4
34 5
36 3
46 9
5 00
51 8
54 6
6 00
74 9
76 8
79 9
89 6
: ,
:// '
= ()):
="" )
="" ):
? "
? =
AC TER
AL SE
B REAK
B reakpoint
BUFFER _SIZE
C CESS
C lear
CH R
CO DE
Content Handler
DOCU MENT_
De coder
Dis connected
E scape
Execut e
Exp ired
F WS
FA ILED
Final ize
H ITES
HTTP Status
He alth
Health Th
HealthTh resholds
IG N
IP E_
Inter face
K TYPE
KEYWORD _ONLY
L ines
LU SH
Level Name
Log Record
M IME
M ark
M ode
ONL Y_
P urePath
Path Finder
Process ingInstruction
RES S_
ROL _B
ROL_B LOCK
Re ceive
Re cursive
Request Err
S O
S er
SI G_
STR ING_
Size Err
Sub set
T EXT_NODE
T s
Tar get
U M
UD P
UN D
Un expected
WA IT_
Warn s
Wh at
] +)
] \
_ ENDS
_ cte
_ gener
_ stdin
_ und
_ vocab
_ xml
_B ACK
_CHAR ACTER
_FIELD S
_M ORE
_S ET
_S NIPPETS
_SE CTION_NODE
_UN SET
_W INDO
__ call__
__ is
__ orig
__ parameters__
__ wrapped__
__get __
__set __
_across _variants
_ass ignment_count
_async gens
_at _pri
_at_pri mary
_at_primary _threshold
_b e
_block ed
_block ing
_c an
_c sock
_di vergence
_do ctype
_entity _ref
_ex ists
_exit ed
_f old
_f ree
_for ce
_g iven
_if _exists
_import lib
_le ak
_lo sses
_load _balance_loss_raw
_no escape
_ns_ stack
_option al
_p ost
_pro to
_qu otes
_quoted _string
_remo ved
_ro w
_routing _across_variants
_s urrogates
_sc hema
_se eded
_self _reading
_shared _expert_
_st rip
_sub type
_t emplate
_t he
_task s_per
_tasks_per _child
_test Method
_token _accuracy
_verbose _message
a e
an itize
ang ular
art uple
as ctime
at trib
atter ed
av a
b d
b ine
b num
bj ects
bu il
call_soon _threadsafe
can onic
ce l
ce ll
cess arily
co s
cod able
comp onent
comp uted
comple x
context_ sensitivity
crement al
d c
d ent
d iv
de pth
diag _a
dir ty
disable _shared_expert
ead ers
edir s
et adata
ex posed
experiment _id
f ety
f name
g auss
g zip
gethost byname
global _valid_token_count
hand led
he appop
header _bytes
healthy _shares
hemat ical
hes is
ierarchy RequestErr
ignore d
in _dict
in clusive
ind ices
input _charset
ins pection
is _set
is coroutine
ist ext
lay out
lis ions
local time
ma ybe
me mber_
mock _calls
month days
not ations
ns upported
o mb
ol lover
optim ize
option xform
or ical
or ld
ore lse
ot er
pa ired
pa x
param _name
pass word
path s
peak _vram_bytes
per mitted
pers istent
plit ResultBase
po ol
prefix _chars
put header
q r
qu are
qual name
ra c
re ates
re cords
re cursive
re fs
re name
re sent
redential s
reduce _ex__
router_z_loss _raw
s leep
s oft
s upport
s_ to
sect name
send _bytes
send to
sequence _curriculum_state
sparse _model
st ale
st er
subclass check__
suite Class
t ector
t m
test _case
tin uation
top _level
trace ability
tri es
un ge
unt_ diff
v ance
v artuple
x b
y es
ynchron ized
| "
ĊĊ ĠĠ
Ġ 61
Ġ 80
ĠĠĠĠĠĠĠĠĠĠĠĠĠĠĠĠ ĠĠĠĠĠ
Ġ" ",
Ġ" $
Ġ" :
Ġ" ="
Ġ# ################################
Ġ& =
Ġ'; ':
Ġ+ -------+-------+
Ġ+-------+-------+ -------+
Ġ// =
Ġ2 616
Ġ200 6
Ġ================= ====
ĠA nd
ĠABC s
ĠAP PEND
ĠB E
ĠB INGET
ĠB LOCKSIZE
ĠB ack
ĠB arrier
ĠBIN INT
ĠC ANCELLED_AND_NOTIFIED
ĠC O_
ĠC lean
ĠCalled ProcessError
ĠChar ter
ĠComp uted
ĠCon vert
ĠCookie Error
ĠCurrent ly
ĠD ec
ĠD rop
ĠDe termine
ĠEVENT_ READ
ĠExample s
ĠF ast
ĠF oldedCase
ĠF ormat
ĠF ormatter
ĠFI FO
ĠFRO M
ĠFile Handler
ĠGener ate
ĠIn clude
ĠK lass
ĠL abs
ĠM ust
ĠM y
ĠN ever
ĠNe eded
ĠNonCallable Mock
ĠO rderedDict
ĠP H
ĠP ure
ĠPre vent
ĠPro be
ĠR UN
ĠRE G
ĠRes ult
ĠS ec
ĠS plit
ĠS upport
ĠSH OW
ĠSec ret
ĠShared Memory
ĠSim ulate
ĠStack Summary
ĠStat istic
ĠT E
ĠT ime
ĠTimeout Expired
ĠU sing
ĠUni que
ĠV RAM
ĠW A
ĠWA IT_
ĠWith out
Ġ_ all
Ġ_ e
Ġ_ escape
Ġ_ extract
Ġ_ ms
Ġ_ operator
Ġ_ parser
Ġ_ pickle
Ġ_ pre
Ġ_ raise
Ġ_ run
Ġ_ sc
Ġ_ str
Ġ_ ws
Ġ_get_ signature
Ġ_is _instance
Ġ_is_instance _mock
Ġ_ms windows
Ġ` [
Ġag ent
Ġag greg
Ġag ree
Ġal gorithms
Ġangle _addr
Ġany more
Ġatom ic
Ġboot strap
Ġbuil ds
Ġc losure
Ġcapt ured
Ġch rome
Ġcheck sum
Ġchild _parts
Ġco _consts
Ġcode _mock
Ġcomp iler
Ġcompare s
Ġcon v
Ġcontain ed
Ġcontext vars
Ġcopy _function
Ġcorrespon ds
Ġcur Node
Ġd ialect
Ġdead line
Ġdefault_ factory
Ġdescription s
Ġdiag _opt
Ġdict _factory
Ġdif fs
Ġdisc arded
Ġdisp _header
Ġe of
Ġe poch
Ġe poll
Ġembedding s
Ġen coder
Ġend _lineno
Ġerror _case
Ġexist ed
Ġexpected _pid
Ġf acility
Ġfa ir
Ġfet ched
Ġfile mode
Ġfol d
Ġformat _spec
Ġformatter _class
Ġftp lib
Ġfull _trace
Ġget_ context
Ġget_ logger
Ġget_ origin
Ġh ints
Ġh ref
Ġhel ps
Ġident ified
Ġin _dict
Ġin compatible
Ġin_table _c
Ġinf rastructure
Ġinput _charset
Ġinvariant s
Ġis coroutinefunction
Ġiter ables
Ġkey _type
Ġkwonly args
Ġl m
Ġlast _ew
Ġline starts
Ġliter als
Ġload _balance_loss
Ġload er_state
Ġload s
Ġlook ed
Ġm orsel
Ġmailbox _list
Ġmanage ment
Ġmatch _args
Ġmax _line_length
Ġmax _width
Ġmedi atype
Ġmis ses
Ġmut able
Ġnew _attrs
Ġnew _callable
Ġnumeric _owner
Ġob solete
Ġof ten
Ġoverr iding
Ġown ed
Ġp aused
Ġp h
Ġp ol
Ġp open
Ġp ract
Ġp ull
Ġparent Node
Ġpath ology
Ġpot ential
Ġpre serv
Ġpreserv es
Ġpro se
Ġproxy _bypass
Ġpub id
Ġquest ion
Ġquote _via
Ġr type
Ġre entrant
Ġre quiring
Ġre quote
Ġre used
Ġredu ced
Ġref lect
Ġremote _addr
Ġrepl _future
Ġrespect ively
Ġresume _writing
Ġreuse _port
Ġro bot
Ġrouted _experts
Ġrun _cfg
Ġs info
Ġsched ule
Ġsee ms
Ġsign als
Ġsome times
Ġsource _path
Ġstrong ly
Ġsuc ceed
Ġsupp ly
Ġsynchron ization
Ġt str
Ġto do
Ġun quoted
Ġund ocumented
Ġuni fied
Ġunsafe _hash
Ġvisit ed
Ġw akeup
Ġway s
Ġwe ighted
Ġ{} ,
" <
" `
") ):
"} ,
#! /
#### ##
') ]
', )
'[ \
'] .
( <
(': ',
* '
******************************** ********************************
01 15
02 8
05 2
05 4
06 5
07 3
1 09
1 77
14 8
2 86
21 7
23 7
25 7
26 5
27 4
30 64
34 1
50 4
50 6
54 5
67 8
76 9
88 6
99 7
=' ')
A IN
AD DR
Address Header
Ap p
Ar chitecture
BAD F
BIN PUT
C ANCELLED
C S
CES S_D
COD ING
CODE_ SUFFIXES
COMP LETED
CONT ENT_
Ch ainMap
Col or
Col umn
Column Number
Con sole
Config Parser
D ENSE_
D OC
Data Handler
E mbedding
E xt
EMPTY STRING
EN CE
ERG ES
Error Handler
F ILTER
F INIT
F LO
F ast
F ull
FINIT E
File Handler
H ierarchyRequestErr
HE CK
IP V
IZ E_
K E_
LE AN
LUSH ING
Line Number
Loc al
M AGIC
Message Defect
N A
N ONE
Named Pipe
NotAvailable Error
O bsoleteHeaderDefect
O rderedDict
OR _MORE
Over ride
P ATCH
P OL
R AME
R MSNorm
R ational
R ollover
RE Q
REQU EST_
RESS_ LEVEL
Runtime Error
S O_RE
S yntaxError
SH OW
ST EM
Sc ript
Selector EventLoop
Simple Queue
Std out
Su c
Suc cesses
TE CODE_SUFFIXES
TE MPL
TOKEN IZER_ID
Tra ce
U CE
U SER
U sed
VI EW
[ {
\ .
] [:
_ LENGTH
_ LIST
_ actual
_ annotations
_ attention_mask
_ ctype
_ encoded
_ enter
_ extract
_ operator
_ update
_ view
_ z
_C lient
_F ILTER
_G LOBAL
_G LOBAL_DEFAULT_TIMEOUT
_QU OT
__ step
__ version__
__set item__
_addr s
_at _fork_reinit
_back log
_c ert_
_c m
_can onical
_check point_
_check sum
_code c
_col lapse
_comp uted
_con vert
_connected _cb
_context_ sensitivity
_current_ indent
_d if
_def s
_e arly
_elem _info
_ent ry
_exp licit
_expert_ pair_coactivation
_expert_gradient _norms
_ext fileobj
_f string
_ff ns
_first lineno
_for ms
_force _close
_g n
_header _words
_i o
_info s
_inter preter
_is _stopped
_k nown
_l arge
_lay out
_le x
_limbo _lock
_logit_abs_ mean
_ma gic
_me mbers
_mime _parameters
_mock _parent
_module _sh
_mutually_exclusive _groups
_n frame
_origin _track
_origin_track ing
_p arens
_pipe _fds
_projection _std
_r ss
_re pro
_read able
_repr _
_return code
_router _s
_router_s aturation
_rss _bytes
_s a
_s ample
_s pace
_set up
_show warning
_sign als
_ssl _socket
_su ccess
_t pl
_to _stderr
_write_ready _fut
a emon
ab ilities
addr _spec
al idate
al so
app lic
app lication
applic able
appro ved
ar ange
ar mon
ar ound
ar sh
armon ic
at _fork_reinit
at ext
attention _norm
b bc
b ing
b l
b lake
bp list
c ss
cache _clear
called _once
ch r
cipient s
cod ers
col _offset
comp type
cur se
d isp
d lr
d up
de li
de terminism
do ctest
drop less
e ffect
e ven
ed Parser
eg g
ent r
epi logue
er minate
esmtp _features
exc _details
exec _module
extra _info
f stat
format __
function al
g ain
g amma
g er_
g es
g round
get line
get reply
get sockname
get_ flags
get_ ident
global trace
gradient _checkpointing
he lo
hel lo
http_error _default
iet f
igin t_handler
ild card
ile s
in stream
is file
k _norms
l er_state
l us
le g
lic ated
lo ordiv
lo pen
load TestsFrom
m icro
ma c
ma ch
mbo x
mbol s
md ir
me try
memo ize
missing __
n _list
notes __
now ait
o ssible
ob e
object _hook
object _pairs_hook
om y
on gs
optim ization
ounded Semaphore
over write
p ended
p urpose
par ametr
pax _headers
pro b
profi ling
py file
python _version
qr t_
re ated
re cognized
re duction
read into
real m
recv from
remain der
remove Child
return _trace
ri an
root _dir
s _divergence
s_ count
s_ grad
s_ id
s_ like
s_ route
select ed
sen ce
sh ard
sh util
show warning
source _traceback
specifi ed
split ext
start ed
tac ls
temp t
test_model_moe _diagnostics
th ree
the year
un parse
un seen
ur ator
ur lopen
use _amp
uton omy
venience _vari
ver ification
w atcher
w iglu
x or__
} -\
}) })
Ċ ĊĠĠĠĠĠĠĠĠ
ĠĠĠĠĠĠĠĠĠĠĠĠĠĠĠĠ ĠĠĠĠĠĠĠĠĠ
ĠĠĠĠĠĠĠĠĠĠĠĠĠĠĠĠĠĠĠĠĠĠĠĠĠĠĠĠĠĠĠĠ Ġ
Ġ" @
Ġ' ..
Ġ'< {}
Ġ( \
Ġ(' #
Ġ** `
Ġ2 8
Ġ200 2
Ġ200 3
Ġ21 09
ĠAUTH OR
ĠAd ded
ĠAv oid
ĠB reak
ĠC R
ĠC lient
ĠCol or
ĠComp ression
ĠD ATA
ĠD IS
ĠD O
ĠDo es
ĠE ntity
ĠExecut ion
ĠExtract Error
ĠF IR
ĠF IX
ĠF in
ĠFIX ME
ĠG e
ĠH MAC
ĠH ost
ĠIND IRECT
ĠIO Base
ĠInt Enum
ĠInter active
ĠInvalid HeaderError
ĠJ ava
ĠJ ust
ĠK E
ĠL imit
ĠL ine
ĠM RO
ĠM ost
ĠN EG
ĠN orm
ĠNe gative
ĠNorm ally
ĠO CT
ĠO ud
ĠO ut
ĠOud k
ĠOudk er
ĠOudker k
ĠOver ride
ĠP ER
ĠP ackage
ĠPermiss ion
ĠProcess PoolExecutor
ĠQ U
ĠR ed
ĠRES ER
ĠRESER VED_CONTROL
ĠS a
ĠS pecifi
ĠSAX Not
ĠSAXNot Re
ĠSAXNotRe cognized
ĠSAXNotRecognized Exception
ĠS_ IS
ĠSet ting
ĠT ER
ĠTra ce
ĠTra ining
ĠU sage
ĠURL opener
ĠUn pickler
ĠW ays
ĠW ork
ĠW orld
ĠWH AT
Ġ_ Assert
Ġ_ Iteration
Ġ_ USE_
Ġ_ a
Ġ_ child
Ġ_ default_
Ġ_ frozen
Ġ_ ignore
Ġ_ posix
Ġ_ start_
Ġ_ tuple
Ġ_Iteration Guard
Ġ_VAR _POSITIONAL
Ġ__ gt__
Ġ__ i
Ġ__ le__
Ġ__ ror__
Ġ__a enter__
Ġ_active _limbo_lock
Ġ_dis assemble
Ġ_get_ code
Ġ_reduce _method
Ġ_signature _from
Ġa i
Ġad jacent
Ġag en
Ġal ter
Ġalloc ated
Ġallow _nan
Ġar ithmetic
Ġare a
Ġas list
Ġas semble
Ġass uming
Ġassume s
Ġattemp ting
Ġattr _list
Ġb as
Ġb j
Ġblank s
Ġbound aries
Ġc ach
Ġc ast
Ġc ra
Ġc run
Ġc sock
Ġc ss
Ġcach ing
Ġcalcul ate
Ġch o
Ġchild _w
Ġcl s_name
Ġcnt_ t
Ġcomp liant
Ġcomplete ly
Ġcons ists
Ġcontrol led
Ġconver ter
Ġcopi er
Ġcor relation
Ġcrun ch
Ġcrunch er
Ġcur sect
Ġd urations
Ġdata _received
Ġde sign
Ġdeci de
Ġdefault dict
Ġdest _path
Ġdetect _router_saturation
Ġdiff ers
Ġdistribut ed
Ġdo _
Ġdo min
Ġdri ver
Ġeffici ently
Ġencoding s
Ġerror _callback
Ġestab lished
Ġexerc ised
Ġexpect s
Ġexpert_ replacement_map
Ġf ine
Ġf lavour
Ġf requency
Ġfix _imports
Ġfl ushed
Ġfree ze
Ġfrom lines
Ġg c
Ġg rant
Ġhappen ed
Ġhead ing
Ġignor able
Ġignor ing
Ġin jection
Ġincorrect ly
Ġintention ally
Ġinter fa
Ġinter rupted
Ġinter vals
Ġinterfa ces
Ġinterpre tation
Ġintros pection
Ġis _dir
Ġis class
Ġis function
Ġis junk
Ġj oining
Ġl addr
Ġl ate
Ġl num
Ġlast _values
Ġle gal
Ġlength s
Ġlookup _lines
Ġlower case
Ġm s
Ġma gnitude
Ġma xtasksperchild
Ġmand atory
Ġmask ing
Ġmax _depth
Ġmax _workers
Ġmax split
Ġmime _parameters
Ġn _lines
Ġn ar
Ġnew _arg
Ġnew count
Ġno body
Ġnode Value
Ġnon zero
Ġoc currence
Ġol dest
Ġorigin ally
Ġother _count
Ġout _a
Ġover flow
Ġp list
Ġp text
Ġparse _constant
Ġpath _str
Ġper iod
Ġper man
Ġpkg dir
Ġpow er
Ġpri mary
Ġpri vate
Ġprog ra
Ġprogra ms
Ġqual ifiedName
Ġr anges
Ġre tained
Ġre tr
Ġread _bytes
Ġread _long
Ġref ers
Ġrespon s
Ġro unded
Ġrot ate
Ġs anity
Ġs ay
Ġsh ard
Ġshared _out
Ġshort _empty_elements
Ġshow s
Ġsli ght
Ġslight ly
Ġso on
Ġspec _from
Ġst able
Ġst s
Ġstop ped
Ġsub elements
Ġsub script
Ġsum s
Ġsuper se
Ġsynchron ous
Ġsyntact ic
Ġt y
Ġtest _dense
Ġtok num
Ġtra cing
Ġtrack ing
Ġtrans lation
Ġtrunc ated
Ġtype _
Ġun defined
Ġunders core
Ġus ers
Ġus ual
Ġuse _args
Ġut ility
Ġwor th
Ġyiel ded
Ġyiel ding
' ",
' ',
' T
( ["
(' )
([ ^
) !
) +
) \
). '
): ]
* :
+ $
---- ---
. *
... )
0 85
00 25
00 31
01 06
01 31
016 129032258064
03 8
096774 193548387
1 100
1 39
16 5
2 23
2 25
20 6
23 0
27 1
27 5
3 09
3 37
30 7
34 8
39 1
39 5
48 7
5 05
5 39
51 7
56 3
64 2
67 2
6774193548387 1
7 25
74 6
76 2
8 09
99 4
> ")
> '.
A d
ABC DEF
AG EN
AN Y
ANG E
AR SER
AS ES
Async ContextManager
Auth entication
B INGET
BIN INT
BU ILD
Barrier Error
Bu ild
Bu iltin
CDATA _SECTION_NODE
CGI Handler
CO ST
D IR
D TD
D UP
Def rag
E CT_
E MS
E REN
EN SE
ER IC
En ter
Exception s
Exit Stack
F LUSHING
F TP
F irst
F lags
F rame
FO UND
Found ation
Foundation Probe
G E
H arness
H ost
IL ITY
IT EMS
IT Y_
ITER AL_
ITY _CLASS
Index SizeErr
LE MENT
LI MIT
LINE BREAK
LOC _IGNORE
Lo gs
Loc ator
M agic
M ain
M gr
Mutable Mapping
N N
N um
OBJ ECT_
OD Y
OR ITY_CLASS
P O
P db
PACK _FORMAT
PACK_FORMAT S
PRE FIX
Pass word
Password Mgr
Pri vate
Q A
Q R
Q oS
RI ORITY_CLASS
S pace
SOCK _DGRAM
ST DOUT
Strict Model
T here
TCP Server
TR UE
Text IOWrapper
Trans form
U nsupported
VID IA
W NOHANG
WS GI
Y N
[ %
] ].
_ ALLOW
_ Instruction
_ ad
_ enabled
_AC TI
_B OUNDARY
_B Y
_CHARACTER _J
_CHARACTER_J UNK
_D IG
_DE PREC
_RE JECT
_RE PEAT
_S END
_S IZE_
_T IMEOUT
__ metadata
__ notes__
__metadata __
__unittest _skip
_a v
_ab ort
_abs _diff
_ac quire
_accept _pipe
_auth enticated
_by _layer
_c mp
_call _matcher
_ch g
_code s
_col no
_current_ context
_d ifferent
_d ominant_
_de legate
_de limit
_declar ation
_dist ance
_drop ping
_e ager
_ep och
_event _loop
_ex pression
_exact _match
_execut able
_file obj
_fill _used
_from _name
_get_ loop
_golden _moe
_handshake _on
_handshake_on _connect
_hel pers
_high _water
_in _try
_in coming
_in_try _star
_is _protocol
_j s_divergence
_j ump
_low _water
_m atc
_m onth
_matc hes_
_mock _delegate
_mock _return_value
_mock_new _name
_module_sh im
_normalized _entropy
_num bers
_or _string
_output _projection_std
_p ause
_pi ckle
_pos ix
_py c
_r andbelow
_r h
_reading _paused
_remove _writer
_s moke
_s ome
_s ort
_s qrt_
_sa ved
_se maphore
_se ssion
_set_ state
_sh arer
_socket s
_softmax _dtype
_ss ock
_std _string
_str _normcase
_sy stem
_un link
_unpack ed
_until _complete
_up dated
_user _data_handler
_v isit
_valid _tokens
_w arn
_w fd
_writing _paused
ac OS
adapt ive
ak es
al ine
all _defects
as _dict
at _self
attr name
auth orization
b and
body _encode
c python
c ritical
c u
case s
ch anges
ch own
child _r
co _firstlineno
col group
comment list
comp arators
comple ted
compress level
cond itional
cond name
create _connection
cuda _available
curframe _locals
de corator
der ived
device _type
ding _window
dir __
dis position
el ts
element Stack
end _offset
er_ handler
etloc ResultMixin
ex ml
exp licit
expand tabs
experiment _script
expert_ ids
fix ed
format _exception
fort un
frame s
frozen set
g mt
get addrinfo
get_ param
get_content _maintype
get_content _type
h arness
h ens
handle _list
id_to _obj
ij k
ik i
im ap
in ay
initial _scaling
inter act
is _available
is ascii
is hes
ist ers
it al
ite Space
item _separator
iz able
j ip
keep ends
kip edia
kw s
l b
led ge
lib rary
lisions _skipped
m ult
mark object
meta _path
method s
n ative
ne ed
ne g
not ation
not her
o _proj
o ctet
o od
oll Selector
on ce
op ro
open s
p h
pa use
pack ing
parameter _count
part y
peci als
process _rawq
prog name
py cache
r ng_state
r ts
rad d
re pository
re store
reed y
register_ eager_task
request _version
require _parens
s View
s hell
s oftmax
s_ only
s_ or
sc andir
send _header
set Up
set timeout
set_ handlers
sh ifted
shared _memory
sin ce
socket pair
st _mtime
start ing
sy mlink
t im
tar get_
tary _fraction
term ines
termin ator
tern atives
th an
to _bytes
type code_or_type
und ant
uniform _router
ur andom
user name
uto ff
ver age
w iki
warnmsg _impl
we b
wi kipedia
y e
ynam ically
} ({
} >'
}) ")
ĊĠĠĠĠĠĠĠĠĠĠĠĠĠĠĠĠĠĠĠĠĠĠĠĠĠĠĠĠĠĠĠĠĠĠĠĠ ĠĠĠĠĠĠĠĠĠ
Ġ --------
ĠĠĠĠĠĠĠĠĠĠĠĠĠĠĠĠ ĠĠĠĠĠĠĠ
Ġ"* "
Ġ' ()'
Ġ' **
Ġ' ['
Ġ'+ '
Ġ'/ ':
Ġ( ``
Ġ(? :
Ġ199 9
Ġ2 000
Ġ3 7
Ġ5 00
Ġ7 8
ĠA ttribute
ĠAF _UNIX
ĠAb sent
ĠArgument Parser
ĠBabyl Message
ĠCh ainMap
ĠChild ProcessError
ĠCom ment
ĠComple x
ĠCompression Error
ĠCon firmed
ĠD OT
ĠD esc
ĠDefault s
ĠE mit
ĠEMPTY _DICT
ĠEx ecutor
ĠFIR ST_
ĠFrame Summary
ĠFrom _
ĠFrozen ValueMismatch
ĠG ROUPREF
ĠG iven
ĠH eaders
ĠHTTP S
ĠI AC
ĠIMP LI
ĠIN ST
ĠIn stances
ĠK nown
ĠKey word
ĠL F
ĠM agic
ĠMaildir Message
ĠO TH
ĠO UT
ĠO ri
ĠOCT DIGITS
ĠOTH ER
ĠPo ssible
ĠPro file
ĠPro ject
ĠR ED
ĠR andom
ĠRe ceive
ĠRouting HealthThresholds
ĠS CRIPT_NAME
ĠS TR
ĠSH ALL
ĠSIG CHLD
ĠST RI
ĠSTRI D
ĠSa jip
ĠStart ing
ĠStat s
ĠStream Handler
ĠT elnet
ĠT im
ĠT yp
ĠTER MINATE
ĠTask Group
ĠThread ing
ĠTrans fer
ĠU p
ĠUT C
ĠUn known
ĠV er
ĠV ersion
ĠWARN ING
ĠWh ile
Ġ[ ''
Ġ[ `
Ġ\ \
Ġ_ Base
Ġ_ KEYWORD_ONLY
Ġ_ bytes
Ġ_ exp
Ġ_ iter_
Ġ_ l
Ġ_ main_thread
Ġ_ multiprocessing
Ġ_ rand
Ġ_ seen
Ġ_Un ix
Ġ__ ge__
Ġ__ init_subclass__
Ġ__ radd
Ġ_after _fork
Ġ_current_ process
Ġ_path _join
Ġ_safe _print
Ġ_split port
Ġa logger
Ġal t
Ġapplic able
Ġassemble _full_trace
Ġassert ed
Ġb anner
Ġb db
Ġbeg idx
Ġbest j
Ġbest size
Ġbuil ding
Ġc ame
Ġc atalog
Ġc q
Ġcallable s
Ġcapture _locals
Ġcase fold
Ġchunk ed
Ġco _positions
Ġco oked
Ġcol lapse
Ġcommuni cation
Ġcompute _load_balance_loss_raw
Ġcon tr
Ġconcaten ation
Ġconfir med
Ġconst ra
Ġconstruct s
Ġcont iguous
Ġcontent _manager
Ġcopy reg
Ġcover age
Ġcover ed
Ġcte _header
Ġcurrent_ process
Ġcurrent_ thread
Ġcustom ize
Ġd at
Ġd d
Ġd p
Ġd ynamic
Ġde crement
Ġdebug _log
Ġdecode _long
Ġdefault_ namespace
Ġdefer red
Ġdetect _dominant_
Ġdetect_dominant_ experts
Ġdetector s
Ġdir _fd
Ġdisable _existing
Ġdistingu ish
Ġdomain _specified
Ġdot ted
Ġdra in
Ġe ager
Ġe qu
Ġelement s_
Ġelements_ added
Ġelse where
Ġen for
Ġeof _received
Ġerr _close
Ġerr _msg
Ġerr_close _fds
Ġex ceeded
Ġex ceeds
Ġexc _tb
Ġexc _traceback
Ġexecut es
Ġfin ds
Ġfirst weekday
Ġflat _x
Ġform al
Ġformat _helpers
Ġfull url
Ġg cd
Ġg ra
Ġget ting
Ġget url
Ġget_ args
Ġget_ content
Ġget_ event_loop_policy
Ġget_ source
Ġgit _commit
Ġglob s
Ġgrant ed
Ġgu ard
Ġguarante e
Ġh its
Ġh our
Ġh r
Ġhas hed
Ġhash ing
Ġheader _bytes
Ġheap push
Ġi r
Ġin sensitive
Ġindent s
Ġintr aline
Ġinv ok
Ġis _type
Ġknow s
Ġl inenum
Ġla mb
Ġla zy
Ġlamb d
Ġle ft_
Ġlet ter
Ġlib r
Ġlibr aries
Ġlm _loss
Ġload _balance_raw
Ġload _module
Ġload ers
Ġlocal edir
Ġlog it
Ġm arsh
Ġm box
Ġm im
Ġme mber_name
Ġmerg ed
Ġmon it
Ġmp _context
Ġn _sequences
Ġn ative
Ġn m
Ġnar row
Ġne cessarily
Ġnew _args
Ġnode Type
Ġnot ified
Ġo pa
Ġob s_route
Ġob served
Ġoff set_
Ġopa que
Ġopen ing
Ġoper ating
Ġoperator _precedence
Ġout _path
Ġparent_ map
Ġparse _float
Ġper haps
Ġphase s
Ġplaus ible
Ġpo sonly
Ġpre sence
Ġpro ceed
Ġpro mp
Ġpro p
Ġpro tected
Ġpseudo _member
Ġqu ant
Ġquote char
Ġr and
Ġre ap
Ġre cogn
Ġread_ unicodestring
Ġregener ate
Ġregener ated
Ġreli able
Ġrep orth
Ġreporth ook
Ġrepr lib
Ġrepro duce
Ġreq _port
Ġresult_ item
Ġretr len
Ġrigh t_
Ġrobot s
Ġrouter_ z_raw
Ġs q
Ġsamp ler
Ġsec re
Ġsepar ating
Ġserial ization
Ġsh lex
Ġsk ips
Ġstart_ serving
Ġstop ping
Ġstor ing
Ġsub cla
Ġsubcla ssed
Ġsyn c
Ġsyn ch
Ġta gs
Ġtask _done
Ġtermin ates
Ġto lines
Ġtop ics
Ġtuple _factory
Ġun filtered
Ġun finished
Ġun structured
Ġunne cessary
Ġupdate _wrapper
Ġurl type
Ġuse _amp
Ġuse gmt
Ġvalid ates
Ġw ant_
Ġwait _handle
Ġwait time
Ġwant_ encoding
Ġwas n
Ġwild c
Ġwildc ards
Ġwith year
Ġwrong _name
Ġx _mutated
Ġyear s
Ġ{ (
Ġ{ **
! )
"" )
"] :
(' #
(' ;
('@ ')
() [:-
) -
) >'
) [-
) ``
)} "
* ')
+ ')
, -
/ {
00 10
00 69
034 2
05 5
1 37
14 1
14 9
15 5
15 7
2 19
20 8
21 1
23 9
24 7
25 4
29 4
29 7
3 25
3 88
34 9
36 5
36 6
39 2
39 4
46 3
48 5
5 32
5 322
5 85
54 7
57 8
61 1
61 8
64 5
79 8
8 19
8 80
84 6
88 9
9 555
99 5
: ",
> ",
? :
A nd
AD D
ANDSHA KE
ANON ICAL
AP PRO
AT ED_
Ac cum
Accum ulator
Ap pend
Attribute List
B LOCKSIZE
B roken
Basic AuthHandler
Buffered IOBase
C lient
C oroutine
CHAR SET
CT OR
Char s
Class Or
ClassOr Module
ClassOrModule Level
ClassOrModuleLevel Exception
Code Type
Comp ile
Completed Wait
CompletedWait er
D D
D ec
D irectory
Default EventLoopPolicy
Di gest
Do main
E llipsis
EL AY
EN OT
ENT ITY
ES C
Error s
FA CTOR
FILE NAME
FILE _FLAG_
FLO AT
Fe b
File Error
Future s
G zipFile
H OST
H andlers
HTTP Exception
Handler Class
I MP
IG IN
IND ER
IP v
IZ ED
Include Error
K NOWN
K ind
LE G
LI B
LIN K
LOAD ING
M ax
M ay
M ultiple
MA INDER
Method Type
NO DE_
NOT SET
Named Tuple
Not e
NotSupported Exception
O VE_
O p
OC P
OR IGIN
ORT EST
P OST
P TH
P ublic
PE AT_
PRO CESSING_INSTRU
Par amSpec
R U
R ot
RAN CH
REF EREN
REG TYPE
Raw DescriptionHelpFormatter
Raw IOBase
Reg ex
Reg istry
Rep lacement
Reset Error
Response Exception
Result Bytes
S END
S UPPRESS
S plit
S tep
SH ORT_
SI D
SU B
Sendfile NotAvailableError
Server Disconnected
Set s
Sh ort
Start ElementHandler
T LS
TE ST
TH READ
TestCase s
U sage
UT C
V NULL
Value Dictionary
W HITES
W _ONLY
Wh itespace
Y E
[... ]
_ A
_ AS
_ AUTH
_ Base
_ ID
_ KEY
_ compile
_ generate_next_value_
_ later
_ lazy
_ owned
_ quick
_ settings
_AC CEPT
_C OM
_C all
_DE PTH
_P ENDING
_P IPE
_QUOT ES
_T OP
_W RITE
__ a
__ auth
__ lt__
__ map
__ response
__ state
__auth or__
_accum ulation
_accumulation _steps
_actual _context
_as dict
_b road
_b uff
_bu ilder
_byte code
_c gi
_col lections_abc
_control _char
_d angling
_d irectory
_data _manager
_date time
_default_ context
_device _name
_dis covery
_dist ributions
_ex ist
_f ound
_f rac
_fin der
_fin ished
_fragment s
_frames _removed
_g ates
_g u
_h and
_h drs
_h idden
_ignore d
_initial ized
_length s
_local e
_m map
_mailbox es
_me trics
_message _hook
_mock_new _parent
_module s
_non finite
_num ber_
_off set_
_or _initializer
_or _tuple
_p lus
_pause _protocol
_pipe _transport
_pre load
_pro cesses
_q names
_r lock
_re cord
_re cursive
_re duction
_ready _nodes
_router_logit s_and
_s lice
_s oft
_s upport
_sample s
_self _pipe
_self_reading _future
_set ter
_sh ards
_sock _sendfile
_soft cap
_special _id
_sqrt_ of
_sqrt_of _frac
_t earDown
_testMethod Name
_topk _change_rate
_un redirected
_unredirected _header
_w as
_w lock
_with _frames_removed
_with _iocp
` ](../../
a ven
abstractmethod __
ac cess
ac seq
ad ow
add _header
addr s
al ed
al le
alt sep
always_ active
am ing
and __
ar s
ass ign
ation _type
auto cast
await _count
await ed
b aseline
b count
bbc b
bc c
bin ary
bit _length
block size
body _encoding
bs p
c er
c ert_
ca pt
call _count
cent ry
ch ange
char acters
close _connection
co _positions
comp arison
compat ibility
component s
con t
condition ally
current ly
d ig
d urations
default_ entry
depend ency
document Element
e ach
e b
en ess
en gineering
ensure _running
ent ially
ent ries
ertific ates
et ri
ext ensions
f alse
f sen
fc n_list
fer r
first Event
fix _imports
flag list
fsen code
g m
he m
hib ited
ho le
i acseq
i el
ident ical
igh andler
il la
im ately
imer Handle
in structions
inher itable
input _dim
is _dir
is _valid
iss ym
iz ations
j o
j ob
l stat
la unch
last _exc
le ading
level s
ll name
local trace
look behind
max _abs_
me taclass
medi an
members __
mit s
mod __
month name
month s
n _shared_experts
n an
n bsp
new _arg
o unt
off set_data
oll ar
open _
ort em
osix Path
out _dir
output _checksum
output _dim
over lap
p ment
p unctuation
parametr ize
parsed ate
pe ated
peci ally
pending _work_items
pi ck
pop _mark
pre amble
print_ exc
print_ stack
py project
q _proj
q dn
r Enum
r mdir
r ms
ra ceback
re me
re tri
real path
ren ormal
river _version
rp c
ry pt
s mtp
s_ line
save _reduce
sc end
scal er
send all
set_ identity
shutdown _request
sock type
sort _arg
sort _keys
source _address
source lines
sparse _cfg
state _dict
surrogate pass
t ions
t ters
tain s
te l
teg er_
temp cache
text_ mode
text_ signature__
to o
tr uediv
tra ces
un modified
un structured
unt u
url _scheme
us er_
us hes
v able
valid ated
ver bosity
ver ted
w ill
wakeup _fd
wr ong
write _text
x FFFF
z illa
ĠĠĠĠĠĠĠĠĠĠĠĠĠĠĠĠ ĠĠĠĠĠĠ
ĠĠĠĠĠĠĠĠĠĠĠĠĠĠĠĠĠĠĠĠĠĠĠĠĠĠĠĠĠĠĠĠ ĠĠĠĠ
Ġ" >"
Ġ" }
Ġ"< "
Ġ################################# ################
Ġ' =
Ġ'* ':
Ġ( [
Ġ+-------- ---+
Ġ/ )
Ġ2 6
Ġ256 0
Ġ3 68
Ġ368 64
Ġ4 9
Ġ6 2
Ġ= ?
ĠA RI
ĠARI SING
ĠAl ternatives
ĠApp ProtocolState
ĠAt tr
ĠB ASE
ĠB AW
ĠB PE
ĠBU ILD
ĠC OM
ĠC S
ĠC ase
ĠCATEGORY_ NOT_
ĠCH AR
ĠCons ider
ĠD uplicate
ĠDe lay
ĠDec ision
ĠE VENT
ĠE quivalent
ĠEVENT_ WRITE
ĠEntry Point
ĠEx ternal
ĠF IT
ĠF ree
ĠFILTER _REJECT
ĠFIT N
ĠFITN ESS
ĠForward Ref
ĠG QA
ĠGNUTYPE_ LONG
ĠH igh
ĠI ns
ĠIMPLI ED
ĠIN CLUD
ĠINCLUD ING
ĠIS O
ĠIn c
ĠJ oin
ĠJSON Encoder
ĠK V
ĠL EN
ĠL ink
ĠLI ABLE
ĠLog Context
ĠM ER
ĠM MDF
ĠM ailbox
ĠM anager
ĠMAX REPEAT
ĠMER CH
ĠMERCH ANT
ĠMH Message
ĠMU ST
ĠMo ve
ĠN EW
ĠN UL
ĠName Error
ĠP EM
ĠP ENDING
ĠP adding
ĠP lease
ĠP ut
ĠParse Escape
ĠRe member
ĠRe quire
ĠReg ister
ĠRep ort
ĠRequest HandlerClass
ĠS ET
ĠS emLock
ĠS emaphore
ĠS pawn
ĠS trict
ĠSAX NotSupportedException
ĠSMTP ServerDisconnected
ĠSRE_FLAG_ UNICODE
ĠST AR
ĠSe ver
ĠStat us
ĠT erminal
ĠTest Suite
ĠTh us
ĠThread PoolExecutor
ĠTinyOverfit Config
ĠType Alias
ĠTypeVar Tuple
ĠU P
ĠU S
ĠUnicode DecodeError
ĠV alid
ĠV inay
Ġ_ AS
Ġ_ B
Ġ_ ModuleLock
Ġ_ UNKNOWN
Ġ_ at_fork_reinit
Ġ_ cleanup
Ġ_ enter
Ġ_ float
Ġ_ install
Ġ_ parent_
Ġ_ register
Ġ_ resolve
Ġ_ select
Ġ_ sendfile
Ġ_ stop
Ġ_ void
Ġ_P y
Ġ_UN PACK_FORMATS
Ġ__ ne__
Ġ__ new
Ġ__ next__
Ġ__ set_name__
Ġ__ step
Ġ__ version__
Ġ__radd __
Ġ_append _child
Ġ_exit _wrapper
Ġ_frozen _importlib
Ġ_init _normal
Ġ_is _internal
Ġ_make _failed
Ġ_operator _fallback
Ġ_operator_fallback s
Ġ_sift up
Ġ_un register
Ġ_validate_ xtext
Ġ_wait _for
Ġa f
Ġa utonomy
Ġab b
Ġadd _argument
Ġadd indent
Ġadvert ising
Ġal en
Ġallow _fragments
Ġallow _reuse
Ġaltern ate
Ġan al
Ġanch or
Ġappe ared
Ġappropri ately
Ġass umption
Ġasynchronous ly
Ġattr text
Ġaver age
Ġb en
Ġb ot
Ġback ends
Ġbare _quoted_string
Ġbest i
Ġc ritical
Ġc sv
Ġc utoff
Ġca used
Ġca using
Ġcapt uring
Ġch al
Ġchar junk
Ġcheck _circular
Ġcheckpoint s
Ġchild _loggers
Ġco variant
Ġcomp li
Ġcomp licated
Ġcomp re
Ġcompare _routing_across_variants
Ġcomple ting
Ġcompli ance
Ġcon sec
Ġcon tribut
Ġconsec ut
Ġconsecut ive
Ġcontain ers
Ġcontent _type
Ġcontin u
Ġconver ts
Ġcopy fileobj
Ġcount ing
Ġcreate _module
Ġd ere
Ġd ry
Ġd uck
Ġdaemon ic
Ġde als
Ġde c
Ġde signed
Ġdeli ms
Ġdescribe _environment
Ġdetect_routing _collapse
Ġdir name
Ġdir ty
Ġdis assemble
Ġdis covery
Ġdistribut e
Ġdocstring s
Ġdot _atom
Ġdouble quote
Ġe i
Ġemit s
Ġen s
Ġend idx
Ġend point
Ġescaped _string
Ġest im
Ġevalu ate
Ġex pose
Ġexc _context
Ġexc _val
Ġexception _entries
Ġexit _pid
Ġexit msg
Ġf size
Ġfinding s
Ġfirst _line
Ġfor b
Ġforb idden
Ġfork ing
Ġfra c
Ġfrom _addr
Ġfrom file
Ġfunc _name
Ġg ids
Ġg pt
Ġgamma variate
Ġgener ation
Ġget members
Ġget_ ident
Ġget_ invalid
Ġget_ write_buffer_size
Ġgrad _clip_norm
Ġh aven
Ġh dr
Ġh drs
Ġh ide
Ġh mac
Ġh on
Ġh tml
Ġharness _resumed
Ġhere by
Ġhidden _dim
Ġhist orical
Ġhome cls
Ġident ifiers
Ġignore s
Ġimp ossible
Ġimpro ve
Ġincre asing
Ġind irect
Ġinherit able
Ġinter active
Ġinter cept
Ġit n
Ġjoin ed
Ġknow ledge
Ġl argest
Ġl at
Ġl c
Ġl r
Ġl st
Ġla beled
Ġla unch
Ġlangu ages
Ġlay er_index
Ġle aving
Ġleft most
Ġlex ical
Ġline _offset
Ġlisten ing
Ġliter ally
Ġlo ud
Ġload _long
Ġlocal ly
Ġmanag ers
Ġmark ing
Ġmax levels
Ġmeasured _iters
Ġmember_ names
Ġmethod ology
Ġmethod_a _sparse
Ġmime types
Ġmock ed
Ġnew file
Ġnewline _indent
Ġnm _tpl
Ġnot es
Ġnot ification
Ġob vious
Ġopt name
Ġother _value
Ġout _opt
Ġp age
Ġp atcher
Ġp rom
Ġparse _int
Ġpoint ing
Ġpol ling
Ġpossible _quotes
Ġprint_ exception
Ġpro pa
Ġprodu cing
Ġpy torch
Ġq size
Ġqu ick
Ġre name
Ġre paired
Ġred undant
Ġrespons ible
Ġret val
Ġreturn list
Ġrun _untrained_official_model_probe
Ġrun py
Ġs ix
Ġsa fety
Ġscal ed
Ġse ar
Ġself _name
Ġset_ spawning_popen
Ġsh allow
Ġshort er
Ġshut ting
Ġsign um
Ġskip keys
Ġsour ces
Ġsource _hash
Ġsource _process
Ġssl _protocol
Ġst ated
Ġstat res
Ġstrip ping
Ġsu fficient
Ġsub args
Ġsub test
Ġsub tract
Ġsuggest ion
Ġsuperse ding
Ġsw itch
Ġsymbol s
Ġt elnet
Ġt ie
Ġt ot
Ġtermin ator
Ġtest _manifest
Ġtimeout _handle
Ġtmp _value
Ġto _close
Ġto u
Ġtok _type
Ġtok val
Ġtrace ability
Ġtraceback s
Ġtyp ical
Ġtz offset
Ġun encoded
Ġun trained
Ġurl parse
Ġus able
Ġuser info
Ġv an
Ġv ector
Ġvis ible
Ġw ast
Ġwait s
Ġwin reg
Ġwindow s_
Ġwor ld
Ġxml rpc
Ġy es
! ).
" ')
"" .
"\\ ]*
# ****************************************************************
#**************************************************************** ********
' #
' M
( ())
(" {
("." ):
("/ ")
(' .
(' .',
(' </
(' {
(' {!
('" ',
('/ ',
() `,
) }'
) }')
), )
- '
- +
/ "
0 89
00 01
00 37
01 32
016129032258064 516
02 16
04 9
05 8
07 7
0967741935 484
1 74
129032258064 5161
19 8
2 31
23 3
25 1
3 58
30 8
35 2
36 1
43 7
48 6
48 9
64 1
76 5
76 76
87 8
88 8
89 7
94 5
94 9
< >
=' %
=' ?',
> %
> [
ABC Meta
AC E_
AG E
AN T_
AND ID
APP ER_
APPRO VED
ASE_ ENDS
AT IVE_
Allow ed
Allowed Err
Attribute NS
Auth orization
B IT
B oundary
C ANONICAL_ARTIFACT_DIR
C PU
C UR
C ancel
COM MENT
CON N
CON NE
Class Cleanups
Co unter
Con st
Control Mixin
D A
D est
Datagram Server
Digest AuthHandler
Dis position
EL L
EN O
EN SION
ENT ITY_
EP ORT
ER Y_
ERROR _
ERY_ STRING
Enabled For
Ex ample
Ex per
F LOW
F RAG
F lush
F orking
F ragment
FO RE
G ROUPREF
G iven
G rad
H ANDSHAKE
HAS _
HTTP Server
HTTPS Connection
IST S
IZ ED_
J an
K IP
K Q
L M
L ast
L ink
L ong
LEAN UP
LIN E_
LOAD _S
LOGG ING_
M on
ME M
MMDF Message
Mod ification
Module Type
NE VER
NO P
NU M
Named NodeMap
OD E_
OP EN
OUR CES
OVE_ COST
O_ HANDSHAKE
O_R D
P ER
P L
P R
P ollSelector
PECIAL S
PROTOCOL _TLS
Parse ResultBase
Path Like
Pi ckle
R ASE_ENDS
RE M
REQU IRED
Re al
S cal
S ty
SSL _ERROR
Scal er
Sh ared
Stream Handler
Stream Server
Sty le
Sub Test
T S
T URN
T ry
T wo
TH RESHOLD
Test Class
Text TestResult
Timeout Error
Too Short
UP D
US EPORT
Union Type
V A
VAL ID
W AY
YN C
Z MA
Z ero
] ',
] [-
]( ?:
_ HEADER
_ KEEP
_ METHOD
_ ParseResultBase
_ VERSION
_ devnull
_ lm_head
_ maxsize
_ rag
_ struct
_CRE ATED
_G EN
_M ARK
_M ERGES
_P ATH
_P ATTERN
_R UNNING
_S AF
_S PACE
_TO_ NEWLINE
_TY PE
__ cached
__ format__
__ ge__
__ gt__
__ hash__
__ init_subclass__
__ le__
__ members__
__ read
__ reduce_ex__
____ ____
__cached __
__forward _arg
__forward_arg __
__orig _bases
__orig_bases __
_architecture _id
_arg _index
_asyncio Runner
_b atch
_b atches
_base _error
_bit s_
_byte array
_cal cul
_call _user_data_handler
_check ed
_com bination
_com ments
_con tinuation
_con ver
_context s
_contribution _norm_mean
_control_char acter
_current_ task
_d ialect
_d ocument
_d river_version
_d rv
_de cimal
_dis able
_dis allowed
_dis position
_do es
_does _not
_e quivalence
_element _handler
_encode _basestring
_ent ities
_eof s
_escape _cdata
_ex e
_exc _info
_f requency
_fix up
_fut _waiter
_g zip
_gzip _header
_headers _buffer
_in correct
_le tters
_load ing
_maybe _resume
_mock _w
_mock_w raps
_norm _rms
_num _fields
_or _future
_out come
_out queue
_p op
_p ython
_pair _frequency
_pre serve
_print_ debug
_pro p
_probe _case
_rag ged
_ragged _eofs
_re ason
_re construction
_re lease
_register _with_iocp
_register ed
_ro t_
_rot_ part
_router_ decision
_router_ override
_router_decision s
_s igint_
_safe _repr
_se cs
_serial izer
_sigint_ wait
_sigint_wait _secs
_signal _handlers
_special_id _to
_special_id_to _str
_sub test
_t abs
_t ext_
_t t
_tar file
_task queue
_timeout _handler
_to _id
_token _index
_v isible
_v sn
_var names
_w r
_warn ings
_wrap ped
_write _backlog
a _type
a ffect
ab ling
ab ort
ab ri
ab s_
add _label
add _sequence
add _unredirected_header
ait er
al most
al o
arg _string
arg _strings
arg count
assert True
ata gs
attention _bias
b ash
b string
base _dir
base _name
best size
block s
bool __
buffer ed
build _model
builtin _constructor
byte code
called funcs
cla im
close hook
co okies
co res
code s
col no
comp liant
compress or
con tinue
connection _lost
connection _made
contain s
context s
cookie jar
cover able
create _server
cremental Parser
ct ext
d ifferent
d omin
da pt
data _received
data classes
deli ms
dense _model
dir path
distribution _name
document ed
domin ant
down _proj
e f
ed Ref
en able
end time
ensure _ascii
ep sil
epsil on
err pipe
err write
error Handler
error _message
exception _group_depth
executed _expert_
expected _regex
extra s
fa iled
file _read
find iter
flat _valid
fn match
format _help
fortun ately
from keys
from_ iterable
fs decode
ftp cache
func _std_string
g ent
g inal
g pt
g uess
gate _proj
get buffer
get width
get_ event_loop
get_ filename
get_ osfhandle
handle _error
hard ware
has _header
hex digest
i elds
ib r
ifi es
ific ations
il legal
im al
in ner
index _add
initial ized
int ro
is coroutinefunction
ital ize
iter ables
ke w
ken ed
latin _
le s
led ispatch
lif y
line _num
line _pos
lo or
load _state_dict
low ControlMixin
ma k
make trans
match _args
max _size
mean _js_divergence
measured _iters
message_from _string
method _b
n am
n c
n_protocol s
name _or_tuple
native _id
nl _noescape
not ab
not e
on ext
on gest
optimized _dispatch
or arily
ound Arguments
ous and
part ies
per formance
per ties
pip es
position _ids
pre v_
print_ exception
print_ help
put cmd
qual ifiedName
r atch
re construction
read _
require s
resource _tracker
return _diagnostics
s _pending
s im
s l
s or
s_ set
sel y
selector s
set profile
set_ payload
set_ wakeup_fd
show All
st s
star ved
start_ dir
start_ index
stop frame
str class
t imer
t state_lock
t_ mask
t_ val
test NamePatterns
test _training
test_model_moe _property
time stamp
tiny _overfit
token _trace
tra cked
trunc ate
tuple s
ty ped
uid o
un used
un verifiable
unc losed
uni cate
user _function
value _parser
w ap
w armup_iters
wait _for
we ighted
with out
ynamic Class
zero s_like
|--- |
|---|--- |---|
}) "
ð Ł
ĊĠĠĠĠĠĠĠĠĠĠĠĠĠĠĠĠĠĠĠĠĠĠĠĠĠĠĠĠĠĠĠĠĠĠĠĠ ĠĠĠĠĠĠĠĠĠĠĠĠĠĠ
Ġ ,
Ġ atags
Ġ healthy
Ġ" ^
Ġ"; "
Ġ"{ !
Ġ' (':
Ġ' //
Ġ' ]'
Ġ'% (
Ġ', '
Ġ', '.
Ġ'/ ',
Ġ'; '
Ġ'<{} >'.
Ġ'[ %
Ġ'\\ ':
Ġ+-------- -------+
Ġ+---------------+ -------------------+
Ġ15 36
Ġ16 384
Ġ2 89
Ġ3 8
Ġ4 2
Ġ4 6
Ġ4 8
Ġ6 21
Ġ7 0
ĠA ct
ĠA nother
ĠA pr
ĠA tom
ĠAc cording
ĠAdd itional
ĠAn n
ĠAp ache
ĠAp pend
ĠB NF
ĠB Y
ĠBytes Parser
ĠC ANONICAL_ARTIFACT_DIR
ĠC ERTIFICATE_
ĠC ERT_
ĠC ancel
ĠC or
ĠCOMP ON
ĠCOMPON ENT_
ĠCON SE
ĠCONNE CT
ĠCONNE CTION
ĠCONSE QU
ĠCONSEQU ENTI
ĠCONSEQUENTI AL
ĠCONT RAC
ĠCONTRAC T
ĠCS V
ĠCom mand
ĠComp are
ĠCon sequences
ĠConnection ResetError
ĠDIS C
ĠDISC LA
ĠDISCLA I
ĠDISCLAI MS
ĠE lse
ĠE ven
ĠEMPTY _LIST
ĠEN CODING
ĠExt ended
ĠF orking
ĠF unctions
ĠG H
ĠGe For
ĠGeFor ce
ĠH as
ĠHEL O
ĠHTTP Connection
ĠHTTP Response
ĠHel p
ĠI IS
ĠI nd
ĠIN DE
ĠINDE PEND
ĠINDEPEND ENT
ĠIn struction
ĠIn tegral
ĠInvalid Spec
ĠInvalid StateError
ĠInvalidSpec Error
ĠIter able
ĠL und
ĠLEN GTH
ĠList ener
ĠLo ader
ĠLund h
ĠM IN
ĠM IT
ĠM ap
ĠM ark
ĠM orsel
ĠMax imum
ĠMo EDiagnostics
ĠMo zilla
ĠNOT_ LITERAL
ĠNamed Tuple
ĠO ur
ĠOP TIONAL
ĠOn ce
ĠP attern
ĠP ublic
ĠPH RASE_ENDS
ĠPath Distribution
ĠPermiss ionError
ĠPre tty
ĠPy dantic
ĠQU OTE_
ĠR ot
ĠRE VIEW
ĠRES ULT
ĠRNG State
ĠRep lace
ĠRep rEnum
ĠRest ore
ĠReturn ed
ĠRuntime Warning
ĠS B
ĠS ave
ĠS tore
ĠS ynchronized
ĠSIG N
ĠSMTP NotSupported
ĠSRE_FLAG_ IGNORECASE
ĠSSL Socket
ĠSTRID ES
ĠSimple Queue
ĠSt andard
ĠT YPE_
ĠT erminate
ĠT ho
ĠTinyOverfit Harness
ĠUp date
ĠUser List
ĠW RIT
ĠW RITE
ĠW ake
ĠW here
ĠWH ET
ĠWHAT SO
ĠWHATSO E
ĠWHATSOE VER
ĠWHET HER
ĠX Path
Ġ['' ]
Ġ_ KEEP
Ġ_ N
Ġ_ QU
Ġ_ RE
Ġ_ Stream
Ġ_ Thread
Ġ_ blocking
Ġ_ collections
Ġ_ decode
Ġ_ encoder
Ġ_ event_loop_policy
Ġ_ finalizer
Ġ_ generate
Ġ_ have
Ġ_ index
Ġ_ match
Ġ_ maybe
Ġ_ mbox
Ġ_ opener
Ġ_ post
Ġ_ repr
Ġ_ send
Ġ_ sum
Ġ_C allable
Ġ_CS_ REQ
Ġ_N etlocResultMixin
Ġ_P open
Ġ_QU OPRI
Ġ_S tore
Ġ_T LS
Ġ_VAR _KEYWORD
Ġ_W ork
Ġ__ bool__
Ġ__ class__
Ġ__ instancecheck__
Ġ__get __
Ġ_add _common
Ġ_add_common _args
Ġ_bytes _from
Ġ_bytes_from _decode
Ġ_bytes_from_decode _data
Ġ_call _if_exists
Ġ_con vert
Ġ_current_ tasks
Ġ_de leg
Ġ_de precated
Ġ_deleg ating
Ġ_delegating _property
Ġ_finalizer _registry
Ġ_format _size
Ġ_get_signature _of
Ġ_has _surrogates
Ġ_heap ify
Ġ_ignore _error
Ġ_path _split
Ġ_split user
Ġ_sync _close
Ġ` --
Ġa _module
Ġa _type
Ġa wa
Ġab cs
Ġab lations
Ġac quiring
Ġact s
Ġad just
Ġad obe
Ġad vance
Ġadd Skip
Ġaddr info
Ġallowed _domains
Ġan alysis
Ġappend to
Ġarbit r
Ġarbitr arily
Ġaren a
Ġas _completed
Ġassert ions
Ġatt ack
Ġattention _scale
Ġawa kened
Ġb l
Ġb od
Ġb string
Ġb tags
Ġb und
Ġb zip
Ġback slash
Ġback upCount
Ġbase _futures
Ġbias _a
Ġbias_a udit
Ġbod ies
Ġbot tom
Ġbreak ing
Ġc ertificates
Ġc id
Ġc pu
Ġcall _soon
Ġcausal _lm_loss
Ġchain ed
Ġchange _notifier
Ġclass _name
Ġcm ds
Ġco erce
Ġco variance
Ġcode d_value
Ġcol _offset
Ġcomple tes
Ġcompre h
Ġcompute _router_decisions
Ġcon form
Ġcond group
Ġcondition al
Ġconflict s
Ġcontext_ probe
Ġcontinuation _ws
Ġconvent ions
Ġcopy tree
Ġcra sh
Ġcuda _available
Ġd up
Ġdat atype
Ġde scend
Ġde scribing
Ġde termines
Ġdecor ate
Ġdefault ing
Ġdele ting
Ġdense _positions
Ġdere ference
Ġdescrib es
Ġdetect _dead
Ġdetect_dead _experts
Ġdi ed
Ġdiag _a
Ġdifferent ly
Ġdistin ction
Ġdo ctest
Ġdo m
Ġdri f
Ġdrop ping
Ġdry _run
Ġe ffort
Ġe g
Ġe hlo
Ġen closed
Ġen gine
Ġencode _long
Ġencoded _lines
Ġend _offset
Ġerror Handler
Ġes pecially
Ġevent ually
Ġexha usted
Ġexpect ing
Ġexpre ssed
Ġextract _dir
Ġf am
Ġf ive
Ġf sum
Ġfail fast
Ġfds _to
Ġfe e
Ġfinal _norm
Ġfinal ization
Ġfind _spec
Ġflatten ed
Ġfor ced
Ġfor ms
Ġform er
Ġformat _exc
Ġfrom _
Ġfrom filedate
Ġfunc _repr
Ġg ap
Ġge to
Ġgener ating
Ġget randbits
Ġget_ fws
Ġgetattr _static
Ġgolden _layer
Ġgroup index
Ġh Std
Ġh alf
Ġhandle _list
Ġheader _factory
Ġheap ify
Ġhost s
Ġi se
Ġi step
Ġid string
Ġin clusive
Ġin validate_caches
Ġincrement al
Ġindent ed
Ġinitial _dot
Ġinsert ion
Ġint act
Ġis module
Ġke v
Ġkey _list
Ġkw arg
Ġkw defaults
Ġl no
Ġl ru_cache
Ġlast _line
Ġlast line
Ġlb _opt
Ġle aves
Ġle git
Ġleak age
Ġlet ters
Ġline junk
Ġlink ed
Ġlo se
Ġload _corpus
Ġload_corpus _shards
Ġlocal _hostname
Ġlow est
Ġm atter
Ġm icro
Ġm iss
Ġm v
Ġmapp ed
Ġmax _num_fields
Ġmean _top
Ġmeth _name
Ġmethod _name
Ġmethod _to_typeid
Ġmethod name
Ġmodel _b
Ġmult im
Ġn _rep
Ġn l
Ġn ts
Ġnegoti ate
Ġnode Name
Ġnon ce
Ġnot ion
Ġnum bytes
Ġo ctal
Ġob tain
Ġoper ators
Ġor g
Ġother _kwargs
Ġoutput _charset
Ġp ert
Ġp ushes
Ġpadding _layout
Ġpair _counts
Ġper mut
Ġper taining
Ġpers on
Ġph ys
Ġpop ular
Ġpot entially
Ġpre cedence
Ġpre pared
Ġpre pend
Ġprece ded
Ġpreference list
Ġpresent ation_type
Ġprevious Class
Ġprevious Module
Ġproxy type
Ġpublic ity
Ġpytorch _parameter_breakdown
Ġqu ite
Ġqueue s
Ġquot ation
Ġre lies
Ġre load
Ġre member
Ġreal host
Ġref Child
Ġref used
Ġreference d
Ġremo ves
Ġrender ed
Ġrepeated ly
Ġresume s
Ġright_ anchor
Ġro om
Ġrout ers
Ġrout ines
Ġrouter _bias
Ġs aves
Ġs lash
Ġs lashes
Ġs us
Ġs x
Ġsa w
Ġsatis fy
Ġsched ul
Ġseed s
Ġselector _events
Ġsent inels
Ġsep len
Ġser ving
Ġset_ seq
Ġsh util
Ġshort cut
Ġsim ulate
Ġsim ult
Ġsimult aneous
Ġsole ly
Ġsort _dicts
Ġsource _bytes
Ġsp ent
Ġspawn ed
Ġspe ll
Ġsr centry
Ġsr ch
Ġstar map
Ġstart pos
Ġstart_ dir
Ġstate ments
Ġstep s
Ġstore s
Ġsub module_search_locations
Ġsub path
Ġsubclass ing
Ġsubstit ute
Ġsynchron ized
Ġt fp
Ġtail _part
Ġtask _handler
Ġtest_sparse _frozen
Ġth reshold
Ġth us
Ġto _addrs
Ġto filedate
Ġtool k
Ġtoolk it
Ġtrans formation
Ġtrans mission
Ġtrigger ing
Ġtriple s
Ġturn ed
Ġun compressed
Ġun conditional
Ġun conditionally
Ġun pickle
Ġun pickler
Ġunpack ing
Ġunre cognized
Ġup dates
Ġvalue _parser
Ġversion ed
Ġvisit _M
Ġvisit_M atch
Ġwait ed
Ġwe b
Ġwh ite
Ġwhere as
Ġwork _id
Ġx fl
Ġz _opt
Ġzero _expert_ids
! ")
" '{
""" \
")) ,
"> %
#************************************************************************ **
$ ',
' (?
') [
(" &
(" (",
(" *
(" [
(", ")
(' )')
(', ',
('\\ ',
() /
() }")
(... ):
(? !\
(?:\ \.
) `,
)) ]
* +
+ |
- ',
- *
... '
/ %
0 39
0 61
0 84
00 20
00 34
01 35
01 39
012 7
02 3
030 8
04 241
04 32
05 9
129 5
14 4
14 7
15 9
17 74
200 7
24 4
24 6
24 9
27 7
27 8
29 8
3 79
30 6
31 07
34 6
387 0967741935
4 096
46 5
50 8
54 1
54 2
54 4
55 7
55 9
56 0
56 2
56 9
59 4
59 6
67 1
7 19
74 101
79 2
79 3
8064516129 032
9 59
94 4
: ")
= ',
=" )
================ ==
={ }
A J
ABCDEF GH
ABCDEFGH I
ABCDEFGHI J
ABCDEFGHIJ K
ABCDEFGHIJK LM
ABCDEFGHIJKLM NOP
ABCDEFGHIJKLMNOP QR
ABCDEFGHIJKLMNOPQR ST
ABCDEFGHIJKLMNOPQRST U
ABCDEFGHIJKLMNOPQRSTU V
AF _PIPE
AL LEN
ALLEN GE
AND ARD
ANDARD _ACTI
ANDARD_ACTI VE_
ANDARD_ACTIVE_ P
ANDARD_ACTIVE_P ARAMETERS
ANG E_
APP END
ARCH IVE_
ARCHIVE_ FORMAT
ARCHIVE_FORMAT S
ARN ED_
ARNED_ VOCAB
ATIVE_ ID
Async Mock
Asyncio TestCase
At tributes
B ASE
B E
B EGIN
B LOCK
B efore
B oth
BUF SIZE
C RLF
C ache
CO G
COG N
CORE_CONTROL _TOKENS
Cal culate
Class Var
Com mand
D ELAY
D O_HANDSHAKE
D iv
D uplicate
DENSE_ CFG
De cimal
Dest ination
E INVAL
ER S
ES SIVE_
ET A
En vironment
End ElementHandler
Equal ity
Equality Func
Expected Failure
F ALSE
F RO
F _
F requency
FIRST_ COMPLETED
FORM AT_
Fe edParser
Frozen ValueMismatch
Generator ContextManager
H ANDLE
H TML
H ash
I AC
I S_
ID TH
IN ERROR
IN T_
INIT IAL
INVAL ID
IT EM
IT VAR
Id entity
Imp l
Invalid StateError
J ust
L APPED
L C
L IG
Le gal
M AS
MESSAG E_
MoE AblationConfig
Modification AllowedErr
N ON
N e
NEW OBJ
O O
OD ES
OS S
OSS ESSIVE_
O_ WR
O_CRE AT
O_WR ONLY
Overlapped Result
P ORT
P arent
PATCH _BACK
PATCH_BACK ENDS
PEAT_ ONE
POL ATION
PRO TO
Par sers
Pro vide
Probe Template
Profile Result
Proxy File
Public Id
RE COGN
RE TURN
RESERVED_CONTROL _START
Ref used
Res ource
S ING_
S un
SERVER _PORT
SSL ProtocolState
ST ACK
SetUp Failed
Simple Cookie
Subprocess Transport
T IL
T earDown
THREAD _N
THREAD_N ATIVE_ID
TI M
TR ACE
Test Loader
Test Runner
Type Info
UN WRAPPED
UP _TO_NEWLINE
Un pack
Unexpected Success
VAR _KEYWORD
W P
W ork
Wait For
Window Accumulator
Y ou
] ':
] ==
] `
_ here
_ hex
_ main__
_ router_z_loss_raw
_ under
_ validate
_BY TES
_C HECK
_C ODES
_COROUT INE
_D OCU
_F LAGS
_F OR
_IN ITVAR
_P y
_QU OPRI
_RE QU
_S plitResultBase
_ST ANDARD_ACTIVE_PARAMETERS
_T EXT
__ root
__ slots__
__forward _module
__forward_module __
__is abstractmethod__
__set state__
_a rena
_accept ed
_app _state
_args _from
_as _ew
_auto spec
_av g
_b racket
_back slashes
_call _name
_causal ity
_change _notifier
_check _not
_check_not _closed
_co unt_
_col lections
_com bine
_combine _allowed
_completed _fut
_context_ target
_contribution _norms
_d aemon
_d st
_de tect
_drop less
_dropping _allowed
_e very
_enter ed
_entries __
_eval _fixture
_ex pr
_exist _ok
_exit _callbacks
_exit ing
_exp ired
_expert_ load
_expert_load _share
_external _g
_external_g es
_f alse
_f etch
_f orm
_file _prefixes
_forever _fut
_freq s
_from _bytes
_g ate
_g qa
_get ters
_glob s
_gradient s
_h ints
_h ttps
_handle s
_handler _prop
_ignored _depth
_in teger_
_indent _per
_indent_per _level
_init _fields
_init _or
_init_or _replace
_init_or_replace _init
_initial _dot
_integer_ ratio
_is _coroutine
_k all
_key word
_last i
_len _to
_len_to _seq
_load ers
_logit _abs
_logit _margin
_m ulti
_magic _id
_max _workers
_maybe _pause_protocol
_moe _layer
_mutually_exclusive _group
_n ull
_ne gative
_no _value
_no op
_normal ization
_ns_ contexts
_object s
_of _data
_on _completed_fut
_op arg
_op s
_p atch
_par sed
_parent_ pid
_parse _tree
_parsed _parts
_per m
_put ters
_py test
_q p
_q size
_r ng_state
_re set_
_re view
_repr _info
_return _ok
_router_logit _magnitude
_routing _oscillation
_s hell
_s ighandler
_s il
_saved _sighandler
_sc anner
_serving _forever_fut
_sh ut
_share _ratio
_signal _handler
_special _forms
_ssl _buffer
_star ved
_stat es
_stream _reader
_sub parsers
_sub set
_sy mlink
_t imer
_test Func
_to _write
_tokenizer _config
_top _k
_un locked
_waitpid _lock
_we ight
_wh y
_write _eof
` /
`` )
a utonomous
a ware
ab bb
abri cated
acquire d
act ored
ad vert
add_argument _group
adow ed
advert ised
ag en
ag ger
ake _up
allow _dirty
am ount
an cing
ank s
ap py
ary Embedding
at _fork
ated AsyncioTestCase
ateg y
auth enticate
av oid
await _args_list
b asic
b ecause
b oth
b po
b ra
ba z
block ed
bs olute
buil ds
by file
byte Stream
c losing
c losure
call _queue
cap able
ce il
cell aneous
ch allenge
ch o
co _consts
co _names
co _varnames
comm unicate
con tribution
con vert
content _length
context lib
copy __
copy _with
cor outines
cre ation
cuda _device_name
current bp
d rain
d text
d uplex
data q
de compress
de cor
de tector
def ect
delimit er
diff lib
digest _name
dispatch er
do _
dot s
du ct
element _handler
ence _end
er ed
erc ert
et work
ev t
evt log
ex clude
exact ly
exc _text
exec _fn
exit code
expected Failure
expert_ ffn_dim
f _name
f atal
f lict
f time
ffff ff
fig ures
final ize
flat _idx
format week
from _bytes
fs rc
full _trace
full url
func _name
func name
g cd
g raph
get SystemId
get randbits
get_ all
get_ buffer
got onext
grad _clip_norm
h Std
h drs
h old
handle Error
header_ name
hel per
i rawq
iel ding
ient ed
ierarch ical
il ine
imp ro
in complete
in vert
inal _size
inary IO
index __
ine t_
ing _count
ing _time
initial izer
inser ted
int __
is Id
is _detected
is _running
is lice
iteSpace Terminal
iter tools
k _proj
k queue
kw arg
kw list
last cmd
latency _seconds
le ft_
le metry
leep ing_count
length s
level name
line starts
list en
lo s
local _addr
lock ing
m h
m map
m v
mach inery
main _path
make file
max _group_width
max _name_len
mp _main__
mp ro
n predecessors
name_from _oparg
new _callable
new _file
new args__
nl _short
norm _bias
o ot
obj _name
oken _count
ol ution
old _arg
omb ies
ome tric
p _cache
p format
p ired
par ation
par sing
parent_ path
path _separators
per ror
perror s
pipes ize
prev_ col
pro se
qu oprimime
que ued
r an
r ather
r ink
re aded
re es
recv _bytes
reference _dispatch
register_ at_fork
relative _to
remo ved
replacement _expert_id
require ment
return _annotation
righ t_
ro undtrip
s li
s_ list
s_ version
sc attered
se conds
seek able
send msg
server _side
set state
set_ event_loop
shared_expert_ activated
skip ped
sol atedAsyncioTestCase
source _bytes
st dev
st ood
stack _ipv
status output
stop info
strip ped
sub __
sy mbols
t ical
t id
t ility
t text
te lli
tel net
term inal_size
test CaseClass
test Method
test ream
test_model_moe _ablations
tml Diff
tmp _file
tmp _path
to lines
torch _version
training _router_jitter
tri angular
truediv __
type _
type _hints
tz info
ub untu
unge _cte
uniform _share_ratio
unsafe _hash
up grade
uple _inner
ur able
us y
user _passwd
ust ar
ut c
ut es
v _proj
vant age
var kw
w all_seconds
writ ing
x _mutated
xy z
y r
yp hens
yp ing
} ]')
ĊĠĠĠĠĠĠĠĠĠĠĠĠĠĠĠĠĠĠĠĠĠĠĠĠĠĠĠĠĠĠĠĠĠĠĠĠĠĠĠĠĠĠĠĠĠĠĠĠĠĠĠĠ ĠĠĠ
Ġ 85
Ġ esc
Ġ lic
ĠĠĠĠĠĠĠĠĠĠĠĠĠĠĠĠ ĠĠĠĠĠĠĠĠĠĠĠĠĠĠĠ
Ġ" ?"
Ġ"- "
Ġ"- ":
Ġ' ):
Ġ' ]':
Ġ'" %
Ġ'# '
Ġ': ':
Ġ'@ ':
Ġ(' \
Ġ) ?
Ġ+ -------------------+
Ġ+-------------------+ --------
Ġ+-------------------+-------- -------+
Ġ---------------- ----
Ġ---------------------------------------------------------------- --
Ġ/ ):
Ġ0 8
Ġ15 0031
Ġ150031 360
Ġ199 4
Ġ204 6
Ġ3 333
Ġ3 9
Ġ4 7
Ġ5 3
Ġ6 3
Ġ6 55
Ġ79 191
Ġ79191 040
Ġ8 2
Ġ: ])
Ġ= ============
Ġ===================== ==
ĠA GEN
ĠA ction
ĠA lias
ĠA ttention
ĠAP P
ĠAT OM
ĠAccept s
ĠApr il
ĠAr ray
ĠAs cii
ĠB oundArguments
ĠBase Proxy
ĠBroken BarrierError
ĠC ATEGORY
ĠC ORE
ĠC annot
ĠCATEGORY_ UNI
ĠCHAR SET
ĠCOR PUS_DIR
ĠCheck s
ĠCheckpoint ValidationError
ĠComple te
ĠConfig uration
ĠConnection Error
ĠContent Handler
ĠCookie Jar
ĠD IAL
ĠD IR
ĠD ep
ĠD one
ĠDIAL Y
ĠDIALY TI
ĠDIALYTI K
ĠDIALYTIK A
ĠDOM Builder
ĠDepre cated
ĠE S
ĠE SC
ĠE mbedding
ĠEMPTY _NAMESPACE
ĠEMPTY _PREFIX
ĠEnum Type
ĠError Handler
ĠEvery thing
ĠF D
ĠF LAGS
ĠF STRING_
ĠF WS
ĠF atal
ĠF ix
ĠF ragment
ĠF redrik
ĠFROZEN _STANDARD_ACTIVE_PARAMETERS
ĠFragment Builder
ĠFuture Warning
ĠGener al
ĠI OCP
ĠI dent
ĠIter ator
ĠKey edRef
ĠL AB
ĠL eg
ĠLAB S
ĠLO G
ĠLO SS
ĠM AC
ĠM B
ĠN ext
ĠNEG LIG
ĠNEGLIG ENCE
ĠNew Type
ĠNo SectionError
ĠNot hing
ĠO per
ĠO r
ĠOp code
ĠOri ginal
ĠP ATTERN
ĠP e
ĠP lace
ĠP ost
ĠPER FORM
ĠPERFORM ANCE
ĠPRO F
ĠPROF ITS
ĠPi ckle
ĠPi ckler
ĠPre cision
ĠProcess ingInstruction
ĠQu in
ĠQuin lan
ĠRE CORD
ĠRE MAINDER
ĠREG ARD
ĠREQU EST_
ĠRESULT ING
ĠRFC s
ĠReg ular
ĠS ERVER
ĠS UB
ĠS c
ĠS napshot
ĠS uch
ĠSE CRE
ĠSECRE T
ĠSMTPNotSupported Error
ĠSUB PATTERN
ĠSe lector
ĠStream Writer
ĠSub process
ĠSy nthetic
ĠT A
ĠT OR
ĠT imerHandle
ĠT ree
ĠTOR TI
ĠTORTI OUS
ĠTest Result
ĠTree Builder
ĠUN ICODE
ĠUn fortunately
ĠUn like
ĠUn pack
ĠUse ful
ĠUser Dict
ĠV AL
ĠW IN
ĠW rapper
ĠX X
ĠZ ero
Ġ_ ARCHIVE_FORMATS
Ġ_ Annotated
Ġ_ Debug
Ġ_ OptionError
Ġ_ ProxyFile
Ġ_ R
Ġ_ SH
Ġ_ canonical
Ġ_ charset
Ġ_ dataclass
Ġ_ default
Ġ_ finalize
Ġ_ handlers
Ġ_ le
Ġ_ method
Ġ_ missing
Ġ_ mock
Ġ_ not
Ġ_ official
Ġ_ proxy
Ġ_ python
Ġ_ show
Ġ_ ss
Ġ_Annotated Alias
Ġ_Debug Result
Ġ_GiveupOn Fast
Ġ_GiveupOnFast Copy
Ġ_HAVE_ THREAD_NATIVE_ID
Ġ_M OVE_COST
Ġ_POSITIONAL_ OR_KEYWORD
Ġ_USE_ POSIX
Ġ__ copy__
Ġ__ dir__
Ġ__ missing__
Ġ__ mro
Ġ__ mul__
Ġ__ subclasscheck__
Ġ__get_ builtin_constructor
Ġ__set attr__
Ġ_as yncio
Ġ_canonical _tokenizer
Ġ_compile _pattern
Ġ_complete _expression
Ġ_do _waitpid
Ġ_f ut
Ġ_format param
Ġ_fut _waiter
Ġ_get_ elements
Ġ_get_ name
Ġ_get_elements _by
Ġ_get_elements_by _tag
Ġ_get_elements_by_tag Name
Ġ_has _control_character
Ġ_have _ssl
Ġ_load _module_shim
Ġ_lock _file
Ġ_make _iter
Ġ_make_iter encode
Ġ_official _sparse
Ġ_official_sparse _moe_layer
Ġ_raise _serialization
Ġ_raise_serialization _error
Ġ_rand below
Ġ_set_ new
Ġ_set_new _attribute
Ġ_simple _enum
Ġ_sock _recv
Ġ_un lock
Ġ_unlock _file
Ġ_warnings _showwarning
Ġ`` .
Ġabb re
Ġabbre vi
Ġaccess ible
Ġaccur ately
Ġaction _header
Ġad vantage
Ġalt chars
Ġanal y
Ġapply _seed
Ġapproxim ation
Ġarch itect
Ġarch ives
Ġarg _count
Ġas dict
Ġattach _loop
Ġauto _arg_index
Ġaver aged
Ġawait able
Ġb lt
Ġb z
Ġback ground
Ġback slashes
Ġbe l
Ġbeg an
Ġbegin s
Ġbel ongs
Ġbest _i
Ġbest _ratio
Ġboolean _attrs
Ġbox es
Ġbracket s
Ġbu d
Ġbu gs
Ġbud get
Ġbuf len
Ġby pass
Ġc adata
Ġc at
Ġc ert_
Ġc erts
Ġc msg
Ġc redentials
Ġcache _token
Ġcan _write_eof
Ġch ksum
Ġch mod
Ġcho ose
Ġclean ed
Ġclose s
Ġcls _dict
Ġco prime
Ġcol lector
Ġcollapsed _path
Ġcomm only
Ġcompile _command
Ġcomplex ity
Ġcomput es
Ġcompute _entropy
Ġcompute _topk
Ġcon trib
Ġcon ven
Ġconflict _handler
Ġcont am
Ġconven ient
Ġconver t_
Ġcur riculum
Ġcurrent_ task
Ġd llname
Ġd under
Ġdata block
Ġdataset s
Ġdate fmt
Ġde coder
Ġdebug ged
Ġdef ining
Ġdefault_ handler
Ġdele gated
Ġdeli ver
Ġdest _loop
Ġdetect _starved
Ġdetect_starved _experts
Ġdiff lib
Ġdigest _name
Ġdim ension
Ġdir path
Ġdis _
Ġdis allowed
Ġdisabled _expert_ids
Ġdisassemb ly
Ġdiscover ed
Ġdisplay ed
Ġdist ance
Ġdo ClassCleanups
Ġdot s
Ġdra ft
Ġdra ining
Ġdrif ted
Ġdrop out
Ġdst name
Ġduplic ated
Ġe l
Ġe li
Ġe type
Ġe v
Ġem ulate
Ġen ded
Ġen force
Ġend chars
Ġens ures
Ġentry point
Ġeq i
Ġerror _message
Ġevalu ated
Ġevent _name
Ġew _combine_allowed
Ġexample s
Ġexist ence
Ġext ends
Ġext reme
Ġf abricated
Ġf its
Ġf requ
Ġfair ly
Ġfinalizer s
Ġfind ers
Ġfl ds
Ġflush ing
Ġfol ds
Ġfolds paces
Ġformul as
Ġfreq s
Ġfunc _code
Ġgate _frozen
Ġgate _pytest
Ġgather ed
Ġget_ code
Ġget_ dot
Ġget_ event_loop
Ġget_ protocol
Ġget_ request
Ġget_ spawning_popen
Ġget_dot _atom
Ġh appy
Ġh ass
Ġh dlr
Ġh ence
Ġh h
Ġh o
Ġhe av
Ġhel pers
Ġhelp ful
Ġhost info
Ġi _n
Ġi llegal
Ġi st
Ġin coming
Ġin p
Ġinf init
Ġinfinit ies
Ġinitial _response
Ġinitial _scaling
Ġinstanti ation
Ġinstruction _index
Ġinter act
Ġinter leave
Ġis _argument
Ġis _closing
Ġis _set
Ġiss ued
Ġiter ate
Ġiter ating
Ġk m
Ġkey log
Ġkv _dim
Ġlb _b
Ġle ad
Ġle arn
Ġlegit imately
Ġline _number
Ġlist ing
Ġload _balance_loss_raw
Ġload _empty
Ġload _tuple
Ġlocal time
Ġlock ing
Ġlook ups
Ġloud ly
Ġm il
Ġm ix
Ġm ss
Ġm type
Ġmailbox es
Ġmain _path
Ġmark msg
Ġmarsh al
Ġme tacls
Ġmoe _positions
Ġmon otonic
Ġmut ation
Ġn aming
Ġn days
Ġn digits
Ġn umpy
Ġnamespace _path
Ġnet scape
Ġnew _callers
Ġnew _member
Ġnew _root
Ġnew _state
Ġnew headers
Ġnext_ pos
Ġno ise
Ġnot conn
Ġnotconn _pre
Ġnotconn_pre _handshake
Ġnotconn_pre_handshake _data
Ġnotify _all
Ġnum_blank s_pending
Ġnumer ically
Ġo dd
Ġo par
Ġo ps
Ġobj id
Ġobject _list
Ġoff enders
Ġop posed
Ġopar g
Ġopen mode
Ġorg an
Ġorig _timeout
Ġother _args
Ġover written
Ġp a
Ġp arens
Ġp lease
Ġpack ing
Ġpar t_
Ġparent_ sentinel
Ġpartial s
Ġpass _fds
Ġpatch ing
Ġpath _separators
Ġpattern _parts
Ġpause _reading
Ġpending _raise
Ġper call
Ġper forms
Ġpert urb
Ġpickle s
Ġpickle tools
Ġpoint ed
Ġport ion
Ġposs ibility
Ġpre decessors
Ġpre exec_fn
Ġpre fer
Ġpre fill
Ġpri o
Ġprimit ive
Ġpro f
Ġpro jection
Ġpro v
Ġpro ving
Ġprocess _group
Ġprocess _obj
Ġprocess _request
Ġpunctuation _chars
Ġput _nowait
Ġpy dict
Ġqu adr
Ġquest ions
Ġr _scheme
Ġr it
Ġr mtree
Ġra re
Ġre construction
Ġre distribution
Ġre open
Ġre t_val
Ġreach able
Ġreal _dst
Ġrece i
Ġrecogn ize
Ġremove _child_handler
Ġrenormal ization
Ġrepetition s
Ġreplacement _expert_id
Ġrer uns
Ġrest ored
Ġrestore _signals
Ġretrie ve
Ġreturn _ok
Ġreturn item
Ġreuse _address
Ġro ll
Ġroot s
Ġrouter_z_loss _raw
Ġs lower
Ġs re
Ġs res
Ġs xx
Ġscript _name
Ġse lections
Ġsear ched
Ġseek able
Ġseq_type _name
Ġserver _bind
Ġserver _close
Ġset state
Ġset_ ok
Ġset_ protocol
Ġset_ result
Ġsh aring
Ġsh ift
Ġsh ips
Ġshift_ logits
Ġsign alled
Ġsimp ler
Ġsize _or_initializer
Ġslot state
Ġsock _send
Ġsort Using
Ġspecial ist
Ġsplit _header_words
Ġssl proto
Ġst ay
Ġst n
Ġst ud
Ġstart Element
Ġstart line
Ġstat _list
Ġstop TestRun
Ġstr s
Ġstripped _args
Ġsu ites
Ġsu mpro
Ġsub element
Ġsub inter
Ġsumpro d
Ġsurrogate escaped
Ġsw it
Ġt n
Ġtag name
Ġtarget_ bytes
Ġtarget_ path
Ġtemp dir
Ġtest CaseClass
Ġth ousand
Ġthere of
Ġthread _wakeup
Ġtmp _path
Ġto _line
Ġto list
Ġtopk _probs
Ġtotal _bytes
Ġtotal _nframe
Ġtr sock
Ġtype _name
Ġun affect
Ġun bound
Ġun hashable
Ġun parsed
Ġunaffect ed
Ġunder stand
Ġunder stood
Ġurl parts
Ġurl split
Ġuse _sock
Ġuse_sock type
Ġuser _function
Ġuser agent
Ġw all_seconds
Ġw rote
Ġwast e
Ġwin n
Ġwrap _exception
Ġwrap col
Ġxmlrpc lib
Ġz _b
Ġzip file
Ġ{} ))
" (
" [
#-------------------------------- ------------------------
#-------------------------------------------------------- -
'\\ ]*
'] [
(" {}
(' ;')
(' >
('; ',
('= ')
() `.
(* ,
) (*
) /
) },
): \
* ',
* \
** (
- #
... ,
... `
/ ",
/ ,
0 67
0 86
0 88
00 26
00 27
00 39
00 50
001 8
01 11
01 12
01 19
01 88
03 3
032258064 5161
032258064516129 03
04 032258064516129
05 64
07 2
08 1
1 84
11 37
14 2
14 5
14 6
16 8
17 2
19 98
19354838709 7
24 1295
28 1
3 31
3 85
32 258064516129
32 7
37 1
4 00
45 2
46 8
47 5
4838709677419 4
5 64
50 3
51 5
516129 032258064
57 5
58 2
59 7
59 8
67 3
68 3
74 1
76 1
79 64
8 36
9 35
94 2
959 6774193548387
99 6
: #
:] ))
= ["
=' '),
> =
? ')
A rena
A wait
ABCDEFGHIJKLMNOPQRSTUV W
ABCDEFGHIJKLMNOPQRSTUVW XY
ABCDEFGHIJKLMNOPQRSTUVWXY Z
AC CES
ALL BACK
ALL _COMPLETED
ANDID ATE
ANDSHA KE_
AR ATOR
AR SE
ASE_ INS
ASE_INS EN
ASE_INSEN S
ASE_INSENS IT
ASE_INSENSIT IVE_
ASE_INSENSITIVE_ PL
ASE_INSENSITIVE_PL AT
ASE_INSENSITIVE_PLAT FOR
ASE_INSENSITIVE_PLATFOR MS
ASS ED
ATTRIBUTE_ ENDS
Abstract ContextManager
Ac quire
Architecture Config
AttributeNode NS
B B
B ER
B E_
B ody
B reak
BIN ARY
BIN STRING
BU G_
Base Context
Base Process
Base Proxy
Break down
Byte Stream
Bytes Generator
C ALL
C ATEGORY
C data
C md
C ore
CATEGORY_ UNI
CE_ SUFFIXES
CONTENT_ LENGTH
CT_ FILES
CUR SIVE_
Cdata Section
CdataSection Handler
Ch ange
Code Process
Comment Handler
Comple tion
Comple x
Con catenate
Con structor
Const Action
Content Type
Cookie Policy
Copy right
D ense
D irect
D one
DOCU MENT_NODE
De terministic
Default Dict
Direct or
Do ctype
Doctype DeclHandler
E E
ENO ENT
ENTITY_ REFEREN
ER O_
ERO_ OR_MORE
ERTIFIC ATE
ERT_ LOAD_S
ERT_LOAD_S HA
ERT_LOAD_SHA RE
EST_ PREFIX
EST_ PROTOCOL
EX PI
Effect ive
Ex pecting
Exit CodeProcess
F oo
FRAG MENT_NODE
FRO ZEN
Filter Error
G ATES
G PT
GEN ERIC
GOR ITH
GORITH M
Get OverlappedResult
H _
HTTP Connection
HTTP Handler
Hook Args
I gnore
IC _
ID LE
ID N
IDN IGH
IDNIGH T
IGH EST_PROTOCOL
IL ON
IN E_
INS IC_
IPPROTO_ IPV
IS SING_
In st
Init ial
Input Source
Int Flag
Key Dictionary
Key Error
Key boardInterrupt
L ACE
L ITERAL_
L KTYPE
L ONG_
L iteral
LE NAME
LO SE
Lo okupError
M ATCH
M an
MS G_
N S_
N UL
N aN
NAME SPACE
NS_ NAMESPACE
NUM _MERGES
NamedItem NS
No ModificationAllowedErr
Not Implemented
NotSupported Err
O ct
O ptim
OD O
OP T
OP Y
OSITIONAL_ ONLY
OUR CE_SUFFIXES
OVER LAPPED
On e
Oper ation
P ERT_LOAD_SHARE
P r
P ut
PE M_
PECI AL_
PER SID
PRO XY
Parser Create
Po sition
Pr inter
Pro gram
Q K
QU ERY_STRING
R UP
RAME _SIZE_
RE _INFO
RECOGN IZED_
REM OTE_
REQUEST_ METHOD
RESERVED_CONTROL _END
RUP T
Re sent
Re view
Record Factory
Routing Trace
RoutingTrace Record
S AX
S ILON
S UP
S UPPORTED
S elf
S emLock
SER V
SIG CHLD
SO_RE USEPORT
ST Y
START ED
SU CCESS
Se cond
Selector Key
Sequence Stream
Shared Memory
Sign als
Single Object
Status Line
T EST_PREFIX
TH ON
TR INSIC_
Tar Error
Test Method
TestCase Names
Tra ck
Track er
Transfer Encoding
Type Guard
Type Var
U LE
UN CTION
USE ADDR
V alidate
V isit
VALU ES
Ver ify
W SP
WA IT
Weak Set
Write PipeTransport
[ *
[ ]
] ]:
_ GenericAlias
_ IntEnum
_ METH
_ compatible
_ environ
_ esmtp
_ kw_only
_ pers
_ right
_ stdlib
_ yield
_C ERTIFICATE_
_C ODE
_C UR
_CHAR S
_CON ST
_DEFAULT_ LIMIT
_DIG EST
_E LEMENT
_E MPTY
_IN TRINSIC_
_INTER RUPT
_M IN
_MAX LINE
_WINDO WS
__ instancecheck__
__ len__
__ mp_main__
__ obj
__ text_signature__
__ typing
__del item__
__get state__
__obj class__
_a ver
_abs olute
_ac counting
_acquire Lock
_add _spec
_add _writer
_alive _fd
_allocated _offset
_allocated_offset s
_architecture _un
_architecture_un changed
_at trib
_aware _attrs
_aware _tags
_b asic
_b p
_b pe
_basic _auth
_broad cast
_c reated
_c wd
_cancel _message
_cancel lation
_check _ssl_socket
_co st
_comment _prefixes
_comp ression
_con flict
_con tinue
_con venience_vari
_convenience_vari ables
_create ClassOrModuleLevelException
_d isplay
_d td
_dangling _symlinks
_de clared
_declar ations
_delimit ers
_dif ference
_do _waitpid
_doc string
_e ol
_element _content
_empty _message
_end _matcher
_entity_ref _nodes
_eof _received
_err _handler
_exclude d
_executor_manager_thread _wakeup
_exit _wrapper
_f low
_f ns
_fe ed
_file _length
_file _location
_flag _mask_
_for _un
_for_un pickling
_for_unpickling __
_forkserver _address
_forkserver _alive_fd
_forkserver _pid
_func _name
_g ated
_g id
_get item
_get ter
_get_ running_loop
_group ed
_http _vsn
_id _to_bytes
_import er_cache
_in _element_content
_in _executor
_in variants
_in verted
_in voke
_interpreter _flags
_inverted _
_is _id
_known _args
_large _bytes
_limit ed
_lo aded
_loc ator
_long _words
_m atrix
_m in
_mark er
_me ta
_moe _norm
_msg stack
_must _cancel
_name _parser
_name_parser _map
_next_ key
_node _types
_not empty
_not ify
_ns_ set_
_or _
_or _moe_norm
_order _
_owner Element
_p res
_parameter _count
_part ies
_partial s
_pre vious
_pres plit
_print ables
_pro g
_q k_norm
_raise Failure
_re leaseLock
_re st
_read into
_remain ing_time
_req _host
_return _annotation
_ro ws
_router_logit_magnitude _stats
_s anitize
_s ave
_s yntax
_sent ence_end
_sentence_end ings
_set_ stopinfo
_state _exact_match
_step _seconds
_string _to_bytes
_sub st
_t ls
_t p_cache
_to _fd
_to _obj
_token _trace
_top k_idx
_total _breakdown
_type _repr
_valid _mask
_wait _semaphore
_work _queue
`` ).
a _base
a zy
ac f
accept Node
activation _checkpointing
actual Encoding
ad map
add Handler
agger ed
ak ing
al ancing
am W
ans wer
ant ics
app ed
append left
as ics
as ses
assert Equal
at ic
ate _lock
attach ment
b alance
base _std
batch _index
best j
bj unk
bot frame
bu ffers
buffer _callback
builtin s
builtin s__
bytecode _path
c gi
c lip
ca file
call _args
call _later
capt ure
cb _type
ce ler
cept HookArgs
char set_
class _name
client _address
close _matches
cmd line
co _
co pe
co unt_diff
co unter
complex __
con structor
con ver
confi r
confir med
conflict _handler
cons istent
cont iguous
copy file
ct ypes
cuda _driver_version
curs ionError
d iagnostic
d ominant_
d t
data set
de op
default_ metavar
default_metavar _for
del ta
delimit ed
dense _config_path
dev major
dev minor
diag _ref
direct ly
display ing
doc md
e ce
e ffort
e ither
e lif
ed Report
emp orary
en codable
encoded _string
ener Director
ent er_
ent inel
eof _received
er_state _dict
et s
et ype
etri eve
event _name
ex cel
ex ponent
ex pression
example s
exception _handler
expand user
extract _stack
f _e
fail ures
fic ult
file _or_filename
fin der
find _class
flat _token_index
format ted
from file
from lines
g mtime
gauss _next
ger_ name
get Event
get p
get peername
get while
get_ handlers
get_ labels
get_ sequences
gethost name
gh ijk
ghijk lm
ghijklm n
ghijklmn op
gi _code
gi _frame
globals __
group dict
gs ize
h an
h its
h r
handle _defect
has _location
header _factory
header_ encode
heap push
http_error _
i gsize
id able
ig ure
ildcard Selector
implement ed
in cip
in ode
in validate_caches
ind ic
init eness
initial ize
ins ic
instance s
ion al
is EnabledFor
is identifier
ise t
it ro
ited _fds
items ize
iter find
itro u
ization Config
jo int
k l
k usage
keep ing
l ittle
l p
late st
le t
level no
line junk
ln k
load er_state
log _traceback
m argin
m atched
m ixin
ma gnitude
max _trace_tokens
me m
medi ate
member _by
message _body
method _a
method name
min imum
moe _cfg
mon d
monstr ation
ms pec
mut ated
n FAILED
n _rep
n ight
named _parameters
new Child
no _type_check
ns_ attrs
obj __
obj id
ocp Proactor
ol low
ones _like
open_ osfhandle
oper ation
option _callback
option als
orig name
out _new
out _ref
override s
p atterns
p inned
p thread
pack _into
paration _data
parse String
pdb rc
pe ercert
pick lable
place holder
place ment
popen args
precision _label
prev _row
print ed
pro perties
put _nowait
py bytes
qu ot
queue s
r ing
r split
r type
r ule
ram ing
re mote
re use
read link
repro ducibility
req s
res ources
result_ unless
result_unless _cancelled
resume _reading
reversed __
ro t
router_ input_dim
ru ption
run ctx
run s
s yntax
s_to _yield
safe _for_unpickling__
samp ler_state
sb dataq
segment _name
send _response
seq _position
sequ ently
set Formatter
set attr
shake _
shift __
sil u
size _diff
skip keys
source _path
source file
stand alone
str error
str ftime
t wo
tb _lineno
tb _locals
terrupt _handler
test Runner
test _context_sensitivity
text s
thread _wakeup
token s_per_second
total _valid_tokens
trans p
trans pose
type _comment
type _params
u ary
u ate
uff le
ul ates
ull DOM
um bing
ume d
un changed
unpack _from
up _proj
user agent
ut ime
ut ions
v isible
var args
velo pe
w p
w rote
wap _current_task
word chars
writ able
x attr
xff ff
ye ball
{ "
} ]'
Ċ ĊĠĠĠĠĠĠĠĠĠĠĠĠĠ
ĊĠĠĠĠĠĠĠĠĠĠĠĠĠĠĠĠĠĠĠĠĠĠĠĠĠĠĠĠĠĠĠĠĠĠĠĠ ĠĠĠĠĠĠĠĠĠĠĠĠĠĠĠ
ĊĠĠĠĠĠĠĠĠĠĠĠĠĠĠĠĠĠĠĠĠĠĠĠĠĠĠĠĠĠĠĠĠĠĠĠĠĠĠĠĠĠĠĠĠĠĠĠĠĠĠĠĠ Ġ
Ġ 51
Ġ 511
Ġ 55
Ġ 56
Ġ 84
Ġ 99
Ġ lif
Ġ ug
ĠĠĠĠĠĠĠĠĠĠĠĠĠĠĠĠ ĠĠĠĠĠĠĠĠĠĠ
ĠĠĠĠĠĠĠĠĠĠĠĠĠĠĠĠ ĠĠĠĠĠĠĠĠĠĠĠ
Ġ" '"
Ġ" =
Ġ"' ":
Ġ% -
Ġ' (-
Ġ' >'
Ġ' |
Ġ'(- *
Ġ'** '
Ġ'- ':
Ġ'-- '
Ġ'@ '
Ġ'[ ':
Ġ'\\ \\
Ġ'{ "
Ġ( '''
Ġ(" %
Ġ(? :\
Ġ(? <
Ġ* ([
Ġ* ********************************
Ġ*** '
Ġ+ ---
Ġ+-------+-------+-------+ --------+
Ġ+-------+-------+-------+--------+ --------+
Ġ---------------- --------
Ġ-------------------------------- --------
Ġ... ]:
Ġ1 88
Ġ100 000
Ġ3 986
Ġ4 5
Ġ5 700
Ġ7 5
Ġ7 6
Ġ8 192
Ġ9 7
Ġ:- )
Ġ< ---
Ġ< ==
ĠA C
ĠA R
ĠA bsolute
ĠABC Meta
ĠAL PN
ĠAccept ed
ĠAddress List
ĠAl ways
ĠApp ly
ĠB LKTYPE
ĠB efore
ĠBad GzipFile
ĠBase Server
ĠBase d
ĠBu ild
ĠBytes Generator
ĠC A
ĠC DATA
ĠC RE
ĠC SS
ĠC lear
ĠC ore
ĠC reates
ĠCONT ROL_BLOCK
ĠCan onical
ĠCla sses
ĠCol lect
ĠCol umn
ĠComp at
ĠCon st
ĠCon tinue
ĠCon venience
ĠConfig Parser
ĠConst ants
ĠD ENSE_
ĠD IGITS
ĠD ay
ĠD er
ĠD et
ĠD i
ĠD ispatch
ĠD ummy
ĠD upFd
ĠD ynamicClass
ĠDIR TYPE
ĠDe ci
ĠDe legate
ĠDef ects
ĠE BADF
ĠE mail
ĠE valuation
ĠElement Path
ĠEn coding
ĠEntry Po
ĠEntryPo ints
ĠEx it
ĠException s
ĠExecution Loader
ĠExp licit
ĠExp licitly
ĠF ail
ĠF igure
ĠFatal IncludeError
ĠFork Server
ĠFoundation Probe
ĠFunction Types
ĠH andlers
ĠH tmlDiff
ĠHTTP PasswordMgr
ĠI OT
ĠI te
ĠIN FINITE
ĠIOT A
ĠIP V
ĠIS _CHARACTER_JUNK
ĠInteractive Console
ĠJ an
ĠKE EP
ĠL N
ĠL ONG_
ĠLeg acy
ĠLo okupError
ĠM at
ĠMAX FD
ĠMay be
ĠModule NotFoundError
ĠMy Class
ĠN AME
ĠN um
ĠNL CRE
ĠNaN s
ĠNe ither
ĠNo Return
ĠNot Required
ĠO OM
ĠO bjects
ĠOption ally
ĠP ASSED
ĠP AX
ĠP RE
ĠP atch
ĠP ullDOM
ĠPar ameters
ĠPer form
ĠPri vate
ĠProbe Case
ĠProxy Type
ĠPy CF
ĠQu oted
ĠR ay
ĠREAD ME
ĠRED UCE
ĠRay mond
ĠRe lease
ĠRequire ments
ĠReview er
ĠS IZE
ĠS TO
ĠS afe
ĠS er
ĠS ort
ĠS yncManager
ĠSAX Exception
ĠSSL Error
ĠST ART
ĠSTO RE
ĠSe cond
ĠSe edReport
ĠSh ort
ĠSim ilar
ĠSocket IO
ĠSource Loader
ĠStop Async
ĠStopAsync Iteration
ĠStr uct
ĠStreamReader Protocol
ĠSub Pattern
ĠT ALL
ĠT EST
ĠT emplate
ĠT ools
ĠTextContext ProbeTemplate
ĠTyp ically
ĠU su
ĠUDP Server
ĠUn less
ĠUsu ally
ĠV AR
ĠWAIT_ OBJECT_
ĠWeak Set
ĠY ield
ĠZero Div
ĠZeroDiv ision
ĠZeroDivision Error
Ġ[ *
Ġ[' -
Ġ_ COMP
Ġ_ GeneratorContextManager
Ġ_ Parameter
Ġ_ Result
Ġ_ SSL
Ġ_ Spec
Ġ_ ast
Ġ_ byte
Ġ_ can
Ġ_ cancel
Ġ_ code
Ġ_ common
Ġ_ compat
Ġ_ const
Ġ_ exposed
Ġ_ fields
Ġ_ filename
Ġ_ filter
Ġ_ from
Ġ_ gn
Ġ_ heappop
Ġ_ hex
Ġ_ host
Ġ_ listener
Ġ_ node
Ġ_ non
Ġ_ nt
Ġ_ ord
Ġ_ prepare
Ġ_ put
Ġ_ q
Ġ_ replace
Ġ_ result_
Ġ_ router
Ġ_ set
Ġ_ start
Ġ_ system
Ġ_ trace
Ġ_ user
Ġ_COMP RESS_LEVEL
Ġ_Callable GenericAlias
Ġ_FIELD S
Ġ_FIELD _INITVAR
Ġ_M ain
Ġ_Parameter Kind
Ġ_Spec State
Ġ__ loader__
Ġ__ qualname__
Ġ__ safe_for_unpickling__
Ġ__i or__
Ġ__new obj__
Ġ_blocking _on
Ġ_call _with_frames_removed
Ġ_child ren
Ġ_coerce _args
Ġ_common _short
Ġ_common_short en
Ġ_common_shorten _repr
Ġ_compat _pickle
Ġ_create _fn
Ġ_de cimal
Ġ_e at_self
Ġ_escape _attrib
Ġ_exposed _
Ġ_f loor
Ġ_f unctools
Ġ_find _mime_parameters
Ġ_fix up
Ġ_get_ length
Ġ_get_code _position
Ġ_gn v
Ġ_hash lib
Ġ_in terrupt_handler
Ġ_is _d
Ġ_is _exception
Ġ_is _single
Ġ_is_d under
Ġ_is_single _bit
Ġ_iter tools
Ġ_load _registry
Ġ_local edirs
Ġ_nt uple
Ġ_ntuple _dis
Ġ_ntuple_dis kusage
Ġ_r ank
Ġ_re lease
Ġ_read _ready
Ġ_reduce _socket
Ġ_reduce_method _descriptor
Ġ_s qrt
Ġ_sift down
Ġ_signature _get_
Ġ_signature _is
Ġabort ed
Ġac celer
Ġac curacy
Ġaccess ing
Ġad versarial
Ġadd _child_handler
Ġadd end
Ġadvert ised
Ġallow _broadcast
Ġallow _special_forms
Ġan no
Ġapproxim ate
Ġapproxim ately
Ġarchitect ural
Ġarg_strings _pattern
Ġargs _string
Ġass erts
Ġassert Is
Ġattack s
Ġattemp ted
Ġauto matic
Ġav ail
Ġb ar
Ġb lake
Ġb payload
Ġbas is
Ġbe hind
Ġbp list
Ġbp number
Ġbracket ed
Ġbuffer _callback
Ġby testream
Ġc _make
Ġc e
Ġc gi
Ġc ir
Ġc mp
Ġcal ibr
Ġcalled funcs
Ġcan onic
Ġcandidate _ids
Ġcap able
Ġcar ri
Ġch ance
Ġcheck _hostname
Ġcheck point_
Ġcheckpoint ing
Ġcl s_
Ġcla use
Ġclass Name
Ġcle ared
Ġclear s
Ġclose _source
Ġco ls
Ġco ur
Ġcolumn Types
Ġcome s
Ġcompute _artifact_hashes
Ġcompute _router_z_loss_raw
Ġcon tribute
Ġconf l
Ġconfig parser
Ġconstra int
Ġcontext ual
Ġcontinu ous
Ġcopy stat
Ġcor ner
Ġcor rupted
Ġcorrespon d
Ġcreate _connection
Ġcreation flags
Ġcur dir
Ġcurrent Class
Ġd fn
Ġd ro
Ġd uplex
Ġd ynamically
Ġdata _len
Ġdata set_identity
Ġde e
Ġde tach
Ġdelimit ed
Ġden om
Ġdepend ent
Ġdescriptor _type
Ġdet ached
Ġdevelo pment
Ġdi ver
Ġdir check
Ġdir names
Ġdis crete
Ġdot lock
Ġdrop out_a
Ġdropout_a udit
Ġdump s
Ġed itable
Ġedit ing
Ġel _tag
Ġen ables
Ġencoded _value
Ġend Element
Ġend _time
Ġenfor ced
Ġenum _method
Ġenum _type
Ġerror msg
Ġerrpipe _write
Ġex ctype
Ġexerc ises
Ġexha ust
Ġexp ired
Ġexp lan
Ġexpert_ ids
Ġexplan ation
Ġextraction _root
Ġf abs
Ġf initeness
Ġf rag
Ġfa iling
Ġfa v
Ġfallback _operator
Ġfile Name
Ġfile _or_filename
Ġfinal ize
Ġfinish ing
Ġflat _idx
Ġflat _valid
Ġfor ces
Ġformat _exception
Ġfound _diff
Ġframe _gen
Ġfrom data
Ġfull bcount
Ġfunc s
Ġgener ates
Ġget LevelName
Ġget Logger
Ġget addrinfo
Ġget item
Ġget_ all
Ġget_ close_matches
Ġget_ domain
Ġget_ message
Ġget_ metavar
Ġget_ obj
Ġget_ phrase
Ġget_ q
Ġget_ token
Ġget_invalid _mailbox
Ġgetproxies _environment
Ġgroup ed
Ġhass pace
Ġhdr charset
Ġhe lo
Ġhe ur
Ġhost _enc
Ġhttp d
Ġhyp hen
Ġi i
Ġidentify ing
Ġignore _dangling_symlinks
Ġimp licitly
Ġimp lies
Ġimport able
Ġin cref
Ġincrement ed
Ġindic ator
Ġinitial _output
Ġins pection
Ġinstr ument
Ġinter pol
Ġintern ational
Ġintro duced
Ġis _alive
Ġis _pathological
Ġis future
Ġis_pathological _routing_oscillation
Ġiter ations
Ġl d
Ġl spec
Ġla ck
Ġlay er_
Ġleft_ anchor
Ġlineno _width
Ġlines _to_write
Ġlist _of_data
Ġload _eval_fixture
Ġlocal _sys
Ġlog _event
Ġlong Message
Ġloss less
Ġm acOS
Ġmail _options
Ġmain _module
Ġmat hematical
Ġmat mul
Ġmax _bits
Ġmember _map
Ġmessage _body
Ġmetrics _by_layer
Ġmin _pair_frequency
Ġmixin s
Ġmonit or
Ġn esting
Ġn gettext
Ġn il
Ġn p
Ġna ive
Ġne are
Ġneare st
Ġnew _layer
Ġnew _list
Ġnew addr
Ġnormalized _entropy
Ġnot empty
Ġnt path
Ġobject ive
Ġop ens
Ġop name
Ġoptim ize
Ġoption _tuple
Ġorig name
Ġout _dir
Ġout _normal
Ġout _ref
Ġp inned
Ġp m
Ġp ump
Ġparent_ r
Ġparent_ w
Ġparse String
Ġparsed ate
Ġpe op
Ġper mitted
Ġper_ layer
Ġphys ical
Ġpickle code
Ġpo inter
Ġpop s
Ġport _specified
Ġposonly _left
Ġpr incip
Ġpre serving
Ġprefix _chars
Ġprincip le
Ġpro hibited
Ġprobe _case
Ġprobe _text
Ġprofile s
Ġproject ions
Ġpub lished
Ġput request
Ġpy expat
Ġq attrs
Ġq op
Ġq s
Ġqk_norm _parameter_count
Ġqu opri
Ġquadr atic
Ġr andbelow
Ġr ng_state
Ġrc pt
Ġre cipient
Ġre lation
Ġre lax
Ġre m
Ġre pair
Ġre pairs
Ġre ve
Ġrecursive _g
Ġrecursive_g uard
Ġreg exp
Ġreg ister_
Ġrelation sh
Ġrepeat s
Ġrepresent ations
Ġrequire s_grad
Ġrer un
Ġreset s
Ġresol vable
Ġresol ves
Ġresolved _path
Ġrespon ses
Ġrest rict
Ġresult_ queue
Ġret code
Ġro tation
Ġrouted _only
Ġrun ctx
Ġs ax
Ġs core
Ġs ing
Ġs izes
Ġsat uration
Ġscal ing
Ġscan ned
Ġschedul ing
Ġscheme s
Ġse em
Ġse ns
Ġsearch ing
Ġsect dict
Ġsect name
Ġseed ing
Ġself _tuple
Ġsepar ation
Ġset default
Ġset_ attrs
Ġset_ event_loop
Ġshared _memory
Ġshift_ labels
Ġshow ing
Ġsimilar ly
Ġsimp li
Ġsimultaneous ly
Ġskip _file_prefixes
Ġskip first
Ġsmtp lib
Ġsock_recv from
Ġspec _loader
Ġspec s
Ġspec_from _file_location
Ġspeed up
Ġsplit chars
Ġsplit s
Ġsplit ting
Ġst dev
Ġst ra
Ġstart TestRun
Ġstop lineno
Ġstra ight
Ġstrict _parsing
Ġstrip quotes
Ġsu bject
Ġsub st
Ġsub string
Ġsub system
Ġsubstit utions
Ġsupp lying
Ġswit ched
Ġt d
Ġt ied
Ġt type
Ġt unnel
Ġte lemetry
ĠtearDown Class
Ġtemp orarily
Ġtensor s
Ġtermin ation
Ġtest Runner
Ġtest _item
Ġtest _no
Ġtest _s
Ġtest able
Ġthrough put
Ġto file
Ġto uch
Ġtool ing
Ġtotal _tokens
Ġtp _dict
Ġtr ust
Ġtrain _tokenizer
Ġtrans parent
Ġtre es
Ġtruth ful
Ġty ing
Ġug ly
Ġun ion
Ġun like
Ġun shifted
Ġun wrapped
Ġunderscore _numbers
Ġunexpected Successes
Ġunexpected ly
Ġung ated
Ġuniform ly
Ġused _args
Ġuser _passwd
Ġutil ities
Ġverify _artifact_hashes
Ġversion changed
Ġw atch
Ġwant ed
Ġwild card
Ġwindows_ utils
Ġwor se
Ġwrit exml
Ġxml builder
Ġy bar
! !
! ='
" ({
"< {
"} )
# '
######################################################################## ######
'' ')
( "",
(" -
("/ "):
("> ",
("{ ",
(' $
() -
([ ])
({ })
) (?
) **
)) ?
): #
+ \
+$ ",
+) \
-- +
." .
... ")
/ <
/ `)
0 79
00 49
00 78
0009 0
01 34
01 44
01 86
014 64
02 02
02 15
02 89
03 01
05 04
05 74
06 57
1 08
1 76
100 00
12 54
12 99
129032258064 51
1290322580645161 3
15 8
18 3
19 4
19 6
19 66
2 32
2 66
2 67
2 84
2 89
202 2
21 74
24 06
25 24
26 8
27 2
29 3
29 6
30 3
30 84
3064 516129
3064516129 032
33 0106
34 2
34 52
35 24
35 48387
3548387 096774
4 01
4 16
4 56
4 77
47 3
5 24
5 34
5 43
51 86
6 00090
6 85
66 8
7 54
75 8064516129032
76 32
77 5
8 01
84 1
85 5
86 2
88 09
887 0967741935484
89 4
91 38
: {
; .
= ('
= +
= ,
= <
=' <
================================ ============
={} ):
> )
> {
? (\
@ %
A I
A ST
A ug
A ware
AB ILITY
AD E
AL I
AL S
AL _DIR
ALLOW ED
ANONICAL _CONT
ANONICAL_CONT EXT_
ANONICAL_CONTEXT_ PRO
ANONICAL_CONTEXT_PRO BE_
ANONICAL_CONTEXT_PROBE_ TEMPL
ANONICAL_CONTEXT_PROBE_TEMPL ATES
APP ING
AR Y_
ARG S
ATCH SIZE
ATTRIBUT E
Add r
Any Str
Asyncio Runner
B ar
B asics
B db
B ound
B oundedSemaphore
Bound Mixin
Builtin FunctionType
C D
C LU
C lash
C reates
CE_ NODE
CE_ T
CE_T OL
CE_TOL ER
CE_TOLER ANCE
CONT ROL_BLOCK
Char set
Character Stream
Clash Error
Con ver
Config ure
Create Pipe
D ED
D IS
D TYPE
D et
D uration
D urations
DOC TYPE
Datagram Transport
Destination Error
E ach
ELL IP
ELLIP SI
ELLIPSI S
ESC APE_
EX DIGITS
Effective Level
Ex ternal
F L
F P
F UNCTION
F ield
FACTOR Y
FF N
FI ER
FI FO
FILE_FLAG_ OVERLAPPED
FIRST_ EXCEPTION
G MT
G it
Get ExitCodeProcess
Git Hub
H DTYPE
HAS _DEFAULT_
HAS_DEFAULT_ FACTORY
HTTP _
He lo
Helo Error
I ELD
I VA
IN ST
ING_ CODES
IO _PENDING
IVA LEN
IVALEN CE_TOLERANCE
In correct
In sert
Inter preter
Iter ate
JSON Encoder
L ic
LE ARNED_VOCAB
LIC ENSE
LO ST_
LOG_ THRESHOLD
LOG_THRESHOLD _FOR
LOG_THRESHOLD_FOR _CON
LOG_THRESHOLD_FOR_CON N
LOG_THRESHOLD_FOR_CONN LOST_
LOG_THRESHOLD_FOR_CONNLOST_ W
LOG_THRESHOLD_FOR_CONNLOST_W RIT
LOG_THRESHOLD_FOR_CONNLOST_WRIT ES
Lic ense
List Separator
Loader Basics
Loop BoundMixin
M ISSING
M ON
M etadata
M ulti
MOD E_
MOD I
MS G
MS _WINDOWS
Missing Required
MissingRequired Value
Multiple O
MultipleO bjects
NAME S
NEVER _CHECK
NL CRE
NOT ATION
NOT_ FOUND
Namespace DeclHandler
Norm al
Not Read
NotRead y
O IZE
OM _
OM_ UTF
OP TIONAL
OR K
OS T_
OSITIONAL_ OR_KEYWORD
Of Block
On Close
P F
P ort
P osixPath
PROTOCOL _SSLv
Par ameters
Pro to
ProcessingInstruction Handler
Q Name
QU IVALENCE_TOLERANCE
RESERVED_CONTROL _COUNT
RI GH
RO KEN
Reg isters
Res ort
Rot ating
S PECIALS
S Z
S afe
S at
S onnet
S ort
S tore
S upports
SE CT
SEEK _SET
SH ORTEST
SH U
SHU T_
SP ARSE
STAR _FORMAT
STATE_ CON
STR _TO_
STRU CT
STR_TO_ ID
Send er
Set tings
Socket Transport
St andard
T IME
T emporary
T otal
TR A
TRACE BACK
TYPE_ NODE
T_D IGIT
Task Group
The se
Threading MixIn
To Level
Too Long
Transform er
Transport Socket
Type EqualityFunc
Types _with
Types_with _children
U OUS
UDP Server
UL TI
Un i
Un recognized
Un register
VAR ARGS
VAR _POSITIONAL
Visit or
W ARD
W D
W IDTH
W ITH
W akeup
W ed
Write Error
YE AR
YNC _GEN
Z a
[: ]:
\ '
] "
] ],
] `,
] {
]) ]
^ '
_ ALL
_ REP
_ V
_ VALUE
_ abc
_ archive
_ errno
_ indices
_ json
_ link
_ oc
_ u
_ uid
_ zip
_B EST
_C ASE_INSENSITIVE_PLATFORMS
_CODE BITS
_CONT ENT_
_COROUT INE_
_D ATA
_DEPREC ATED_
_E QUIVALENCE_TOLERANCE
_EX ISTS
_H ANDSHAKE_
_H DN
_J UMP_IF
_M ADE
_PRO TOCOL
_S ERVER
_S KIP
_START ED
_T IME
_T UPLE
__ defaults__
__ log_traceback
__ ne__
__ suppress
__a exit__
__del attr__
__suppress _context
__suppress_context __
__unittest_skip __
_abort ing
_accept _futures
_add _action
_al gorithms
_and_ optimized
_app _reading_paused
_at tach
_attr _info
_auth _req
_auth_req ed
_auto cast
_await s
_buf size
_by _param
_bytes _to_id
_c atalog
_c erts
_cancel s
_cancelled _error
_cancels _requested
_ch anged
_ch ksum
_ch oice
_chain s
_check _running
_checkpoint_ payload
_code d_value
_col lect
_com m
_computed _values
_context_ advertised
_cur sor
_d opro
_daemon ic
_data _received
_data set
_de compressor
_do _read
_dopro mpt
_dtd _handler
_ep ipe
_exact ly
_exit _callback
_f ormatter
_fetch _parse
_file pos
_finalizer s
_fold _literal
_from _path
_from _spec
_full _url
_func _ref
_future _blocking
_g ot
_gener al
_gener ation
_get_ handler
_got _empty_message
_h op
_h yphens
_hand _computed_values
_handshake_timeout _handle
_in crement
_in dependent
_in ference
_in queue
_init args
_initial ization
_inter val
_l ongest
_le ading
_le gal
_lex ical
_lo gger
_lo gs
_loading _pack
_loading_pack ages
_local _proxy
_local name
_local_proxy _obj
_m angle_from_
_m irror
_ma cos
_macos x
_macosx _sys
_macosx_sys conf
_main pyfile
_match _hand_computed_values
_match ing
_member __
_member_ names
_meta info
_mirror Output
_mock_call _signature
_model _expert_gradient_norms
_module SetUpFailed
_name _prefix
_neg _zero
_nonfinite _event
_num _cancels_requested
_on _defect
_on _error
_on _hyphens
_p atterns
_p ie
_p ream
_parent_ task
_path _cache
_pending _work_items
_pie ces
_position als
_pream ble
_protocol _paused
_raw _paths
_re build
_re gression
_re ject
_reduction _fraction
_reference _and_optimized
_rel ative
_rel path
_request line
_root _seen
_router_logits_and _probs
_routing _is_detected
_s leeping_count
_s upported
_set_ result_unless_cancelled
_shutdown _called
_shutdown_timeout _handle
_sil ent
_single s
_singles _mask_
_socket_ func
_spec _class
_specifi c
_st andard
_st rict
_standard _active
_string _prefixes
_suffix es
_tail _cached
_task _generation
_to _token
_to_ unicode
_top_k _weights
_transform _codes
_type vartuple
_und er_
_unpacked _typevartuple
_up per
_update _filepos
_url safe
_user _password
_w el
_w here
_w oken_count
_wait _handle
_wait_for _mainpyfile
_wel u
_with out
_work er_handler
_work tree
_worktree _clean
_wrapper _chains
_writ able
_z ombies
a ining
a uxiliary
a verage
abc s
abcdef ghijklmnop
abs __
ac c
ac lose
add _password
add infourl
al ready
al ternative
all _tasks
alloc ate_lock
allow _nan
allow ance
always_ iterable
amb iguous
answer ed
appro ach
ar win
architecture _cfg
arded _task_generation
arg values
armonic _mean
as _integer_ratio
as c
at ivity
attribute _name
b _base
b alancing
b eta
ba ce
back upCount
base URI
be havi
bl ue
block _norms
boun ded
bra ced
bu ilt
byte level
c dirpath
c msg
cal culate
cal lable
call er
called _with
canonical _result
cd _import
cdata _sections
cent er
ch dir
check _hostname
check group
check s
col s
collect ed
com mitted
commands _doprompt
commands _silent
comp act
con vert_
config _path
core _control
coro _or_future
coroutine _origin_tracking
cr _code
cr _frame
create Document
create _entity_ref_nodes
crete _contexts
cum ulative
cur dir
d arwin
d l
de leted
de tails
de tect
dec ay
ded uplicate
default_ name
default_ namespace
delete __
dense _ffns
dest ination
dict s
dif ference
dis joint
do uble
e al
e u
ear son
ed irect
ed u
ehlo _resp
empty _cache
en ed
enc ing
encoded _word
ending _lm_loss
enter_ context
enum erate
er_ sentinels
erc ise
ertificate Error
et Settings
et ween
ex clusive
exit _pid
exp licitly
f get
f loordiv
ffn _norm
fi es
fi fo
field _names
file Mailbox
fill _rawq
filter _function
finished _futures
float __
fol der
forkserver _preload
format year
format_exception _only
full match
g reedy
generic _visit
get members
get state
get_ bpbynumber
get_ extra_info
get_ matching_blocks
get_ nowait
get_ opcodes
get_ ready
get_ time
git _worktree_clean
guess _type
h ist
h ow
handle s
header_ encoding
headers _sent
hem as
hra ses
i con
i xture
id_to _local_proxy_obj
if o
ignore _environment
imp licit
import _module
in cref
in sensitive
in terrupted
include s
index ed
inser t_
invert __
is _closing
is _package
is _reading
is c
is disjoint
is future
is lnk
is reg
isp lace
isplace d
ist ed
ist ency
ist ically
ist ries
istr ation
it self
iter keys
j oining
k s
kw defaults__
lang u
last _values
lax _case
le e
lect Selector
less FileLoader
local _hostname
logit _softcap
m ation
m cls
m t_
m u
ma gics
mail host
max _group_depth
max len
member _map
min idom
month dates
msg _id
msg id
n umpy
namespace _declarations
nd im
new _session
nl _long
node s
non zero
od al
ol ation
om or
omor ph
omorph ic
on al
oo lean
op h
or iented
orth and
output _combination
override s_
overrides_ xml
overrides_xml _encoding
p acing
p added
p an
p itrou
par t_
partial method
patch ings
path _hooks
pause _reading
peak _memory
pect Loader
pecting _failure
pickle _file
plan ned
po variate
pol ate
pop ulation
pre paration_data
prefix ed
protocol _attrs
py dict
py int
py list
py tuple
pycache _prefix
python ware
q _norm
q k_norms
q rst
q s
qk_norm _placement
qrst uv
qrstuv w
qrstuvw xyz
qu ared
r ank
raw _requestline
rc Lines
re at
re po
re present
read _bytes
read _data
recv _into
redirected _hdrs
ref count
ref using
res p
reserved _control
reset_ mock
residual _scale
result_ item
resume _writing
resume d
ri ch
ro uble
rout ers
router _softmax_dtype
router_ output_dim
router_logits _dtype
routing _kind
s k
s pecials
s upports
s_ completed
se maphore
sem antic
sem antics
separ ate
ser vice
server _address
set_ gradient_checkpointing
set_ subdir
shared _experts
shared_expert_ always_active
shared_memory _context
short en
shutdown _lock
side DestinationError
simple filter
sli ding_window
slo pe
sort_arg _dict
source _hash
sp an
special _token
ss lobj
st md
start_ offset
start_ time
string nl_noescape
sub set
success or
t str
tab size
test _experiment
test_model _losses
th ere
the y
through put
tim ings
time zone
to pop
token _id
token ization
total _tt
tr usted
transport s
ug gest
ul ating
um ask
ump tions
un redirected_hdrs
uni versal_newlines
url unparse
us ually
var arg
verify _mode
very _lazy
vi al
vi ves
w Flags
w ide
whitespace _in_element_content
width s
will _close
with in
x bar
x e
xFFFF FFFF
y per
y zen
yp ed
ypedDict Meta
z es
zero _grad
} ':
} .",
} >"
Ċ ĊĠĠĠĠĠĠĠĠĠĠĠĠĠĠĠĠĠĠĠĠĠĠĠ
ĊĠĠĠĠĠĠĠĠĠĠĠĠĠĠĠĠĠĠĠĠĠĠĠĠĠĠĠĠĠĠĠĠĠĠĠĠĠĠĠĠĠĠĠĠĠĠĠĠĠĠĠĠ ĠĠ
ĊĠĠĠĠĠĠĠĠĠĠĠĠĠĠĠĠĠĠĠĠĠĠĠĠĠĠĠĠĠĠĠĠĠĠĠĠĠĠĠĠĠĠĠĠĠĠĠĠĠĠĠĠ ĠĠĠĠĠĠĠĠĠĠĠ
Ġ ]:
Ġ queued
Ġ umask
ĠĠĠĠĠĠĠĠĠĠĠĠĠĠĠĠ ĠĠĠĠĠĠĠĠĠĠĠĠĠ
Ġ" ["
Ġ" |
Ġ" ~
Ġ""" \
Ġ"$ "
Ġ") "):
Ġ", "
Ġ"] "
Ġ"] "):
Ġ"} "):
Ġ# --------------------------------
Ġ# ...
Ġ#-------------------------------- ------------------------------------------
Ġ' '):
Ġ' ('
Ġ' )'
Ġ' ).
Ġ' ...'
Ġ' |'
Ġ' }'
Ġ' ~
Ġ'! ':
Ġ'% '
Ġ'& #
Ġ'' ).
Ġ'// '
Ġ'> ':
Ġ'\\ '
Ġ((( ((
Ġ((((( ((
Ġ********************************* ****************
Ġ+ ----------------
Ġ+-------- -+
Ġ- ,
Ġ... )
Ġ11 7964
Ġ117964 80
Ġ199 8
Ġ2 41
Ġ2 50
Ġ2 70
Ġ200 7
Ġ3 03
Ġ4 4
Ġ8 7
Ġ< ,
Ġ<== >
Ġ= ",
Ġ================= =======
Ġ================================= ================
Ġ@ @
ĠA ccess
ĠA rena
ĠALL _COMPLETED
ĠAPI s
ĠAs ynchronous
ĠAss uming
ĠAt tempt
ĠAtom ic
ĠB AD
ĠB RANCH
ĠB inaryIO
ĠB oundedSemaphore
ĠBad StatusLine
ĠBase CGIHandler
ĠBase Handler
ĠC M
ĠC ODE
ĠC l
ĠCONT ENT_
ĠCORE _CONTROL
ĠChar acters
ĠComp ute
ĠCon catenate
ĠD OCU
ĠD ate
ĠD iagnostics
ĠD up
ĠDE VNULL
ĠDENSE_ PATH
ĠDOM Implementation
ĠDef init
ĠDer ived
ĠDesc ription
ĠDis able
ĠDocument Type
ĠE OO
ĠE llipsis
ĠE scape
ĠEN D
ĠEOO H
ĠElement Info
ĠEn g
ĠEn ter
ĠEn tries
ĠEng lish
ĠEnvironment Identity
ĠEx pression
ĠExt ension
ĠExternal ClashError
ĠF LO
ĠF ORMAT
ĠF lush
ĠF ollow
ĠF oo
ĠF orkingPickler
ĠFFN s
ĠFIRST_ EXCEPTION
ĠFile Type
ĠFin ally
ĠG C
ĠG IL
ĠG overnance
ĠG rad
ĠG uido
ĠGNUTYPE_ SPARSE
ĠGNUTYPE_LONG LINK
ĠH EXDIGITS
ĠHE ADER
ĠHeader ParseError
ĠHeader Registry
ĠHeader WriteError
ĠHel pers
ĠI Map
ĠI ocpProactor
ĠI solatedAsyncioTestCase
ĠImport Warning
ĠInt Flag
ĠInterpolation SyntaxError
ĠJ UMP_IF
ĠJava Script
ĠK n
ĠKn uth
ĠL MTP
ĠL ib
ĠL ines
ĠLO C
ĠLiteral String
ĠLo op
ĠLoad Error
ĠM SI
ĠM ac
ĠM ain
ĠM etadata
ĠM issing
ĠM onth
ĠMERCHANT ABILITY
ĠMake ProxyType
ĠMethod Type
ĠModule Spec
ĠMon day
ĠN B
ĠN O_
ĠN VIDIA
ĠN ull
ĠName s
ĠNonCallable MagicMock
ĠNot ation
ĠO b
ĠO rder
ĠOP EN
ĠOP _NO
ĠOp enerDirector
ĠOper ations
ĠOptim ization
ĠOptim ized
ĠOption s
ĠP M
ĠPOP _JUMP_IF
ĠPRO TO
ĠParameter Breakdown
ĠPass ing
ĠPipe Connection
ĠPlace Holder
ĠPosition als
ĠPretty Printer
ĠPri mary
ĠPro b
ĠProb ably
ĠProbe Variant
ĠR uns
ĠREQU IRED
ĠRa ised
ĠRaw Array
ĠRe cursionError
ĠRep os
ĠRepos itory
ĠRes ponse
ĠReserved Control
ĠResource Loader
ĠRo ot
ĠRo ss
ĠRoss um
ĠRot aryEmbedding
ĠRout ed
ĠS AJ
ĠS S
ĠS U
ĠS ingle
ĠS yntax
ĠSAJ IP
ĠSAX Parse
ĠSAX Reader
ĠSAXParse Exception
ĠSAXReader NotAvailable
ĠSIG INT
ĠSMTP HeloError
ĠSMTP UTF
ĠSP D
ĠSPD X
ĠSRE_FLAG_ VERBOSE
ĠSSL A
ĠSSLA gain
ĠSSLAgain Errors
ĠSc hema
ĠSer ial
ĠSkip Test
ĠSome times
ĠSource lessFileLoader
ĠStatistic Diff
ĠT ODO
ĠT otal
ĠT ransport
ĠT run
ĠTO KEN
ĠTask s
ĠTest s
ĠText TestRunner
ĠText Wrapper
ĠU ses
ĠU tility
ĠUN KNOWN
ĠURI s
ĠUnique AddressHeader
ĠV IN
ĠVIN AY
ĠValue s
ĠW R
ĠWS A
ĠXXX X
ĠZ ERO_OR_MORE
Ġ[ '.
Ġ_ NODE_
Ġ_ OrderedDict
Ġ_ ResultMixin
Ġ_ STY
Ġ_ Server
Ġ_ attrs
Ġ_ buffer
Ġ_ builtin
Ġ_ chain
Ġ_ clone
Ġ_ deduplicate
Ġ_ encoded
Ġ_ ge
Ġ_ git_commit
Ġ_ git_status_porcelain
Ġ_ global
Ġ_ group
Ġ_ h
Ġ_ help
Ġ_ join
Ġ_ json
Ġ_ keep
Ġ_ locale
Ġ_ mk
Ġ_ print_
Ġ_ proto
Ġ_ py
Ġ_ round
Ġ_ sh
Ġ_ special
Ġ_ stat
Ġ_ string
Ġ_ try
Ġ_ xml
Ġ_AS N
Ġ_C lient
Ġ_CS_ IDLE
Ġ_F orkingPickler
Ġ_GiveupOn Sendfile
Ġ_MAX LINE
Ġ_P ENDING
Ġ_S entinel
Ġ_S pecial
Ġ_STY LES
Ġ_T elnet
Ġ_Telnet Selector
Ġ_Thread Wakeup
Ġ_UN SET
Ġ_Work Item
Ġ__ args__
Ġ__ float__
Ġ__ package__
Ġ__del attr__
Ġ__mro _entries__
Ġ_asdict _inner
Ġ_cal lable
Ġ_call _connection_lost
Ġ_check Level
Ġ_clone _node
Ġ_co unt_diff
Ġ_col lect
Ġ_complete _bp
Ġ_complete _location
Ġ_complete_bp number
Ġ_default_ context
Ġ_f atal_error
Ġ_f old
Ġ_find _spec
Ġ_format _range
Ġ_frozen_importlib _external
Ġ_g cd_import
Ġ_g t_
Ġ_get_ const
Ġ_get_ running_loop
Ġ_get_name _info
Ġ_hash _add
Ġ_imp l
Ġ_in line
Ġ_inline _cache
Ġ_inline_cache _entries
Ġ_is _async
Ġ_is _dataclass
Ġ_is _param
Ġ_is finite
Ġ_is_dataclass _instance
Ġ_is_param _expr
Ġ_l t_
Ġ_load _to
Ġ_load_to k
Ġ_local ized
Ġ_mbox MMDFMessage
Ġ_n ss
Ġ_name _list
Ġ_node Types_with_children
Ġ_nss plit
Ġ_over load
Ġ_parent_ h
Ġ_parent_h refs
Ġ_path _stat
Ġ_pickle _p
Ġ_pickle_p s
Ġ_posix sh
Ġ_posixsh mem
Ġ_python _exe
Ġ_r mt
Ġ_re construct
Ġ_re quires
Ġ_read _exact
Ġ_rebuild _socket
Ġ_rmt ree_
Ġ_run _finalizers
Ġ_s wap_current_task
Ġ_select _from
Ġ_sh adowed
Ġ_shadowed _dict
Ġ_shutdown_locks _lock
Ġ_sock _sendfile
Ġ_split attr
Ġ_split passwd
Ġ_tuple _str
Ġ_warn _un
Ġa _localname
Ġa _s
Ġa utonomous
Ġab cd
Ġacc ident
Ġaccepted _values
Ġaccum ulate
Ġaccum ulator
Ġaccur ate
Ġaction _tuples
Ġactive _children
Ġad r
Ġadd _qname
Ġaddr s
Ġadr str
Ġaffect ed
Ġaggreg ation
Ġal location
Ġalign ment
Ġall _callees
Ġall simple
Ġallow_reuse _address
Ġan cdata
Ġapp lying
Ġarchive _dir
Ġarg tuple
Ġargument _default
Ġas ctime
Ġassert_ called_once
Ġassert_ spawning
Ġattention _bias
Ġattribute _list
Ġb a
Ġb atches
Ġb om
Ġb order
Ġbase _name
Ġbase _std
Ġbase _url
Ġbe ha
Ġbe long
Ġbisect _right
Ġblock _norms
Ġbo ok
Ġbody _lines
Ġbootstrap ping
Ġbound s
Ġbreak down
Ġbs _buf
Ġbu mp
Ġbuild _attention_mask
Ġbyte string
Ġbytes _types
Ġc ance
Ġc ells
Ġc ert
Ġc lip
Ġcall _item
Ġcall method
Ġcance led
Ġcancel _futures
Ġcare ful
Ġcert_ reqs
Ġcheck _string
Ġcheck sig
Ġcheck_string _type
Ġchild clone
Ġcir cum
Ġclass _type
Ġclient _connected_cb
Ġcm _exit
Ġcmd loop
Ġco er
Ġco gn
Ġco mplement
Ġcode d
Ġcogn itive
Ġcollect ing
Ġcols pan
Ġcom ing
Ġcomb ine
Ġcomb ining
Ġcomment _start
Ġcomp os
Ġcompreh ensions
Ġcomput ing
Ġcompute _expert_pair_coactivation
Ġcon j
Ġconcaten ated
Ġconflict ing
Ġcons isting
Ġcontext_ length
Ġcopy _with
Ġcoro _code
Ġcould n
Ġcoun ters
Ġcte _type
Ġcurrent Thread
Ġcurrent frame
Ġd ates
Ġd ct
Ġd ollar
Ġd ual
Ġdata _types
Ġde cl
Ġde cla
Ġde coders
Ġde cre
Ġdebug _override
Ġdecision s
Ġdecoded _words
Ġdelay ed
Ġdele gate
Ġdemonstr ated
Ġdemonstr ates
Ġdense _ffns
Ġdescend ant
Ġdetect _encoding
Ġdev null
Ġdevelo ped
Ġdevnull _fd
Ġdi vide
Ġdiag _
Ġdiag _gold
Ġdict _obj
Ġdifferent _locale
Ġdigest obj
Ġdirs _exist_ok
Ġdis abling
Ġdispatch _cache
Ġdisplay ing
Ġdistingu ishes
Ġdo _handshake_on_connect
Ġdomin ant_
Ġdro ps
Ġdst N
ĠdstN ow
Ġe cho
Ġe mp
Ġeas ily
Ġeffect ively
Ġeffect s
Ġembedding _std
Ġen velope
Ġenc _name
Ġenco d
Ġencode _basestring
Ġend PrefixMapping
Ġend _col_offset
Ġend _colno
Ġend ian
Ġend pos
Ġenforce ment
Ġenum er
Ġeps il
Ġepsil on
Ġescaped state
Ġevalu ates
Ġevent _list
Ġex am
Ġex cepthook
Ġexclude _filters
Ġexpected _architecture_id
Ġexpected _string
Ġexperiment _script
Ġexpert_ out
Ġexport _trace
Ġexport_trace _json
Ġext Match
Ġextended _arg
Ġextra _groups
Ġextra _tokens
Ġextract _stack
Ġextras action
Ġf ac
Ġf atal
Ġf orever
Ġf redrik
Ġfav or
Ġfds_to _pass
Ġfeed ing
Ġfield _list
Ġfield values
Ġfil led
Ġfile Config
Ġfile path
Ġfill ing
Ġfind all
Ġfinish _request
Ġfix up
Ġfork ed
Ġformat _string
Ġformatted _args
Ġfp name
Ġframe _lineno
Ġframe list
Ġfree zes
Ġfrom desc
Ġg aps
Ġg ated
Ġg n
Ġg vars
Ġgate _fn
Ġget DOMImplementation
Ġget file
Ġget set
Ġget_ file
Ġget_ loop
Ġget_ nowait
Ġget_ type_hints
Ġglobal _valid_token_count
Ġgot it
Ġgra b
Ġgrad _accumulation_steps
Ġgrad _norm
Ġguarante es
Ġhand y
Ġhandle _request
Ġhandler _order
Ġhas Header
Ġhave _open
Ġhave_open _b
Ġhave_open_b r
Ġheap replace
Ġhex digits
Ġhig hest
Ġhigh li
Ġhook s
Ġhttp _response
Ġhyp ot
Ġi b
Ġi e
Ġi ll
Ġi ms
Ġib size
Ġid Attr
Ġignored _names
Ġimport _
Ġin clusion
Ġin consistent
Ġin jected
Ġin ode
Ġin telli
Ġin vent
Ġindex ing
Ġinitial ised
Ġinitial_response _ok
Ġins of
Ġinser ting
Ġinsof ar
Ġinspect able
Ġinstall ation
Ġinstrument ation
Ġinter action
Ġintro duce
Ġinv olved
Ġinvok ing
Ġis _active
Ġis _broken
Ġis _not
Ġis _valid
Ġist raceback
Ġitem _no
Ġitem getter
Ġiter ators
Ġjump s
Ġkeep _blank
Ġkeep _open
Ġkeep dim
Ġkeep_blank _values
Ġkey file
Ġkeylog file
Ġkeyword _only
Ġkwonly defaults
Ġl list
Ġl notab
Ġl sock
Ġlast _was
Ġlast _word
Ġlast cs
Ġlast elt
Ġlast header
Ġlast pos
Ġlast space
Ġlast_was _empty
Ġlat in
Ġlb _ref
Ġle af
Ġle ts
Ġlic ens
Ġlicens ing
Ġlineno s
Ġlo t
Ġload TestsFrom
Ġload _b
Ġload _ext
Ġload _short
Ġload_bin int
Ġload_short _bin
Ġloader _class
Ġlocal host
Ġlower cased
Ġm b
Ġm diff
Ġm irror
Ġm k
Ġmaintain ed
Ġman ages
Ġmarker id
Ġmask ed
Ġmatching _blocks
Ġmax Bytes
Ġmax _cost
Ġmax _denominator
Ġmax _group_depth
Ġmax _group_width
Ġmax _size
Ġmax _tasks_per_child
Ġme t
Ġmember_ value
Ġmerges _at_primary_threshold
Ġmessage _id
Ġmet am
Ġmetam ro
Ġmethod Name
Ġmethod_b _sparse
Ġmethod_b _total
Ġmid night
Ġmil li
Ġminim ize
Ġmo file
Ġmod _name
Ġmult iline
Ġmult ithread
Ġmut ually
Ġmutated _ids
Ġmy _exceptions
Ġn _heads
Ġn el
Ġnew _ctype
Ġnew _file
Ġnew _namespaces
Ġnew er
Ġnew value
Ġnext cs
Ġnext_ href
Ġnot _found
Ġnum lines
Ġnum_blank s_to_yield
Ġo re
Ġo s_
Ġob size
Ġobj _globals
Ġoctet s
Ġof fer
Ġold _command
Ġold _exc
Ġold_command _defs
Ġoptimizer _state_exact_match
Ġoption list
Ġoption_string _indices
Ġorig _buffer
Ġother _tuple
Ġout _correct
Ġout fp
Ġout_b roken
Ġover writing
Ġp _b
Ġp hrases
Ġp len
Ġp variance
Ġpack ed
Ġparam _name
Ġparent he
Ġparent_ spec
Ġparsed _items
Ġpath _info
Ġpath _specified
Ġpe ek
Ġpeak _vram_bytes
Ġpending _work_items
Ġpeop le
Ġperman ent
Ġperman ently
Ġpl umbing
Ġplace hold
Ġplacehold ers
Ġpo or
Ġpo s_
Ġpop item
Ġpract ical
Ġpract ice
Ġpre tokenize
Ġprimit ives
Ġpro j
Ġpro port
Ġpro ps
Ġprob abilities
Ġpropa g
Ġproto s
Ġproxy _auth
Ġproxy _settings
Ġput ter
Ġput ting
Ġpy cache
Ġpy list
Ġq _dim
Ġq k_norms
Ġqname _text
Ġqu oprimime
Ġquote _string
Ġr addr
Ġr cur
Ġr frame
Ġr ng
Ġraise Exceptions
Ġrand range
Ġrank s
Ġraw _headers
Ġre computed
Ġre ordered
Ġre v
Ġre written
Ġre zero
Ġread _decimal
Ġread _method
Ġread _text
Ġread into
Ġread lines
Ġrece ives
Ġreconstruct ed
Ġred irection
Ġref olded
Ġrelationsh ip
Ġrelative ly
Ġrepeat _kv
Ġrepl_future _in
Ġrepl_future_in terrupted
Ġreq _path
Ġrequest line
Ġrequired _keys
Ġresidual _output_projection_std
Ġrest art
Ġresult_ handler
Ġreview er
Ġright pos
Ġro admap
Ġro ugh
Ġrouted_only _output
Ġrouter_ grad
Ġrouter_ std
Ġrun _once
Ġrun _query
Ġs get
Ġs igint_handler
Ġs ized
Ġs lee
Ġs leep
Ġs ms
Ġs n
Ġs napshot
Ġs quared
Ġs xy
Ġsax utils
Ġscan _once
Ġscandir _it
Ġsco res
Ġsecre t_
Ġseen _default
Ġseen _ids
Ġselect s
Ġself _parameter
Ġsen der
Ġsend _bytes
Ġsend mail
Ġserial izable
Ġset_ executable
Ġset_ write_buffer_limits
Ġsh ield
Ġshared _experts
Ġshared_expert_ activated
Ġshort est
Ġshow warning
Ġside _effect
Ġsimple _keys
Ġsimple filter
Ġsing ledispatch
Ġsize of
Ġslo pe
Ġso ft_
Ġsort s
Ġsource _mtime
Ġsp acing
Ġsp am
Ġspec _string
Ġspecific ations
Ġss d
Ġst aggered
Ġst eal
Ġstack _info
Ġstart ElementNS
Ġstart PrefixMapping
Ġstart s_line
Ġstart_ new_session
Ġstate _setter
Ġstdin _w
Ġsub _debug
Ġsub processes
Ġsub tree
Ġsubstit ution
Ġsuppressed _exc
Ġsur vives
Ġsystem _id
Ġt f
Ġt ies
Ġt l
Ġt ss
Ġt text
Ġt vars
Ġtab size
Ġtail _module
Ġtar _compression
Ġtarget_ id
Ġtask _batches
Ġtb _locals
ĠtearDown Module
Ġtermin ating
Ġtest Method
Ġtest NamePatterns
Ġtest _moe
Ġtest _padding
Ġtest _rmsnorm
Ġtest_manifest _path
Ġtext_ sig
Ġtext_ width
Ġthese _magics
Ġtitle _group
Ġtitle_group _map
Ġtl s_id
Ġtls_id set
Ġtm m
Ġto desc
Ġto ok
Ġtoken s_per
Ġtotal _calls
Ġtou ched
Ġtr ad
Ġtrad itional
Ġtraining _router_jitter
Ġtrans action
Ġtrans mit
Ġtransform er
Ġtrunc ate
Ġtruthful ness
Ġturn s
Ġtype code_or_type
Ġun ambiguous
Ġun lock
Ġun verifiable
Ġuni q
Ġunicode string
Ġunique ly
Ġurl file
Ġurl join
Ġurl unparse
Ġvalid _ew
Ġvalue _attrs
Ġvar _tuple
Ġvar_tuple _index
Ġverify _hashes
Ġversion _number
Ġversion _set
Ġviol ations
Ġvisit _F
Ġw armup_iters
Ġw d
Ġw s
Ġwait _for
Ġwait status_to_exitcode
Ġweek s
Ġwinn er_index
Ġwor ry
Ġwor st
Ġwould n
Ġz _ref
" -
"] [
# ------------------------
# ================================
#### ###
#================================ ============================================
$ ')
' ')
' )))
' *
' ***
' S
',' ')
': '
'\\ \
(" !
(": ")
(' +',
(' >')
(' ?')
(' {}
(', ')
('- ')
('< ')
('= ',
() !
() ',
() [:
() ],
()) [
(... ,
(? !
(? <
(?< !\
) ==
)) [
)* (
). ",
)] ),
* )
** ,
+ "
+ ?
+ ]
, "
-# -#
---- +
. ''')
. *?
. {
/ '
/ ')
/ *
0 129
0 8870967741935484
00 16
00 22
00 66
00 68
00 79
001 36
006 230
006230 617
006230617 26
01 05
01 08
01 17
01 47
01 94
02 24
02 34
034 5
04 88
05 34
0564 516129032258
0564516129032258 05
06 0
06 9
064 51612903225806
09 1
1 64
1 67
1137 130
120 6
129032258064 5
15 32258064516129
17 5
17 57
19 77
19 95
19 99
2 09
2 91
200 6
202 00623061726
202 1
21 64
23 12
23 5
23 6
24 5
25 86
28 2
28 3
3 36
30 61
30 76
315 200
32 1
32 19
32 37
329 315200
36 00
38 05
39 8
39 86
39 94
4 06
4 07
4 08
404 1137130
44 1
44 4
477 849
49 6
5 14
5 91
51 0
51 54
51 88
51612903225 81
56 64
59 64
61 3
64 13
64 88
7 58
75 3
77 39
79 1
8 00
8 23
8 31
8 34
8 38
80 65
80 8
84 0
84 8
86 5
9 67741935483871
91 8
: ')
: /
:\ \
; ,
< !
=% (
======== =+
={ },
@ ,
A ct
A fter
A pr
AB ORTED
AC T
AG AIN
AL GORITHM
ALERT_DESCRIPTION _UN
AL_P RIORITY_CLASS
AN TI
AP H
AR R
ARATOR _DIR
ARG ET
ARG S_
ARGS_ ATTR
ARR AY
AT UR
ATE_ RE
ATION _
ATOM IC
ATOM _ENDS
ATTRIBUTE_ NODE
Abstract ChildWatcher
Address List
And Not
AndNot Done
AndNotDone Futures
App ly
Arg Parser
Argument Group
As CompletedWaiter
Async Iterator
Attribute Type
Await able
B ODY
B OM_UTF
BIN SIZE
BJ ECT
BY TE
BYTE ARRAY
Base Protocol
Base Transport
Buffered Reader
C ANDIDATE
C UT
C c
C la
CI P
CLUD E_
CO ME
CODES IZE
CODE_ DOC
CODE_DOC STRING
COM MENT_NODE
CONT EXT
COR O
COR PUS_DIR
CR Y
CRE ATE_
CRE F
CURSIVE_ CUT
CURSIVE_CUT OF
CURSIVE_CUTOF F
Call s
Col lect
Config uration
Current Process
D ep
D rop
D upFd
DE BUG_
DEFAULT_ BUFFER_SIZE
DIS PATCH_BACKENDS
DOCUMENT_ FRAGMENT_NODE
DOCUMENT_ TYPE_NODE
DOM Builder
DUP LIC
DUPLIC ATE_
Data Error
De ferr
Deferr al
Deferral Enabled
Defrag ResultBase
Depre cationWarning
Document Locator
Drop out
E BADF
E CH
E RED
E VENT
E very
ED S_
EDS_ LOADING
ED_ ERR
EG RAM
EGIN _LEN
EGRAM MEN
EGRAMMEN I
EL COME
EM BER
ENSION _SU
ENSION_SU FFIXES
ENT ERED
ENTITY_REFEREN CE_NODE
ERATOR _AND
ERATOR_AND _COROUTINE_
ERATOR_AND_COROUTINE_ FLAGS
ER_ ATTR
ER_ LEN
EVENT LOG_
EX CL
E_ TOKEN
Element Content
En able
Error ColumnNumber
Error LineNumber
Ex act
F LAG_
F _SE
F amily
F ri
F unctions
FI G_
FLAG_ NEVER_CHECK
FLAG_NEVER_CHECK _SU
FLAG_NEVER_CHECK_SU BJECT
F_SE TP
F_SETP IPE_
F_SETPIPE_ SZ
File Finder
File Type
G EGRAMMENI
G LOBAL
G NUTYPE_
G PU
G ROUP
G rep
Get CurrentProcess
Grad Scaler
Grep ped
H OLD
HEADER S
HOLD ER_LEN
HOST FLAG_NEVER_CHECK_SUBJECT
HTTP Error
Handle Future
Header MissingRequiredValue
I FF
I VE
IF STOP
IFSTOP P
IFSTOPP ED
IL ER
ILL ING
IM UM
IN FINITE
ING LE
IPPROTO_ TCP
IS PACE
Id ent
Implement s
In dependent
In dicate
In voke
Init Var
Inst all
Instance Error
Inter active
Items View
J UMP
J UNK
J ul
J un
JSON Decoder
K C
K W_ONLY
KEYWORD S
KQ _FILTER
Key sView
L ARG
LACE HOLDER_LEN
LEANUP _F
LEANUP_F UN
LEANUP_FUN CS
LINE_ JUNK
LO bject
LOGG ER
LU E
Loc ale
Log ging
M AN
M TYPE
M ar
MEM OIZE
MENT S
MESSAGE_ LENGTH
M_ RIGH
M_RIGH TS
Magic Mixin
MoE Block
Model Output
N ET
N ORM
N VIDIA
N etwork
NE EDS_LOADING
NE G
Names paces
Namespace Path
No v
Non Callable
Not Iterable
ONT H
OSSESSIVE_ REPEAT
OUR CE
O_ EXCL
O_RD ONLY
Over run
Overrun Error
P ENDING
P s
P seudo
P ull
PE C
PE CT
PO INT_
POLATION _DEPTH
PRE V
PROCESSING_INSTRU CTION_NODE
PU T_
PUT_ HANDLE
PY THON
Part Executor
Per form
Per iod
Pipe Proto
Pre vious
Pri ority
Print able
Proactor EventLoop
Process or
Provide s
Pull Parser
Py CF
Py Torch
QU OTE_
Qu oted
Qu oter
R ING
RAG MA
RAME_SIZE_ T
RAME_SIZE_T ARGET
RE E
RE GI
RE SET
RECOGNIZED_ ARGS_ATTR
RED UCE
Re cv
Re gression
Re lease
Read PipeTransport
Recursive W
RecursiveW ildcardSelector
Rep ar
Repar se
Reparse DeferralEnabled
Result s
S PECIAL_
S UPP
S parse
SC M_RIGHTS
SERVER _AUTH
SERVER _NAME
SHUT_ WR
SIG N
SIG TERM
SIG_ IGN
SMTP ResponseException
SP ACE_
SSL _HANDSHAKE_
SSL _SH
SSL_HANDSHAKE_ TIMEOUT
SSL_SH UTDOWN
SSL_SHUTDOWN _TIMEOUT
STOP SIG
S_ EX
Sc hed
Sched ule
Ser vice
Set up
Show Window
Stop Iteration
Stream Reader
Su ch
Subprocess PipeProto
T ING
T inyOverfit
T ue
T urn
TEMPL ATE
TION S
TOKEN _PATTERN
TR Y_
Test Context
TestCase Context
Th u
To Show
Token RoutingTraceRecord
Tree Builder
U til
UP ER_ATTR
URL opener
Uni code
Unix StreamServer
Up Func
VAR KEYWORDS
Value sView
W ake
W r
WAY S
WHITES PACE
WR APPER_
WS A
Weak KeyDictionary
Windows Path
X HDTYPE
] ["
_ AL
_ ATTR
_ DefragResultBase
_ FA
_ LOC_IGNORE
_ LoopBoundMixin
_ OK
_ Proactor
_ VAR_KEYWORD
_ activate
_ amb
_ env
_ optimized
_ unique
_B ATCHSIZE
_B EGIN_LEN
_C ALL
_C ANCELLED
_CLASS VAR
_COM MON
_COMP RESS_LEVEL
_E VENT_
_G ROUP
_HEADER _MAP
_INTER POLATION_DEPTH
_M ATCH
_P OP
_P RIORITY_CLASS
_S ENT
_S INGLE
_S OURCES
_S P
_S end
_S tore
_Send file
_Sendfile Mode
_TO O_
_TO_ STR
_UN TIL
__ add__
__ globals__
__ index__
__ kwdefaults__
__ new
__ next
__ r
__ reduce__
__ set_name__
__ signature__
__ subclasscheck__
__forward _eval
__forward _is
__forward _value
__forward_eval u
__forward_evalu ated
__forward_evaluated __
__forward_value __
_a gree
_ab br
_action s_count
_active _count
_add resses
_al ias
_all _bits_
_app _writing_paused
_arg count
_args_from _interpreter_flags
_as _instance
_as_ew _blocked
_asyncio TestContext
_auth _challenge
_auth_challenge _count
_aver aging
_b io
_balance _coefficient
_base d
_blocking _on
_buffer ing
_by _assignment_count
_c are
_c df
_c l
_c ustom
_call _chain
_call er_cache
_called funcs
_cancelled _exc
_canonical _tokenizer
_ch ld
_check _name
_check _value
_child _relpath
_cm _exit
_comm uni
_communi cation
_communication _started
_comple tion
_comple x
_con figs
_con s
_content _type
_context_ probe
_context_probe _temp
_context_probe_temp lates
_continuation _ws
_coroutine _origin_tracking
_current_ handle
_current_ section
_d iv
_d rain
_d uplicate
_data gram
_de sc
_de scription
_de tail
_de terminism
_declared _ns_stack
_dense _config
_detect ions
_dir s
_dirty _len
_do _shutdown
_document ation
_drop out
_e g
_e q
_e qual
_end _offset
_entity _stack
_eof _matcher
_eof _writ
_eof_writ ten
_error _message
_ex pected
_executor _intern
_executor_intern als
_exit _function
_ext ensions
_ext n
_f ws
_file _wrapper
_finalizer _registry
_for _child
_fork s
_format _mock_call_signature
_frame _gen
_from_ stem
_g t
_get_ devnull
_get_ formatter
_gn us
_gnus parse
_gnusparse _
_grad _opt
_grad _ref
_h tml
_handler _level
_has _negative
_has_negative _number_
_has_negative_number_ optionals
_header_ value
_hidden _averaging
_id _search
_id le
_id_search _stack
_ignore _
_ignore s
_imp licit
_in _values
_in v
_info _req
_inher it
_inher itable
_inherit ing
_io _re
_io_re fs
_iter ating
_jump _target
_k lass
_keys __
_layer _expert_gradient_norms
_lex _handler_prop
_lines _cached
_lines _in_values
_link _target
_lo wer
_local Name
_local _file
_longest _match
_loss _match
_m ixed
_magic_id _nodes
_mailbox _hook
_main _from_path
_make _cancelled_error
_manifest _sha
_matches_ hand
_matches_hand _computed
_max _events
_maybe_resume _protocol
_member _dict
_member_ keys
_module _names
_mro s
_no _detections
_notify _cancel
_ns _domain
_off enders
_on _exception
_option als
_or _notify_cancel
_over lap
_override s
_p atches
_p char
_pack _uint
_pair _iterator
_parameters _finite
_parse _validation
_pchar _re
_pending _write
_per _head
_po s_
_pos_ e
_pos_e mb
_pre cision
_pre sent
_pre served
_prefix _chars
_prefix _name
_preserve _space
_pro xies
_process _outgoing
_push _exit_callback
_py torch
_q sl
_re peat
_read _done
_read line
_recv _bytes
_reference _optimized
_remo val
_repro ducible
_res olve
_res olved
_result_ handler
_result_ queue
_review _hours
_ro tary
_rotary _pos_emb
_s kew
_s oftware
_s paces
_set UpFunc
_set_ file
_set_ handler
_set_file attr
_shutdown _locks
_shutdown _thread
_sig mask
[...]
