{
 "Ā": 0,
 "ā": 1,
 "Ă": 2,
 "ă": 3,
 "Ą": 4,
 "ą": 5,
 "Ć": 6,
 "ć": 7,
 "Ĉ": 8,
 "ĉ": 9,
 "Ċ": 10,
 "ċ": 11,
 "Č": 12,
 "č": 13,
 "Ď": 14,
 "ď": 15,
 "Đ": 16,
 "đ": 17,
 "Ē": 18,
 "ē": 19,
 "Ĕ": 20,
 "ĕ": 21,
 "Ė": 22,
 "ė": 23,
 "Ę": 24,
 "ę": 25,
 "Ě": 26,
 "ě": 27,
 "Ĝ": 28,
 "ĝ": 29,
 "Ğ": 30,
 "ğ": 31,
 "Ġ": 32,
 "!": 33,
 "\"": 34,
 "#": 35,
 "$": 36,
 "%": 37,
 "&": 38,
 "'": 39,
 "(": 40,
 ")": 41,
 "*": 42,
 "+": 43,
 ",": 44,
 "-": 45,
 ".": 46,
 "/": 47,
 "0": 48,
 "1": 49,
 "2": 50,
 "3": 51,
 "4": 52,
 "5": 53,
 "6": 54,
 "7": 55,
 "8": 56,
 "9": 57,
 ":": 58,
 ";": 59,
 "<": 60,
 "=": 61,
 ">": 62,
 "?": 63,
 "@": 64,
 "A": 65,
 "B": 66,
 "C": 67,
 "D": 68,
 "E": 69,
 "F": 70,
 "G": 71,
 "H": 72,
 "I": 73,
 "J": 74,
 "K": 75,
 "L": 76,
 "M": 77,
 "N": 78,
 "O": 79,
 "P": 80,
 "Q": 81,
 "R": 82,
 "S": 83,
 "T": 84,
 "U": 85,
 "V": 86,
 "W": 87,
 "X": 88,
 "Y": 89,
 "Z": 90,
 "[": 91,
 "\\": 92,
 "]": 93,
 "^": 94,
 "_": 95,
 "`": 96,
 "a": 97,
 "b": 98,
 "c": 99,
 "d": 100,
 "e": 101,
 "f": 102,
 "g": 103,
 "h": 104,
 "i": 105,
 "j": 106,
 "k": 107,
 "l": 108,
 "m": 109,
 "n": 110,
 "o": 111,
 "p": 112,
 "q": 113,
 "r": 114,
 "s": 115,
 "t": 116,
 "u": 117,
 "v": 118,
 "w": 119,
 "x": 120,
 "y": 121,
 "z": 122,
 "{": 123,
 "|": 124,
 "}": 125,
 "~": 126,
 "ġ": 127,
 "Ģ": 128,
 "ģ": 129,
 "Ĥ": 130,
 "ĥ": 131,
 "Ħ": 132,
 "ħ": 133,
 "Ĩ": 134,
 "ĩ": 135,
 "Ī": 136,
 "ī": 137,
 "Ĭ": 138,
 "ĭ": 139,
 "Į": 140,
 "į": 141,
 "İ": 142,
 "ı": 143,
 "Ĳ": 144,
 "ĳ": 145,
 "Ĵ": 146,
 "ĵ": 147,
 "Ķ": 148,
 "ķ": 149,
 "ĸ": 150,
 "Ĺ": 151,
 "ĺ": 152,
 "Ļ": 153,
 "ļ": 154,
 "Ľ": 155,
 "ľ": 156,
 "Ŀ": 157,
 "ŀ": 158,
 "Ł": 159,
 "ł": 160,
 "¡": 161,
 "¢": 162,
 "£": 163,
 "¤": 164,
 "¥": 165,
 "¦": 166,
 "§": 167,
 "¨": 168,
 "©": 169,
 "ª": 170,
 "«": 171,
 "¬": 172,
 "Ń": 173,
 "®": 174,
 "¯": 175,
 "°": 176,
 "±": 177,
 "²": 178,
 "³": 179,
 "´": 180,
 "µ": 181,
 "¶": 182,
 "·": 183,
 "¸": 184,
 "¹": 185,
 "º": 186,
 "»": 187,
 "¼": 188,
 "½": 189,
 "¾": 190,
 "¿": 191,
 "À": 192,
 "Á": 193,
 "Â": 194,
 "Ã": 195,
 "Ä": 196,
 "Å": 197,
 "Æ": 198,
 "Ç": 199,
 "È": 200,
 "É": 201,
 "Ê": 202,
 "Ë": 203,
 "Ì": 204,
 "Í": 205,
 "Î": 206,
 "Ï": 207,
 "Ð": 208,
 "Ñ": 209,
 "Ò": 210,
 "Ó": 211,
 "Ô": 212,
 "Õ": 213,
 "Ö": 214,
 "×": 215,
 "Ø": 216,
 "Ù": 217,
 "Ú": 218,
 "Û": 219,
 "Ü": 220,
 "Ý": 221,
 "Þ": 222,
 "ß": 223,
 "à": 224,
 "á": 225,
 "â": 226,
 "ã": 227,
 "ä": 228,
 "å": 229,
 "æ": 230,
 "ç": 231,
 "è": 232,
 "é": 233,
 "ê": 234,
 "ë": 235,
 "ì": 236,
 "í": 237,
 "î": 238,
 "ï": 239,
 "ð": 240,
 "ñ": 241,
 "ò": 242,
 "ó": 243,
 "ô": 244,
 "õ": 245,
 "ö": 246,
 "÷": 247,
 "ø": 248,
 "ù": 249,
 "ú": 250,
 "û": 251,
 "ü": 252,
 "ý": 253,
 "þ": 254,
 "ÿ": 255,
 "ĠĠ": 512,
 "ĠĠĠĠ": 513,
 "ĠĠĠ": 514,
 "ĊĠĠĠĠ": 515,
 "er": 516,
 "in": 517,
 "se": 518,
 "re": 519,
 "Ġt": 520,
 "on": 521,
 "en": 522,
 "at": 523,
 "or": 524,
 "st": 525,
 "ĊĠĠĠĠĠĠĠ": 526,
 "Ġa": 527,
 "ĊĠĠĠ": 528,
 "ĠĠĠĠĠĠĠĠ": 529,
 "Ġ=": 530,
 "Ġi": 531,
 "..": 532,
 "de": 533,
 "he": 534,
 "al": 535,
 "Ġ\"": 536,
 "Ġc": 537,
 "le": 538,
 "it": 539,
 "ar": 540,
 "Ġf": 541,
 "ĠĠĠĠĠĠĠ": 542,
 "sel": 543,
 "self": 544,
 "me": 545,
 "Ġre": 546,
 "ct": 547,
 "an": 548,
 "Ġn": 549,
 "Ġs": 550,
 "lo": 551,
 "un": 552,
 "ce": 553,
 "ut": 554,
 "ur": 555,
 "Ġp": 556,
 "ion": 557,
 "ro": 558,
 "ĊĠĠĠĠĠĠĠĠĠĠĠ": 559,
 "ing": 560,
 "Ġthe": 561,
 "ex": 562,
 "ĊĠĠĠĠĠĠĠĠĠĠĠĠ": 563,
 "ss": 564,
 "Ġb": 565,
 "Ġw": 566,
 "\":": 567,
 "....": 568,
 "Ġin": 569,
 "ad": 570,
 "Ġself": 571,
 "ed": 572,
 "ot": 573,
 "--": 574,
 "ent": 575,
 "Ġif": 576,
 "Ġ(": 577,
 "Ġis": 578,
 "ame": 579,
 "Ġm": 580,
 "Ġo": 581,
 "Ġde": 582,
 "):": 583,
 "urn": 584,
 "Ġ{": 585,
 "ue": 586,
 "to": 587,
 "turn": 588,
 "Ġan": 589,
 "Ġd": 590,
 "ck": 591,
 "mp": 592,
 "ch": 593,
 "()": 594,
 "co": 595,
 "__": 596,
 "ul": 597,
 "Ġto": 598,
 "ĊĠ": 599,
 "es": 600,
 "la": 601,
 "Ġreturn": 602,
 "Ġ#": 603,
 "ken": 604,
 "li": 605,
 "Ġst": 606,
 "fi": 607,
 "Ġe": 608,
 "Ġ1": 609,
 "iz": 610,
 "ra": 611,
 "one": 612,
 "is": 613,
 "ate": 614,
 "ĊĊĠĠĠ": 615,
 "\"\"": 616,
 "il": 617,
 "Ġ'": 618,
 "ĊĠĠĠĠĠĠĠĠĠĠĠĠĠĠĠ": 619,
 "ge": 620,
 "pe": 621,
 "Ġh": 622,
 "Ġand": 623,
 "ror": 624,
 "Ġth": 625,
 "per": 626,
 "\",": 627,
 "val": 628,
 "th": 629,
 "Ġfor": 630,
 "........": 631,
 "Ġdef": 632,
 "um": 633,
 "Ġex": 634,
 "Ġ_": 635,
 "as": 636,
 "ĠT": 637,
 "Ġ0": 638,
 "ode": 639,
 "token": 640,
 "ĠN": 641,
 "ation": 642,
 "Ġnot": 643,
 "ect": 644,
 "id": 645,
 "Ġ<": 646,
 "ver": 647,
 "ri": 648,
 "us": 649,
 "ort": 650,
 "Ġ}": 651,
 "pt": 652,
 "Ġ+": 653,
 "ter": 654,
 "ly": 655,
 "Ġ*": 656,
 "Ġco": 657,
 "t_": 658,
 "Ġse": 659,
 "and": 660,
 "izer": 661,
 "ap": 662,
 "Ġcon": 663,
 "name": 664,
 "Ġl": 665,
 "----": 666,
 "Ġ-": 667,
 "_t": 668,
 "Ġlo": 669,
 "od": 670,
 "ke": 671,
 "gs": 672,
 "ith": 673,
 "Ġbe": 674,
 "ve": 675,
 "Ġ\"\"\"": 676,
 "bj": 677,
 ");": 678,
 "ĠNone": 679,
 "Ġof": 680,
 "ction": 681,
 "ext": 682,
 "uni": 683,
 "con": 684,
 "ic": 685,
 "te": 686,
 "end": 687,
 "_p": 688,
 "ath": 689,
 "ĠP": 690,
 "Er": 691,
 "ata": 692,
 "Ġ[": 693,
 "Error": 694,
 "value": 695,
 "ack": 696,
 "out": 697,
 "int": 698,
 "ab": 699,
 "##": 700,
 "uniper": 701,
 "ase": 702,
 "ol": 703,
 "ure": 704,
 "',": 705,
 "Ġme": 706,
 "lass": 707,
 "ult": 708,
 "Ġg": 709,
 "up": 710,
 "use": 711,
 "ma": 712,
 "ite": 713,
 "Ġwh": 714,
 "all": 715,
 "ine": 716,
 "ĊĠĠĠĠĠ": 717,
 "ype": 718,
 "Ġ2": 719,
 "tokenizer": 720,
 "Ġon": 721,
 "py": 722,
 "ĊĠĠĠĠĠĠĠĠĠĠĠĠĠĠĠĠĠĠĠĠ": 723,
 "str": 724,
 "art": 725,
 "ĠI": 726,
 "ance": 727,
 "ment": 728,
 "ĠS": 729,
 "ĊĠĠĠĠĠĠĠĠĠĠĠĠĠĠĠĠĠĠĠ": 730,
 "ĊĊĠĠĠĠĠĠĠ": 731,
 "error": 732,
 "ig": 733,
 "act": 734,
 "Ġtr": 735,
 "if": 736,
 "ile": 737,
 "ac": 738,
 "_c": 739,
 "ĠA": 740,
 "head": 741,
 "Ġx": 742,
 "ers": 743,
 "ise": 744,
 "qu": 745,
 "uto": 746,
 "_b": 747,
 "Ġar": 748,
 "rom": 749,
 "00": 750,
 "ms": 751,
 ").": 752,
 "................": 753,
 "ĠC": 754,
 "Ġ|": 755,
 "=\"": 756,
 "code": 757,
 "key": 758,
 "oc": 759,
 "ep": 760,
 "Ġ3": 761,
 "cept": 762,
 "ize": 763,
 "Ġor": 764,
 "ser": 765,
 "und": 766,
 "get": 767,
 "ity": 768,
 "juniper": 769,
 "mport": 770,
 "Ġpro": 771,
 "orm": 772,
 "Ġra": 773,
 "read": 774,
 "|>": 775,
 "<|": 776,
 "am": 777,
 "def": 778,
 "))": 779,
 "mple": 780,
 "Ġwith": 781,
 "Ġro": 782,
 "_lo": 783,
 "ub": 784,
 "cl": 785,
 "02": 786,
 "Ġraise": 787,
 "ime": 788,
 "Ġ{\"": 789,
 "op": 790,
 "der": 791,
 "Ġch": 792,
 "ci": 793,
 "Ġthis": 794,
 "Ġby": 795,
 "ument": 796,
 "Ġit": 797,
 "ir": 798,
 "Ġat": 799,
 "alse": 800,
 "Ġal": 801,
 "ist": 802,
 "lse": 803,
 "tr": 804,
 "ow": 805,
 "Ġvalue": 806,
 "_f": 807,
 "Ġname": 808,
 "==": 809,
 "ĠF": 810,
 "ay": 811,
 "file": 812,
 "et": 813,
 "Ġuse": 814,
 "ork": 815,
 "Ġelse": 816,
 "_m": 817,
 "obj": 818,
 "Ġstr": 819,
 "tri": 820,
 "Ġr": 821,
 "age": 822,
 "args": 823,
 "Ġ/": 824,
 "Ġthat": 825,
 "atch": 826,
 "_s": 827,
 "Ġdata": 828,
 "ull": 829,
 "Ġso": 830,
 "pend": 831,
 "ule": 832,
 "(\"": 833,
 "ta": 834,
 "_a": 835,
 "12": 836,
 "pa": 837,
 "Ġas": 838,
 "ĠR": 839,
 "path": 840,
 "fer": 841,
 "Ġ__": 842,
 "Ġen": 843,
 "list": 844,
 "est": 845,
 "class": 846,
 "Ġtoken": 847,
 "ty": 848,
 "),": 849,
 "Ġ==": 850,
 "mit": 851,
 "odule": 852,
 "('": 853,
 "set": 854,
 "ces": 855,
 "Ġ`": 856,
 "//": 857,
 "Ġ.": 858,
 "el": 859,
 "Ġ%": 860,
 "Ġres": 861,
 "ew": 862,
 "Ġv": 863,
 "nt": 864,
 "clu": 865,
 "Ġobj": 866,
 "ĠE": 867,
 "Ġfrom": 868,
 "led": 869,
 "ĊĊ": 870,
 "Ġad": 871,
 "ive": 872,
 "09": 873,
 "heck": 874,
 "ore": 875,
 "ait": 876,
 "clude": 877,
 "Ġma": 878,
 "fig": 879,
 "Ġexcept": 880,
 "Ġnode": 881,
 "par": 882,
 "com": 883,
 "string": 884,
 "_re": 885,
 "_n": 886,
 "Ġare": 887,
 "ding": 888,
 "01": 889,
 "Ġun": 890,
 "')": 891,
 "odel": 892,
 "len": 893,
 "####": 894,
 "ag": 895,
 "Ġcom": 896,
 "://": 897,
 "_d": 898,
 "Ġtry": 899,
 "\")": 900,
 "Ġlen": 901,
 "--------": 902,
 "Ġarg": 903,
 "Ġset": 904,
 "Ġsy": 905,
 "Ġnull": 906,
 "rue": 907,
 "port": 908,
 "able": 909,
 "Ġpar": 910,
 "31": 911,
 "Ġy": 912,
 "\"\"\"": 913,
 "po": 914,
 "_auto": 915,
 "Ġfun": 916,
 "include": 917,
 "ĠO": 918,
 "juniper_auto": 919,
 "ds": 920,
 "ound": 921,
 "pro": 922,
 "^{": 923,
 "vi": 924,
 "ĠĠĠĠĠĠĠĠĠĠĠĠĠĠĠĠ": 925,
 "thod": 926,
 "valid": 927,
 "Ġerror": 928,
 "arg": 929,
 "andl": 930,
 "None": 931,
 "sh": 932,
 "ĠThe": 933,
 "Ġimport": 934,
 "arch": 935,
 "hase": 936,
 "ask": 937,
 "std": 938,
 "ree": 939,
 "_i": 940,
 "ire": 941,
 "Ġkey": 942,
 "ps": 943,
 "::": 944,
 "back": 945,
 "</": 946,
 "tes": 947,
 "Ġhas": 948,
 "Ġhead": 949,
 "_loss": 950,
 "Ġstd": 951,
 "ill": 952,
 "low": 953,
 "du": 954,
 "unt": 955,
 "our": 956,
 "Ġsum": 957,
 "thon": 958,
 "**": 959,
 "pre": 960,
 "text": 961,
 "RE": 962,
 "her": 963,
 "ener": 964,
 "get_": 965,
 "ild": 966,
 "ĠM": 967,
 "que": 968,
 "ence": 969,
 "mo": 970,
 "items": 971,
 "ass": 972,
 "25": 973,
 "andle": 974,
 "Ġwork": 975,
 "cess": 976,
 "05": 977,
 "data": 978,
 "Ġint": 979,
 "ant": 980,
 "log": 981,
 "Ġchar": 982,
 "ho": 983,
 "lic": 984,
 "Ġfile": 985,
 "put": 986,
 "mb": 987,
 "Ġbu": 988,
 "main": 989,
 "iv": 990,
 "cal": 991,
 "fo": 992,
 "Ġlog": 993,
 "Ġobject": 994,
 "cur": 995,
 "80": 996,
 "Ġpre": 997,
 "andler": 998,
 "are": 999,
 "Ġk": 1000,
 "Ġcan": 1001,
 "line": 1002,
 "rite": 1003,
 "stance": 1004,
 "url": 1005,
 "ind": 1006,
 "Ġ=>": 1007,
 ".#": 1008,
 "ssage": 1009,
 "Ġfi": 1010,
 "Ġ>": 1011,
 "ault": 1012,
 "im": 1013,
 "sed": 1014,
 "ally": 1015,
 "St": 1016,
 "Ġwill": 1017,
 "_w": 1018,
 "Ġfunction": 1019,
 "ample": 1020,
 "Ġle": 1021,
 "ust": 1022,
 "ator": 1023,
 "uments": 1024,
 "git": 1025,
 "ere": 1026,
 "pus": 1027,
 "ory": 1028,
 "ial": 1029,
 "ĊĠĠĠĠĠĠĠĠĠĠĠĠĠĠĠĠĠĠĠĠĠĠĠ": 1030,
 "stat": 1031,
 "vers": 1032,
 "own": 1033,
 "ock": 1034,
 "ign": 1035,
 "())": 1036,
 "pace": 1037,
 "Ġdo": 1038,
 "of": 1039,
 "rad": 1040,
 "col": 1041,
 "tt": 1042,
 "not": 1043,
 "Ġroot": 1044,
 "tra": 1045,
 "Ġlist": 1046,
 "Ġline": 1047,
 "Ġload": 1048,
 "_ex": 1049,
 "append": 1050,
 "test": 1051,
 "vel": 1052,
 "...": 1053,
 "32": 1054,
 "em": 1055,
 "Ġsys": 1056,
 "type": 1057,
 "Ġsum_": 1058,
 "but": 1059,
 "ml": 1060,
 "uct": 1061,
 "step": 1062,
 "Ġresult": 1063,
 "T_": 1064,
 "ancel": 1065,
 "Ġtrue": 1066,
 "ans": 1067,
 "size": 1068,
 "])": 1069,
 "ĠV": 1070,
 "coding": 1071,
 "Ġcommit": 1072,
 "Ġcheck": 1073,
 "form": 1074,
 "Ġ12": 1075,
 "Ġtest": 1076,
 "88": 1077,
 "md": 1078,
 "Ġadd": 1079,
 "uld": 1080,
 "init": 1081,
 "ict": 1082,
 "ython": 1083,
 "attr": 1084,
 "Ġ7": 1085,
 "ary": 1086,
 "ream": 1087,
 "'s": 1088,
 "],": 1089,
 "Juniper": 1090,
 "add": 1091,
 "ated": 1092,
 "ded": 1093,
 "emp": 1094,
 "IN": 1095,
 "202": 1096,
 "ĠU": 1097,
 "config": 1098,
 "\"}": 1099,
 "64": 1100,
 "imeout": 1101,
 "ok": 1102,
 "peci": 1103,
 "ja": 1104,
 "ĠB": 1105,
 "Ġfalse": 1106,
 "err": 1107,
 "tool": 1108,
 "Ġget": 1109,
 "lib": 1110,
 "ble": 1111,
 "ĠL": 1112,
 "bu": 1113,
 "ption": 1114,
 "Ġtext": 1115,
 "s_": 1116,
 "State": 1117,
 "ĠD": 1118,
 "run": 1119,
 "rout": 1120,
 "Ġexp": 1121,
 "2026": 1122,
 "er_": 1123,
 "ĠW": 1124,
 "ĠH": 1125,
 "ĠTrue": 1126,
 "ts": 1127,
 "Ġcode": 1128,
 "Ġclass": 1129,
 ".\"\"\"": 1130,
 "Ġpath": 1131,
 "Ġstring": 1132,
 "Ġfa": 1133,
 "gth": 1134,
 "other": 1135,
 "Ġtra": 1136,
 "ifi": 1137,
 "ang": 1138,
 "xt": 1139,
 "ER": 1140,
 "ĠIf": 1141,
 "................................": 1142,
 "Ġwe": 1143,
 "aml": 1144,
 "lock": 1145,
 "very": 1146,
 "Ġass": 1147,
 "import": 1148,
 "load": 1149,
 "ree_": 1150,
 "serv": 1151,
 "Ġ4": 1152,
 "ON": 1153,
 "orch": 1154,
 "ip": 1155,
 "76": 1156,
 "Ġ(!": 1157,
 "Re": 1158,
 "Ġread": 1159,
 "();": 1160,
 "om": 1161,
 "Ġid": 1162,
 "Ġout": 1163,
 "Ġtokenizer": 1164,
 "Ġren": 1165,
 "yaml": 1166,
 "====": 1167,
 "arn": 1168,
 "Ġmodule": 1169,
 "tribut": 1170,
 "Ġ--": 1171,
 "ĠFalse": 1172,
 "Ġab": 1173,
 "ress": 1174,
 "hed": 1175,
 "50": 1176,
 "ancelled": 1177,
 "apac": 1178,
 "Ġmethod": 1179,
 "Ġrun": 1180,
 "apacity": 1181,
 "Ġrender": 1182,
 "ME": 1183,
 "ĠĠĠĠĠĠ": 1184,
 "ak": 1185,
 "hel": 1186,
 "||": 1187,
 "_id": 1188,
 "19": 1189,
 "alue": 1190,
 "doc": 1191,
 "uth": 1192,
 "lif": 1193,
 "instance": 1194,
 "user": 1195,
 "Ġpo": 1196,
 "sc": 1197,
 "the": 1198,
 "cor": 1199,
 "eld": 1200,
 "uation": 1201,
 "tent": 1202,
 "_call": 1203,
 "Ġall": 1204,
 "quire": 1205,
 "Ġelif": 1206,
 "state": 1207,
 "14": 1208,
 "atter": 1209,
 "ost": 1210,
 "pl": 1211,
 "parse": 1212,
 "pec": 1213,
 "char": 1214,
 "Ġstart": 1215,
 "ert": 1216,
 "':": 1217,
 "Ġtask": 1218,
 "ines": 1219,
 "Ġany": 1220,
 "84": 1221,
 "ttps": 1222,
 "Ġac": 1223,
 "Ġ**": 1224,
 "Ġnew": 1225,
 "way": 1226,
 "Ġla": 1227,
 "vent": 1228,
 "Ġcor": 1229,
 "Ġmust": 1230,
 "->": 1231,
 "ector": 1232,
 "yn": 1233,
 "((": 1234,
 "req": 1235,
 "_name": 1236,
 "from": 1237,
 "isp": 1238,
 "Ġcall": 1239,
 "phase": 1240,
 "Ġworker": 1241,
 "object": 1242,
 "Ġtype": 1243,
 "_back": 1244,
 "ĠTh": 1245,
 "Ġnode_t": 1246,
 "########": 1247,
 "24": 1248,
 "Auto": 1249,
 "_file": 1250,
 "rw": 1251,
 "123": 1252,
 "by": 1253,
 "level": 1254,
 "Ġbut": 1255,
 "\"]": 1256,
 "lose": 1257,
 "version": 1258,
 "In": 1259,
 "():": 1260,
 "hes": 1261,
 "Ġisinstance": 1262,
 "example": 1263,
 "67": 1264,
 "23": 1265,
 "action": 1266,
 "ition": 1267,
 "ard": 1268,
 "_se": 1269,
 "Ġj": 1270,
 "_pro": 1271,
 "Ġ!": 1272,
 "res": 1273,
 "ast": 1274,
 "bo": 1275,
 "uple": 1276,
 "Ġdet": 1277,
 "ifact": 1278,
 "wait": 1279,
 "Ġend": 1280,
 "iter": 1281,
 "node": 1282,
 "mplement": 1283,
 "];": 1284,
 "app": 1285,
 "ff": 1286,
 "Ġencoding": 1287,
 "The": 1288,
 "nect": 1289,
 "pect": 1290,
 "pr": 1291,
 "lace": 1292,
 "alueError": 1293,
 "ename": 1294,
 "Ġtorch": 1295,
 "next": 1296,
 "ffer": 1297,
 "pi": 1298,
 "22": 1299,
 "tocol": 1300,
 "trip": 1301,
 "model": 1302,
 "loc": 1303,
 "Ġdefault": 1304,
 "Ġused": 1305,
 "OR": 1306,
 "init__": 1307,
 "_token": 1308,
 "rap": 1309,
 "36": 1310,
 "Ġevery": 1311,
 "Ġform": 1312,
 "ous": 1313,
 "rame": 1314,
 "Ġwait": 1315,
 "51": 1316,
 "ger": 1317,
 "fix": 1318,
 "Ġargs": 1319,
 "ception": 1320,
 "Ġno": 1321,
 "capacity": 1322,
 "Ġ});": 1323,
 "34": 1324,
 "Ġother": 1325,
 "Ġwhen": 1326,
 "ĠValueError": 1327,
 "Ġcomp": 1328,
 "Ġsize": 1329,
 "empty": 1330,
 "256": 1331,
 "Ġos": 1332,
 "max": 1333,
 "Ġrout": 1334,
 "LE": 1335,
 "search": 1336,
 "ses": 1337,
 "ocab": 1338,
 "_h": 1339,
 "Ġbytes": 1340,
 "ameter": 1341,
 "_in": 1342,
 "AR": 1343,
 "ĠThis": 1344,
 "Ġonly": 1345,
 "ĠNot": 1346,
 "ave": 1347,
 "Ġinst": 1348,
 "----------------": 1349,
 "Ġstate": 1350,
 "ĠĠĠĠĠ": 1351,
 "stream": 1352,
 "Ġq": 1353,
 "AT": 1354,
 "Ġassert": 1355,
 "alled": 1356,
 "theta": 1357,
 "_norm": 1358,
 "ispatch": 1359,
 "Ġstat": 1360,
 "Ġsock": 1361,
 "xture": 1362,
 "sg": 1363,
 "}^{": 1364,
 "ail": 1365,
 "ining": 1366,
 "ĊĠĠĠĠĠĠĠĠĠĠĠĠĠĠĠĠĠĠĠĠĠĠĠĠĠĠĠĠ": 1367,
 "Ġexit": 1368,
 "Ġ->": 1369,
 "Ġsu": 1370,
 "roup": 1371,
 "iled": 1372,
 "hould": 1373,
 "Ġsub": 1374,
 "'t": 1375,
 "Ġ},": 1376,
 "Ġsc": 1377,
 "uint": 1378,
 "const": 1379,
 "itect": 1380,
 "ren": 1381,
 "uture": 1382,
 "Ġ&": 1383,
 "kw": 1384,
 "itecture": 1385,
 "ich": 1386,
 "ĠSep": 1387,
 "xr": 1388,
 "docs": 1389,
 "inal": 1390,
 "Ġcle": 1391,
 "iron": 1392,
 "enc": 1393,
 "61": 1394,
 "ateway": 1395,
 "var": 1396,
 "viron": 1397,
 "write": 1398,
 "Ġshould": 1399,
 "fg": 1400,
 "ach": 1401,
 "no": 1402,
 "Ġnum": 1403,
 "ec": 1404,
 "Ġcharact": 1405,
 "Ġpr": 1406,
 "temp": 1407,
 "ative": 1408,
 "Ġpass": 1409,
 "Ġtar": 1410,
 "Ġthread": 1411,
 "Ġhandle": 1412,
 "work": 1413,
 "({": 1414,
 "lob": 1415,
 "Con": 1416,
 "True": 1417,
 "ry": 1418,
 "Ġone": 1419,
 "Ġauth": 1420,
 "tribute": 1421,
 "grad": 1422,
 "ĠG": 1423,
 "ML": 1424,
 "lement": 1425,
 "Ġ[\"": 1426,
 "ify": 1427,
 "pected": 1428,
 "gith": 1429,
 "github": 1430,
 "ource": 1431,
 "Ġ6": 1432,
 "EN": 1433,
 "AL": 1434,
 "ĠRe": 1435,
 "39": 1436,
 "Ġhttps": 1437,
 "_pre": 1438,
 "().": 1439,
 "Ġhandler": 1440,
 "};": 1441,
 "Ġne": 1442,
 "quest": 1443,
 "Ġcont": 1444,
 "Ġ!=": 1445,
 "ency": 1446,
 "module": 1447,
 "served": 1448,
 "ted": 1449,
 "push": 1450,
 "Ġli": 1451,
 "reak": 1452,
 "Ġwhich": 1453,
 "ca": 1454,
 "_code": 1455,
 "_con": 1456,
 "nd": 1457,
 "Ġdoc": 1458,
 "48": 1459,
 "inq": 1460,
 "Ġfailed": 1461,
 "inqic": 1462,
 "Ġ@": 1463,
 "Cinqic": 1464,
 "lect": 1465,
 "Ġreg": 1466,
 "length": 1467,
 "son": 1468,
 "iss": 1469,
 "Ġsh": 1470,
 "Ġprint": 1471,
 "nection": 1472,
 "Ġthen": 1473,
 "freq": 1474,
 "Ġ\"/": 1475,
 "Ġdif": 1476,
 "Ġfree_": 1477,
 "vector": 1478,
 "red": 1479,
 "uler": 1480,
 "Ġmessage": 1481,
 "Ġact": 1482,
 "ync": 1483,
 "Ġformat": 1484,
 "88123": 1485,
 "sign": 1486,
 "rent": 1487,
 "ush": 1488,
 "04": 1489,
 "count": 1490,
 "method": 1491,
 "ns": 1492,
 "AB": 1493,
 "E_": 1494,
 "ites": 1495,
 "mory": 1496,
 "Ġloading": 1497,
 "ink": 1498,
 "Ġgiv": 1499,
 "Ġconfig": 1500,
 "lat": 1501,
 "zen": 1502,
 "Ġ----": 1503,
 "Ġbuild": 1504,
 "fter": 1505,
 "Ġmsg": 1506,
 "_res": 1507,
 "igh": 1508,
 "ool": 1509,
 "rozen": 1510,
 "Ġhel": 1511,
 "so": 1512,
 ">>": 1513,
 "ings": 1514,
 "ĠsetState": 1515,
 "Ġspeci": 1516,
 "reate": 1517,
 "_ac": 1518,
 "sent": 1519,
 "Ġfil": 1520,
 "_type": 1521,
 "router_": 1522,
 "xy": 1523,
 "lay": 1524,
 "ob": 1525,
 "ility": 1526,
 "Ġdoes": 1527,
 "gener": 1528,
 "Ġover": 1529,
 "UT": 1530,
 "scri": 1531,
 "Ġerr": 1532,
 "Ġup": 1533,
 "Ġstruct": 1534,
 "ber": 1535,
 "ner": 1536,
 "Ġsame": 1537,
 "ference": 1538,
 "done": 1539,
 "gor": 1540,
 "Ġtime": 1541,
 "79": 1542,
 "='": 1543,
 "valuation": 1544,
 "Se": 1545,
 "oin": 1546,
 "ield": 1547,
 "rt": 1548,
 "status": 1549,
 "Ġgrad": 1550,
 "we": 1551,
 "Ġtests": 1552,
 "itespace": 1553,
 "Ġqu": 1554,
 "Ġlocal": 1555,
 "alance": 1556,
 "ead": 1557,
 ":'": 1558,
 "unk": 1559,
 "api": 1560,
 "vironment": 1561,
 "Ġ+=": 1562,
 "Ġop": 1563,
 "Ex": 1564,
 "_error": 1565,
 "be": 1566,
 "30": 1567,
 "vocab": 1568,
 "confi": 1569,
 "Ġoption": 1570,
 "\">": 1571,
 "_balance": 1572,
 "`,": 1573,
 "ense": 1574,
 "ĊĠĠĠĠĠĠĠĠĠĠĠĠĠĠĠĠĠĠĠĠĠĠĠĠĠĠĠ": 1575,
 "Ġversion": 1576,
 "Ġfin": 1577,
 "Ġap": 1578,
 "gorith": 1579,
 "handle": 1580,
 "perty": 1581,
 "wor": 1582,
 "Ġround": 1583,
 "message": 1584,
 "Ġ[]": 1585,
 "16": 1586,
 "By": 1587,
 "Ġ__init__": 1588,
 "****": 1589,
 "Ġ)": 1590,
 "artic": 1591,
 "artifact": 1592,
 "lm": 1593,
 "otal": 1594,
 "''": 1595,
 "56": 1596,
 "order": 1597,
 "_map": 1598,
 "lable": 1599,
 "ST": 1600,
 "ified": 1601,
 "queue": 1602,
 "Ġcontext": 1603,
 "format": 1604,
 "loss": 1605,
 "dex": 1606,
 "arguments": 1607,
 "Ġexception": 1608,
 "yp": 1609,
 "99": 1610,
 "Ġ</": 1611,
 "acy": 1612,
 "Ġinfo": 1613,
 "point": 1614,
 "Ġvalid": 1615,
 "Ġsyslog": 1616,
 "ations": 1617,
 "Ġgener": 1618,
 "%]": 1619,
 "']": 1620,
 "_balance_loss": 1621,
 "ffect": 1622,
 "gorithm": 1623,
 "json": 1624,
 "sy": 1625,
 "ies": 1626,
 "Ġhave": 1627,
 "AD": 1628,
 "G_": 1629,
 "inf": 1630,
 "unc": 1631,
 "z_loss": 1632,
 "Ġfixture": 1633,
 "anif": 1634,
 "anifest": 1635,
 "Ġind": 1636,
 "_exper": 1637,
 "ls": 1638,
 "ĠEx": 1639,
 "Ġallow": 1640,
 "\"/": 1641,
 "time": 1642,
 "ain": 1643,
 "Ġconst": 1644,
 "Not": 1645,
 "qrt": 1646,
 "Ġmain": 1647,
 "Doc": 1648,
 "lm_loss": 1649,
 "plit": 1650,
 "arts": 1651,
 "article": 1652,
 "min": 1653,
 "8080": 1654,
 "architecture": 1655,
 "Ġwas": 1656,
 "\"/>": 1657,
 "Ġprodu": 1658,
 "TP": 1659,
 "ache": 1660,
 "ecut": 1661,
 "Ġz": 1662,
 "Ġcharacters": 1663,
 "Ġmod": 1664,
 "Ġ:": 1665,
 "static": 1666,
 "ĠIn": 1667,
 "Ġexact": 1668,
 "router_z_loss": 1669,
 "open": 1670,
 "Ġser": 1671,
 "Ġsour": 1672,
 "curacy": 1673,
 "Ġ...": 1674,
 "Ġvalues": 1675,
 "07": 1676,
 "IT": 1677,
 "als": 1678,
 "istant": 1679,
 "Ġwhitespace": 1680,
 "_model": 1681,
 "ange": 1682,
 "moe": 1683,
 "sin": 1684,
 "assistant": 1685,
 "filen": 1686,
 "sition": 1687,
 "tool_call": 1688,
 "Ġcos": 1689,
 "alloc": 1690,
 "ical": 1691,
 "iling": 1692,
 "Ġactu": 1693,
 "Ġfn": 1694,
 "_accuracy": 1695,
 "join": 1696,
 "load_balance_loss": 1697,
 "ĠPython": 1698,
 "Ġsqrt": 1699,
 "Ġsource": 1700,
 "85": 1701,
 "gh": 1702,
 "Ġslo": 1703,
 "stem": 1704,
 "Ġport": 1705,
 "De": 1706,
 "_par": 1707,
 "has": 1708,
 "argv": 1709,
 "Ġget_": 1710,
 "Ġcur": 1711,
 "Ġexc": 1712,
 "date": 1713,
 "Ġdx": 1714,
 "Ġint_": 1715,
 "Ġ||": 1716,
 "Return": 1717,
 "ens": 1718,
 "grad_norm": 1719,
 "validate": 1720,
 "Ġthan": 1721,
 "Ġwr": 1722,
 "91": 1723,
 "Ġcar": 1724,
 "Ġ>>>": 1725,
 "Ġdiffer": 1726,
 "ures": 1727,
 "token_accuracy": 1728,
 "EL": 1729,
 "Ġinto": 1730,
 "comp": 1731,
 "upport": 1732,
 "irst": 1733,
 "Ġfol": 1734,
 "Ġoutput": 1735,
 "Ġnames": 1736,
 "Ġenvironment": 1737,
 "+)": 1738,
 "_st": 1739,
 "Ġrep": 1740,
 "Ġyield": 1741,
 "uffer": 1742,
 "Ġits": 1743,
 "derr": 1744,
 "set_": 1745,
 "mand": 1746,
 "Ġwhile": 1747,
 "Ġcancelled": 1748,
 "ĊĊĠĠĠĠĠĠĠĠĠĠĠ": 1749,
 "mail": 1750,
 "msg": 1751,
 "ĠIN": 1752,
 "Ġinter": 1753,
 "Ġmodel": 1754,
 "15": 1755,
 "info": 1756,
 "sha": 1757,
 "Ġmax": 1758,
 "_result": 1759,
 "_head": 1760,
 "ero": 1761,
 "Ġ./": 1762,
 "ED": 1763,
 "['": 1764,
 "struct": 1765,
 "Ġent": 1766,
 "_path": 1767,
 "ates": 1768,
 "Ġident": 1769,
 "FO": 1770,
 "../": 1771,
 "False": 1772,
 "bility": 1773,
 "Ġargument": 1774,
 "Ġstack": 1775,
 "bug": 1776,
 "Ġheader": 1777,
 "03": 1778,
 "default": 1779,
 "Ġwhat": 1780,
 "irect": 1781,
 "Ġbase": 1782,
 "Ġslot": 1783,
 "lags": 1784,
 "[\"": 1785,
 "istr": 1786,
 "steps": 1787,
 "ĠType": 1788,
 "Ġbreak": 1789,
 "_string": 1790,
 "eno": 1791,
 "Ġfirst": 1792,
 "UL": 1793,
 "dev": 1794,
 "its": 1795,
 "fs": 1796,
 "local": 1797,
 "this": 1798,
 "Ġus": 1799,
 "Ġuint": 1800,
 "Pro": 1801,
 "name__": 1802,
 "Ġafter": 1803,
 "_prepend": 1804,
 "anges": 1805,
 "close": 1806,
 "encode": 1807,
 "item": 1808,
 "pop": 1809,
 "Ġwrite": 1810,
 "ES": 1811,
 "Ġargc": 1812,
 "++)": 1813,
 "for": 1814,
 "node_t": 1815,
 "Ġtuple": 1816,
 "istry": 1817,
 "27": 1818,
 "cls": 1819,
 "Ġspecifi": 1820,
 "Ġimplement": 1821,
 "_de": 1822,
 "_to": 1823,
 "ume": 1824,
 "Ġcalled": 1825,
 "vices": 1826,
 "kwargs": 1827,
 "worker": 1828,
 "Ġlimit": 1829,
 "RO": 1830,
 "_value": 1831,
 "ansport": 1832,
 "Ġevent": 1833,
 "fore": 1834,
 "ordered": 1835,
 "ĊĠĠĠĠĠĠĠĠĠĠĠĠĠĠĠĠĠĠĠĠĠĠĠĠĠĠĠĠĠĠĠĠĠĠĠĠ": 1836,
 "Ġstor": 1837,
 "gateway": 1838,
 "Ġite": 1839,
 "iag": 1840,
 "ie": 1841,
 "services": 1842,
 "Ġlet": 1843,
 "Ġpush": 1844,
 "sock": 1845,
 "FA": 1846,
 "cation": 1847,
 "ible": 1848,
 "ther": 1849,
 "55": 1850,
 "oken": 1851,
 "Ġdifferent": 1852,
 "86": 1853,
 "cancelled": 1854,
 "Ġparser": 1855,
 "read_file": 1856,
 "view": 1857,
 "Ġabout": 1858,
 "ess": 1859,
 "lines": 1860,
 "lease": 1861,
 "new": 1862,
 "objective": 1863,
 "Ġstorage": 1864,
 "ingle": 1865,
 "ref": 1866,
 "Ġinput": 1867,
 "_e": 1868,
 "Ġnumber": 1869,
 "dict": 1870,
 "Ġ14": 1871,
 "Ġexactly": 1872,
 "ĠY": 1873,
 "ctions": 1874,
 "Ġsocket": 1875,
 "etch": 1876,
 "utf": 1877,
 "Ġnorm": 1878,
 "Ġspec": 1879,
 "paces": 1880,
 "Ġblock": 1881,
 "Name": 1882,
 "bytes": 1883,
 "ĠĠĠĠĠĠĠĠĠĠ": 1884,
 "Ġ++": 1885,
 "Ġclean": 1886,
 "Ġpas": 1887,
 "wo": 1888,
 "ism": 1889,
 "ĠX": 1890,
 "Ġcase": 1891,
 "Ġmake": 1892,
 "Found": 1893,
 "ineno": 1894,
 "unordered": 1895,
 "IL": 1896,
 "abs": 1897,
 ">(": 1898,
 "Ġmay": 1899,
 "Ġprotocol": 1900,
 "Ġstorage_": 1901,
 "Documents": 1902,
 "_cast": 1903,
 "free_": 1904,
 "push_back": 1905,
 "unordered_map": 1906,
 "Ġfollow": 1907,
 "Ġsched": 1908,
 "Ġsequ": 1909,
 "Ġflo": 1910,
 "cle": 1911,
 "Ġtarget": 1912,
 "ient": 1913,
 "ared": 1914,
 "pon": 1915,
 "Ġattemp": 1916,
 "RL": 1917,
 "ics": 1918,
 "========": 1919,
 "Timeout": 1920,
 "################": 1921,
 "096": 1922,
 "ĠPhase": 1923,
 "Ġloop": 1924,
 "Ġtop": 1925,
 "io": 1926,
 "Ġcount": 1927,
 "58": 1928,
 "sum": 1929,
 "Ġeach": 1930,
 "Ġlength": 1931,
 "Ġ8": 1932,
 "Ġjuniper_auto": 1933,
 "ĠMo": 1934,
 "NotFound": 1935,
 "rol": 1936,
 "74": 1937,
 "alth": 1938,
 "ery": 1939,
 "tain": 1940,
 "anch": 1941,
 "call": 1942,
 "Ġframe": 1943,
 "``": 1944,
 "ences": 1945,
 "ĠK": 1946,
 "Ġ{}": 1947,
 "Effect": 1948,
 "fset": 1949,
 "lain": 1950,
 "Ġkw": 1951,
 "[:": 1952,
 "Ġxml": 1953,
 "python": 1954,
 "Ġconnection": 1955,
 "Ġparameter": 1956,
 "pack": 1957,
 "then": 1958,
 "21": 1959,
 "export": 1960,
 "ĠTypeError": 1961,
 "Ġinstance": 1962,
 "Ġcfg": 1963,
 "(()": 1964,
 "Ms": 1965,
 "ĠuseEffect": 1966,
 "ĠuseState": 1967,
 "ĠwaitMs": 1968,
 "Ġ};": 1969,
 "ou": 1970,
 "abc": 1971,
 "Ġfilename": 1972,
 "Ġroutes": 1973,
 "curren": 1974,
 "Ġreader": 1975,
 "cord": 1976,
 "health": 1977,
 "raw": 1978,
 "ĠSt": 1979,
 "Ġmemory": 1980,
 "Ġtwo": 1981,
 "byte": 1982,
 "process": 1983,
 "expected": 1984,
 "host": 1985,
 "Ġdict": 1986,
 "fe": 1987,
 "Ġactually": 1988,
 "Ġlines": 1989,
 "Handler": 1990,
 "move": 1991,
 "Ġmean": 1992,
 "Ġper": 1993,
 "EX": 1994,
 "Ġhere": 1995,
 "Ġpassed": 1996,
 "configs": 1997,
 "pecial": 1998,
 "Ġbin": 1999,
 "Ġmodified": 2000,
 ")))": 2001,
 "_g": 2002,
 "func": 2003,
 "},": 2004,
 "filename": 2005,
 "okie": 2006,
 "healthy": 2007,
 "Ġmatch": 2008,
 "exit": 2009,
 "ized": 2010,
 "mber": 2011,
 "Ġexper": 2012,
 "Ġiter": 2013,
 "_by": 2014,
 "Ġauthor": 2015,
 "ceback": 2016,
 "nown": 2017,
 "Ġloss": 2018,
 "Ġprocess": 2019,
 "Ch": 2020,
 "apping": 2021,
 "Ġ5": 2022,
 "LO": 2023,
 "ced": 2024,
 "Ġbr": 2025,
 "Type": 2026,
 "xml": 2027,
 "duci": 2028,
 "igin": 2029,
 "Ġawait": 2030,
 "Ġsingle": 2031,
 "-----": 2032,
 "'):": 2033,
 "cause": 2034,
 "fici": 2035,
 "source": 2036,
 "Ġ4096": 2037,
 "Ġscheduler": 2038,
 "Ġbranch": 2039,
 "Ġcla": 2040,
 "indow": 2041,
 "Ġindent": 2042,
 "Ġcorpus": 2043,
 "_C": 2044,
 "ither": 2045,
 "kip": 2046,
 "ote": 2047,
 "Ġ'.": 2048,
 "Ġdocument": 2049,
 "Ġtyp": 2050,
 "150": 2051,
 "anner": 2052,
 "latency": 2053,
 "Ġdown": 2054,
 "Ġwithout": 2055,
 "_read": 2056,
 "ped": 2057,
 "stdout": 2058,
 "ĠINFO": 2059,
 "Ġdepend": 2060,
 "Ġserver": 2061,
 "(),": 2062,
 "Ġdispatch": 2063,
 "AS": 2064,
 "Token": 2065,
 "any": 2066,
 "Ġfrozen": 2067,
 "IME": 2068,
 "NO": 2069,
 "split": 2070,
 "ult_": 2071,
 "File": 2072,
 "_ms": 2073,
 "_ro": 2074,
 "Ġhost": 2075,
 "Ġcommits": 2076,
 "3931": 2077,
 "gn": 2078,
 "present": 2079,
 "'.": 2080,
 "........................................": 2081,
 "........................................................................": 2082,
 "Ġ05": 2083,
 "ĠCon": 2084,
 "Ġadm": 2085,
 "attern": 2086,
 "down": 2087,
 "wh": 2088,
 "ĠLO": 2089,
 "Ġheld": 2090,
 "drw": 2091,
 "drwxr": 2092,
 "evaluation": 2093,
 "latency_ms": 2094,
 "Ġcls": 2095,
 "oid": 2096,
 "Ġtimeout": 2097,
 "ong": 2098,
 "Ġlast": 2099,
 "].": 2100,
 "_sh": 2101,
 "ducibility": 2102,
 "Ġrepresent": 2103,
 "per_token": 2104,
 "termin": 2105,
 "DE": 2106,
 "MS": 2107,
 "_loop": 2108,
 "ful": 2109,
 "ross": 2110,
 "vari": 2111,
 "gment": 2112,
 "typ": 2113,
 "Ġpi": 2114,
 "ey": 2115,
 "rect": 2116,
 "38": 2117,
 "ropy": 2118,
 "Ġsepar": 2119,
 "AML": 2120,
 "OU": 2121,
 "atters": 2122,
 "TTP": 2123,
 "cla": 2124,
 "ll": 2125,
 "mar": 2126,
 "35": 2127,
 "ister": 2128,
 "with": 2129,
 "ĠYAML": 2130,
 "Ġav": 2131,
 "Ġbecause": 2132,
 "ould": 2133,
 "pri": 2134,
 "ublic": 2135,
 "Ġregistry": 2136,
 "Ġwhere": 2137,
 "servation": 2138,
 "ĠJ": 2139,
 "Ġgetattr": 2140,
 "result": 2141,
 "tool_result": 2142,
 "Ġarguments": 2143,
 "trips": 2144,
 "Ġcurrent": 2145,
 "Ġrequire": 2146,
 "content": 2147,
 "lt": 2148,
 "observation": 2149,
 "try": 2150,
 "Ġqueue": 2151,
 "Ġcheckout": 2152,
 "\"}}": 2153,
 "_tra": 2154,
 "Par": 2155,
 "ams": 2156,
 "Ġexit_code": 2157,
 "ages": 2158,
 "lector": 2159,
 "Ġbet": 2160,
 "Ġelement": 2161,
 "Ġfail": 2162,
 "licy": 2163,
 "amp": 2164,
 "losed": 2165,
 "rip": 2166,
 "Ġpy": 2167,
 "atever": 2168,
 "only": 2169,
 "teg": 2170,
 "fc": 2171,
 "Ġwhatever": 2172,
 "_tokens": 2173,
 "section": 2174,
 "Ġnon": 2175,
 "Ġzero": 2176,
 "late": 2177,
 "place": 2178,
 "Ġ``": 2179,
 "Ġcontin": 2180,
 "Ġhash": 2181,
 "Ġchild": 2182,
 "Ġeither": 2183,
 "Ġvar": 2184,
 "_S": 2185,
 "clear": 2186,
 "manifest": 2187,
 "ĊĠĠĠĠĠĠĠĠĠĠ": 2188,
 "Ġ256": 2189,
 "20": 2190,
 "oft": 2191,
 "tern": 2192,
 "Ġstep": 2193,
 "ĠReturn": 2194,
 "Ġsupport": 2195,
 "ific": 2196,
 "ET": 2197,
 "Implement": 2198,
 "allback": 2199,
 "ater": 2200,
 "Ġurl": 2201,
 "Ġcarry": 2202,
 "Ġconstruct": 2203,
 "Ġgiven": 2204,
 "Ġmatters": 2205,
 "last": 2206,
 "Ġaction": 2207,
 "Ġprefix": 2208,
 "indows": 2209,
 "Ġfound": 2210,
 "ries": 2211,
 "Ġdownstream": 2212,
 "da": 2213,
 "ĠLOG_": 2214,
 "Ġerrors": 2215,
 "Ġgate": 2216,
 "Ġpart": 2217,
 "entropy": 2218,
 "num": 2219,
 "Ġcons": 2220,
 "Ġrequest": 2221,
 "Ġwould": 2222,
 "Ġwrit": 2223,
 "[-": 2224,
 "fn": 2225,
 "ization": 2226,
 "oi": 2227,
 "Ġexist": 2228,
 "_add": 2229,
 "formation": 2230,
 "Ġcol": 2231,
 "Ġdist": 2232,
 "Ġsim": 2233,
 "Ġhasattr": 2234,
 "Ġnext": 2235,
 "(\"%": 2236,
 "__name__": 2237,
 "ccess": 2238,
 "Ġspaces": 2239,
 "AN": 2240,
 "Ġ'''": 2241,
 "ix": 2242,
 "Ġlay": 2243,
 "afe": 2244,
 "gt": 2245,
 "sses": 2246,
 "ved": 2247,
 "Ġbound": 2248,
 "Ġexecut": 2249,
 "Ġnamed": 2250,
 "lim": 2251,
 "repr": 2252,
 "Ġfunc": 2253,
 "os": 2254,
 "Ġbefore": 2255,
 "ilar": 2256,
 "uration": 2257,
 "Ġadded": 2258,
 "Ġrest": 2259,
 "Ġsign": 2260,
 "pos": 2261,
 "reg": 2262,
 "vice": 2263,
 "Ġalgorithm": 2264,
 "Ġdep": 2265,
 "Ġstatus": 2266,
 "Ġgradient": 2267,
 "do": 2268,
 "Ġheaders": 2269,
 "READ": 2270,
 "lag": 2271,
 "ward": 2272,
 "Ġfix": 2273,
 "async": 2274,
 "Ġver": 2275,
 "Ġmode": 2276,
 "TI": 2277,
 "ature": 2278,
 "erg": 2279,
 "_ch": 2280,
 "kind": 2281,
 "43": 2282,
 "anag": 2283,
 "copy": 2284,
 "ib": 2285,
 "research": 2286,
 "ject": 2287,
 "lation": 2288,
 "ttribute": 2289,
 "Ġinformation": 2290,
 "Ġback": 2291,
 "exact": 2292,
 "hether": 2293,
 "names": 2294,
 "Ġidentity": 2295,
 "_list": 2296,
 "class__": 2297,
 "spec": 2298,
 "special": 2299,
 "Ġreport": 2300,
 "Ġsec": 2301,
 "coded": 2302,
 "iment": 2303,
 "ract": 2304,
 "top": 2305,
 "tax": 2306,
 "Ġattribute": 2307,
 "Ġglob": 2308,
 "Ġsimilar": 2309,
 ".\"": 2310,
 "368": 2311,
 "Ġcontinue": 2312,
 "100": 2313,
 "Implemented": 2314,
 "post": 2315,
 "Ġlink": 2316,
 "Ġsuper": 2317,
 "exc": 2318,
 "gress": 2319,
 "ĊĠĠĠĠĠĠĠĠĠĠĠĠĠĠĠĠ": 2320,
 "Ġdirect": 2321,
 "_j": 2322,
 "eader": 2323,
 "keep": 2324,
 "ttp": 2325,
 "Ġsample": 2326,
 "actory": 2327,
 "}:": 2328,
 "Ġusing": 2329,
 "Ġstderr": 2330,
 "511": 2331,
 "FC": 2332,
 "PE": 2333,
 "ources": 2334,
 "ision": 2335,
 "origin": 2336,
 "property": 2337,
 "ween": 2338,
 "ffici": 2339,
 "ft": 2340,
 "Ġgroup": 2341,
 "ING": 2342,
 "mpty": 2343,
 "ponse": 2344,
 "ĠNotImplemented": 2345,
 "erges": 2346,
 "Ġrelease": 2347,
 "Ġsyn": 2348,
 "0007": 2349,
 "Module": 2350,
 "Tokenizer": 2351,
 "dir": 2352,
 "tegr": 2353,
 "ual": 2354,
 "ĠKey": 2355,
 "Ġtheir": 2356,
 "([": 2357,
 "_count": 2358,
 "ning": 2359,
 "Ġbetween": 2360,
 "qual": 2361,
 "word": 2362,
 "Ġ20": 2363,
 "Ġpreserved": 2364,
 "UN": 2365,
 "allable": 2366,
 "dead": 2367,
 "UTF": 2368,
 "encoding": 2369,
 "ome": 2370,
 "Ġallowed": 2371,
 "Ġconstructor": 2372,
 "Ġresources": 2373,
 "Ġthere": 2374,
 "IO": 2375,
 "Ġinit": 2376,
 "sr": 2377,
 "warn": 2378,
 "Ġdis": 2379,
 "Ġlock": 2380,
 "(*": 2381,
 "677": 2382,
 "AC": 2383,
 "ards": 2384,
 "ĠĠĠĠĠĠĠĠĠĠĠ": 2385,
 "ĠNo": 2386,
 "Str": 2387,
 "ined": 2388,
 "issing": 2389,
 "ĠOS": 2390,
 "Ġwarn": 2391,
 "Ġattr": 2392,
 "766": 2393,
 "SON": 2394,
 "_info": 2395,
 "util": 2396,
 "Ġ],": 2397,
 "atri": 2398,
 "context": 2399,
 "LEV": 2400,
 "LEVEL": 2401,
 "atrix": 2402,
 "del": 2403,
 "Ġ()": 2404,
 "Ġacquire": 2405,
 "Ġart": 2406,
 "ROR": 2407,
 "air": 2408,
 "untime": 2409,
 "ĠUse": 2410,
 "Ġsent": 2411,
 "Ġspecified": 2412,
 "tabs": 2413,
 "Ġartifact": 2414,
 "Ġcorrect": 2415,
 "Ġstdout": 2416,
 "?>": 2417,
 "notes": 2418,
 "ured": 2419,
 "ĠUn": 2420,
 "Ġtraining": 2421,
 "021": 2422,
 "ULL": 2423,
 "exper": 2424,
 "total": 2425,
 "trailing": 2426,
 "utdown": 2427,
 "Ġ^": 2428,
 "Ġ<=": 2429,
 "ĠCo": 2430,
 "Ġclear": 2431,
 "Ġreturned": 2432,
 "<?": 2433,
 "bpe": 2434,
 "map": 2435,
 "manifests": 2436,
 "oftmax": 2437,
 "tags": 2438,
 "teger": 2439,
 "Ġcomm": 2440,
 "Ġcontain": 2441,
 "Ġlevel": 2442,
 "Ġnotation": 2443,
 "Ġwhether": 2444,
 "_args": 2445,
 "ault_": 2446,
 "ished": 2447,
 "Ġfuture": 2448,
 "OUT_": 2449,
 "_check": 2450,
 "ging": 2451,
 "ĠXML": 2452,
 "Exception": 2453,
 "_r": 2454,
 "txt": 2455,
 "words": 2456,
 "Ġima": 2457,
 "Ġvis": 2458,
 "Sy": 2459,
 "loy": 2460,
 "replace": 2461,
 "Ġcontrol": 2462,
 "Ġlimits": 2463,
 "Ġorder": 2464,
 "022": 2465,
 "OT": 2466,
 "elds": 2467,
 "ide": 2468,
 "plan": 2469,
 "ĠTIME": 2470,
 "Ġcross": 2471,
 "Ġthreads": 2472,
 "BU": 2473,
 "Round": 2474,
 "__class__": 2475,
 "s_on": 2476,
 "Ġbo": 2477,
 "Ġflags": 2478,
 "Ġgives": 2479,
 "Ġrecord": 2480,
 "cii": 2481,
 "thread": 2482,
 "Ġ>=": 2483,
 "ĠNotes": 2484,
 "Ġdel": 2485,
 "Ġitem": 2486,
 "Qu": 2487,
 "hashes": 2488,
 "Ġ11": 2489,
 "Ġinteger": 2490,
 "Ġpython": 2491,
 "Ġstream": 2492,
 "Ġxmlns": 2493,
 "IC": 2494,
 "O_": 2495,
 "tar": 2496,
 "Ġ\\": 2497,
 "Ġdeploy": 2498,
 "Ġgateway": 2499,
 "Ġimage": 2500,
 ".</": 2501,
 ":\\": 2502,
 "ai": 2503,
 "cision": 2504,
 "option": 2505,
 "ody": 2506,
 "preserved": 2507,
 "Ġmore": 2508,
 "\"?>": 2509,
 "076": 2510,
 "2500": 2511,
 "Lo": 2512,
 "_len": 2513,
 "currence": 2514,
 "dispatch": 2515,
 "Ġcpus": 2516,
 "Ġreplic": 2517,
 "36864": 2518,
 "script": 2519,
 "tegral": 2520,
 "waiting": 2521,
 "ĠJSON": 2522,
 "ĠLOG_LEVEL": 2523,
 "ĠRFC": 2524,
 "ĠTIMEOUT_": 2525,
 "ĠTIMEOUT_MS": 2526,
 "Ġdepends_on": 2527,
 "Ġfull": 2528,
 "Ġports": 2529,
 "Ġreplicas": 2530,
 "--------------------------------": 2531,
 "_progress": 2532,
 "arent": 2533,
 "deadline": 2534,
 "frame": 2535,
 "https": 2536,
 "in_progress": 2537,
 "marize": 2538,
 "objective_id": 2539,
 "review": 2540,
 "redis": 2541,
 "summarize": 2542,
 "v_": 2543,
 "Ġlogger": 2544,
 "\".": 2545,
 "********": 2546,
 "__init__": 2547,
 "_size": 2548,
 "now": 2549,
 "training": 2550,
 "Ġcre": 2551,
 "273": 2552,
 "command": 2553,
 "ragment": 2554,
 "sole": 2555,
 "ĠCP": 2556,
 "ĠVar": 2557,
 "Ġpytest": 2558,
 "ĠAuto": 2559,
 "Ġextra": 2560,
 "Ġgenerally": 2561,
 "Ġmost": 2562,
 "_bytes": 2563,
 "generate": 2564,
 "sers": 2565,
 "Ġcoun": 2566,
 "IT_": 2567,
 "_arg": 2568,
 "ish": 2569,
 "old": 2570,
 "ready": 2571,
 "system": 2572,
 "Ġkeep": 2573,
 "Ġway": 2574,
 "_config": 2575,
 "_k": 2576,
 "anager": 2577,
 "dist": 2578,
 "ij": 2579,
 "ik": 2580,
 "ĠMore": 2581,
 "Ġhow": 2582,
 "ĠDE": 2583,
 "ĠSe": 2584,
 "omial": 2585,
 "win": 2586,
 "37": 2587,
 "tributes": 2588,
 "Ġ9": 2589,
 "Ġbest": 2590,
 "Ġrecurrence": 2591,
 "Ġproduct": 2592,
 "URE": 2593,
 "base": 2594,
 "ups": 2595,
 "ĠOSError": 2596,
 "ĠWe": 2597,
 "Ġneed": 2598,
 "Ġsimilarity": 2599,
 "Ġstatic": 2600,
 "Ġyou": 2601,
 "Integral": 2602,
 "_state": 2603,
 "check": 2604,
 "licit": 2605,
 "signed": 2606,
 "ting": 2607,
 "Ġbinomial": 2608,
 "Ġobjects": 2609,
 "_rout": 2610,
 "cient": 2611,
 "cientific": 2612,
 "sing": 2613,
 "tan": 2614,
 "Ġmethods": 2615,
 ")^": 2616,
 "2458": 2617,
 "_bar": 2618,
 "annot": 2619,
 "orem": 2620,
 "Ġalso": 2621,
 "Ġchanges": 2622,
 "RI": 2623,
 "dx": 2624,
 "opt": 2625,
 "Ġ*,": 2626,
 "ĠCheck": 2627,
 "Ġsum_i": 2628,
 "9979": 2629,
 "^-": 2630,
 "^{-": 2631,
 "ark": 2632,
 "Ġ(||": 2633,
 "Ġcosine": 2634,
 "Ġp_i": 2635,
 "Ġq_i": 2636,
 "Ġsum_h": 2637,
 "Ġsum_j": 2638,
 "Ġtan": 2639,
 "Ġv_n": 2640,
 "Ġx_bar": 2641,
 "Ġx_i": 2642,
 "02214": 2643,
 "6021": 2644,
 "Bay": 2645,
 "Bayes": 2646,
 "Euler": 2647,
 "Softmax": 2648,
 "Softmax_i": 2649,
 "Vector": 2650,
 "])^": 2651,
 "debug": 2652,
 "idth": 2653,
 "lim_": 2654,
 "malloc": 2655,
 "stdlib": 2656,
 "ux": 2657,
 "yle": 2658,
 "z_i": 2659,
 "z_j": 2660,
 "{-": 2661,
 "||).": 2662,
 "Ġ~": 2663,
 "ĠA_": 2664,
 "ĠB_": 2665,
 "Ġcomple": 2666,
 "Ġdeg": 2667,
 "ĠdegC": 2668,
 "Ġmol": 2669,
 "Ġsum_k": 2670,
 "Ġtheorem": 2671,
 "02214076": 2672,
 "6021766": 2673,
 "602176634": 2674,
 "99792458": 2675,
 "Big": 2676,
 "Matrix": 2677,
 "SL": 2678,
 "Scientific": 2679,
 "kj": 2680,
 "Ġrange": 2681,
 "Base": 2682,
 "Header": 2683,
 "ling": 2684,
 "Ġuser": 2685,
 "Ġabs": 2686,
 "ailable": 2687,
 "bel": 2688,
 "known": 2689,
 "merges": 2690,
 "mbol": 2691,
 "vate": 2692,
 "Ġfallback": 2693,
 "Ġmeans": 2694,
 "261": 2695,
 "29": 2696,
 "Ġempty": 2697,
 "Ġfloat": 2698,
 "artifacts": 2699,
 "cent": 2700,
 "cond": 2701,
 "ext_": 2702,
 "Ġposition": 2703,
 "Ġtypes": 2704,
 "ift": 2705,
 "sub": 2706,
 "tings": 2707,
 "Ġbyte": 2708,
 "Ġenum": 2709,
 "Ġlayer": 2710,
 "iterator": 2711,
 "lem": 2712,
 "maint": 2713,
 "ven": 2714,
 "variant": 2715,
 "IG": 2716,
 "ayload": 2717,
 "Ġcopy": 2718,
 "iagn": 2719,
 "iagnost": 2720,
 "Ġfield": 2721,
 "Ġfinally": 2722,
 "Ġsequences": 2723,
 "FAIL": 2724,
 "_dict": 2725,
 "aches": 2726,
 "ader": 2727,
 "output": 2728,
 "public": 2729,
 "umn": 2730,
 "Buffer": 2731,
 "Me": 2732,
 "ake": 2733,
 "ckle": 2734,
 "group": 2735,
 "ight": 2736,
 "ĠIt": 2737,
 "Ġconfiguration": 2738,
 "FAILURE": 2739,
 "URL": 2740,
 "_co": 2741,
 "tention": 2742,
 "unction": 2743,
 "Ġ(\"": 2744,
 "Ġinstead": 2745,
 "Ġsection": 2746,
 "Ġsome": 2747,
 "Ġvari": 2748,
 "Node": 2749,
 "_fi": 2750,
 "ensor": 2751,
 "Ġ('": 2752,
 "Ġ*=": 2753,
 "ĠNULL": 2754,
 "Ġeval": 2755,
 "Ġtag": 2756,
 "\");": 2757,
 ":]": 2758,
 "Ġcharset": 2759,
 "go": 2760,
 "inst": 2761,
 "oth": 2762,
 "Ġboundary": 2763,
 "Ġca": 2764,
 "Ġupdate": 2765,
 "Th": 2766,
 "_from": 2767,
 "Ġ?": 2768,
 "Ġbeen": 2769,
 "Ġbug": 2770,
 "Ġsyntax": 2771,
 "_lock": 2772,
 "ice": 2773,
 "59": 2774,
 "End": 2775,
 "MP": 2776,
 "_F": 2777,
 "sizeof": 2778,
 "Ġopen": 2779,
 "7619": 2780,
 "README": 2781,
 "atc": 2782,
 "ural": 2783,
 "Ġ^=": 2784,
 "Ġlang": 2785,
 "Ġmalloc": 2786,
 "Ġperror": 2787,
 "Su": 2788,
 "See": 2789,
 "Windows": 2790,
 "usr": 2791,
 "Ġaddress": 2792,
 "Ġexpected": 2793,
 "Ġreset": 2794,
 "Ġyour": 2795,
 "Ġchunk": 2796,
 "Ġinstall": 2797,
 "On": 2798,
 "User": 2799,
 "arness": 2800,
 "none": 2801,
 "Ġ216": 2802,
 "Ġclose": 2803,
 "Ġknow": 2804,
 "Ġkwargs": 2805,
 "Ġproperty": 2806,
 "TER": 2807,
 "]'": 2808,
 "_T": 2809,
 "template": 2810,
 "Ġprintf": 2811,
 "_tokenizer": 2812,
 "algorithm": 2813,
 "ascii": 2814,
 "esca": 2815,
 "ivation": 2816,
 "strip": 2817,
 "unct": 2818,
 "Ġ1677": 2819,
 "Ġ16777619": 2820,
 "Ġ21661": 2821,
 "Ġ2166136": 2822,
 "Ġ2166136261": 2823,
 "Ġatoi": 2824,
 "Ġfnv": 2825,
 "Ġlist_prepend": 2826,
 "Ġsize_t": 2827,
 "Ġtre": 2828,
 "\"],": 2829,
 "EXIT_": 2830,
 "EXIT_FAILURE": 2831,
 "]));": 2832,
 "ght": 2833,
 "ily": 2834,
 "list_prepend": 2835,
 "size_t": 2836,
 "stdint": 2837,
 "stdio": 2838,
 "typedef": 2839,
 "Ġalready": 2840,
 "escape": 2841,
 "rapper": 2842,
 "ĠPool": 2843,
 "Ġpe": 2844,
 "(`": 2845,
 "Test": 2846,
 "part": 2847,
 "ĠFor": 2848,
 "Ġwithin": 2849,
 "../../": 2850,
 "89": 2851,
 "Query": 2852,
 "Res": 2853,
 "_handler": 2854,
 "Ġ_get_": 2855,
 "Ġbuffer": 2856,
 "Ġss": 2857,
 "Ġwriting": 2858,
 "_mask": 2859,
 "ld": 2860,
 "lineno": 2861,
 "stract": 2862,
 "11": 2863,
 "_me": 2864,
 "andlers": 2865,
 "final": 2866,
 "typename": 2867,
 "ued": 2868,
 "Ġ})": 2869,
 "gnore": 2870,
 "Ġmess": 2871,
 "isspace": 2872,
 "true": 2873,
 "wise": 2874,
 "Ġchecked": 2875,
 "/.": 2876,
 "\\\\": 2877,
 "home": 2878,
 "imple": 2879,
 "settings": 2880,
 "ternal": 2881,
 "Ġ$": 2882,
 "Ġcatch": 2883,
 "Ġdomain": 2884,
 "Ġinher": 2885,
 "185": 2886,
 "AX": 2887,
 "toml": 2888,
 "ARN": 2889,
 "shift": 2890,
 "ute": 2891,
 "ĠPre": 2892,
 "Ġfreq": 2893,
 "ating": 2894,
 "design": 2895,
 "fully": 2896,
 "inux": 2897,
 "offset": 2898,
 "pip": 2899,
 "private": 2900,
 "tmp": 2901,
 "ttributeError": 2902,
 "Ġcreate": 2903,
 "Ġtrailing": 2904,
 "_experts": 2905,
 "block": 2906,
 "generic": 2907,
 "Ġapp": 2908,
 "Ġarch": 2909,
 "Ġstarting": 2910,
 "ek": 2911,
 "ier": 2912,
 "lient": 2913,
 "maintain": 2914,
 "ript": 2915,
 "ug": 2916,
 "Ġbuf": 2917,
 "Ġreturns": 2918,
 "_P": 2919,
 "_wait": 2920,
 "ĠĠĠĠĠĠĠĠĠĠĠĠĠĠĠĠĠĠĠĠĠĠĠĠĠĠĠĠĠĠĠĠ": 2921,
 "Ġdi": 2922,
 "Ġfetch": 2923,
 "Ġvocab": 2924,
 "auto": 2925,
 "Ġconsole": 2926,
 "Ġfinished": 2927,
 "Ġlangu": 2928,
 "Ġmach": 2929,
 "Ġcount_": 2930,
 "Ġimplementation": 2931,
 ":///": 2932,
 "_lay": 2933,
 "andard": 2934,
 "apply": 2935,
 "elative": 2936,
 "location": 2937,
 "packages": 2938,
 "run_p": 2939,
 "Ġevaluation": 2940,
 "BUG": 2941,
 "Users": 2942,
 "exp": 2943,
 "models": 2944,
 "ransport": 2945,
 "site": 2946,
 "wards": 2947,
 "Ġtotal": 2948,
 "Ġthree": 2949,
 "8443": 2950,
 "catch": 2951,
 "Ġcapacity": 2952,
 "Ġcommitted": 2953,
 "Ġcount_words": 2954,
 "Ġstatic_cast": 2955,
 "Ġvoid": 2956,
 "Ġ~/.": 2957,
 "(&": 2958,
 "());": 2959,
 "*>": 2960,
 "Relative": 2961,
 "blob": 2962,
 "emplace": 2963,
 "emplace_back": 2964,
 "hra": 2965,
 "mailto": 2966,
 "pop_back": 2967,
 "static_cast": 2968,
 "tric": 2969,
 "unsigned": 2970,
 "Ġ../../": 2971,
 "Ġgs": 2972,
 "Ġattempt": 2973,
 "Ġharness": 2974,
 "Ġssh": 2975,
 "'\"": 2976,
 "Endpoint": 2977,
 "_module": 2978,
 "backups": 2979,
 "githubuser": 2980,
 "githubusercontent": 2981,
 "ions": 2982,
 "maintainers": 2983,
 "max_tokens": 2984,
 "whl": 2985,
 "Ġfragment": 2986,
 "Ġoper": 2987,
 "Ġthey": 2988,
 "_buffer": 2989,
 "bose": 2990,
 "ert_": 2991,
 "iagnostics": 2992,
 "Ġunknown": 2993,
 "art_": 2994,
 "under": 2995,
 "Ġeffici": 2996,
 "Ġmark": 2997,
 "\";": 2998,
 "54": 2999,
 "]()": 3000,
 "andom": 3001,
 "ĠRep": 3002,
 "Ġparse": 3003,
 "Ġrepro": 3004,
 "Co": 3005,
 "dict__": 3006,
 "lap": 3007,
 "Ġ\"/\":": 3008,
 "Ġconf": 3009,
 "Ġlanguage": 3010,
 "Ġwarnings": 3011,
 "boun": 3012,
 "fd": 3013,
 "ibly": 3014,
 "over": 3015,
 "_fail": 3016,
 "ilt": 3017,
 "int_": 3018,
 "---": 3019,
 "_dim": 3020,
 "create": 3021,
 "Ġentry": 3022,
 "Ġmult": 3023,
 "Ġstop": 3024,
 "Ġunexpected": 3025,
 "Symbol": 3026,
 "index": 3027,
 "tuple": 3028,
 "ĠExp": 3029,
 "Ġconsume": 3030,
 "523": 3031,
 "CO": 3032,
 "scrib": 3033,
 "Ġ(...": 3034,
 "ĠKeyError": 3035,
 "ĠNotImplementedError": 3036,
 "Ġgit": 3037,
 "Ġlineno": 3038,
 "_task": 3039,
 "hrase": 3040,
 "Ġ*[": 3041,
 "Ġ[];": 3042,
 "ĠsetTimeout": 3043,
 "));": 3044,
 "/:": 3045,
 "Search": 3046,
 "hen": 3047,
 "limit": 3048,
 "match": 3049,
 "onth": 3050,
 "ram": 3051,
 "verify": 3052,
 "Ġ!==": 3053,
 "Ġ${": 3054,
 "Ġ??": 3055,
 "ĠRing": 3056,
 "ĠRingBuffer": 3057,
 "ĠclearTimeout": 3058,
 "Ġcommand": 3059,
 "Ġdeboun": 3060,
 "Ġdebounce": 3061,
 "Ġdocumented": 3062,
 "Ġretry": 3063,
 "Ġskip": 3064,
 "ĠuseF": 3065,
 "ĠuseFetch": 3066,
 "]);": 3067,
 "_class": 3068,
 "react": 3069,
 "return": 3070,
 "Ġignore": 3071,
 "ĠrenderError": 3072,
 "ĠrenderH": 3073,
 "ĠrenderNotFound": 3074,
 "ĠrenderSearch": 3075,
 "ĠrenderUser": 3076,
 "ĠrenderHome": 3077,
 "Ġturn": 3078,
 "\"):": 3079,
 "77": 3080,
 ":'\\": 3081,
 "={": 3082,
 "parseQuery": 3083,
 "users": 3084,
 "}:`,": 3085,
 "Ġuni": 3086,
 "ĠER": 3087,
 "ĠUsed": 3088,
 "Ġpack": 3089,
 "Ġstdlib": 3090,
 "Ġwhy": 3091,
 "Ġworks": 3092,
 "UP": 3093,
 "ias": 3094,
 "repr__": 3095,
 "Ġinstalled": 3096,
 "Ġsort": 3097,
 "Ġworkers": 3098,
 "551": 3099,
 "clared": 3100,
 "undtrip": 3101,
 "ĠCPython": 3102,
 "_mock": 3103,
 "_sock": 3104,
 "exception": 3105,
 "ru": 3106,
 "starts": 3107,
 "Ġpub": 3108,
 "102": 3109,
 "114": 3110,
 "_is": 3111,
 "igu": 3112,
 "ĠERROR": 3113,
 "Ġinputs": 3114,
 "cfg": 3115,
 "header": 3116,
 "Ġclaim": 3117,
 "Ġdeque": 3118,
 "Ġssl": 3119,
 "66": 3120,
 "NotFoundError": 3121,
 "heap": 3122,
 "make": 3123,
 "socket": 3124,
 "terminism": 3125,
 "ĊĠĠĠĠĠĠĠĠĠĠĠĠĠĠĠĠĠĠĠĠĠĠĠĠĠĠĠĠĠĠĠ": 3126,
 "Ġinitial": 3127,
 "Ġmachine": 3128,
 "Ġproduced": 3129,
 "CI": 3130,
 "`.": 3131,
 "Ġhelp": 3132,
 "Ġok": 3133,
 "Ġprovi": 3134,
 "08": 3135,
 "FI": 3136,
 "SI": 3137,
 "Sc": 3138,
 "aring": 3139,
 "lish": 3140,
 "torch": 3141,
 "Ġattempts": 3142,
 "Ġsee": 3143,
 "481": 3144,
 "Class": 3145,
 "ccessfully": 3146,
 "iff": 3147,
 "mode": 3148,
 "ness": 3149,
 "Ġcontent": 3150,
 "Ġtransport": 3151,
 "TY": 3152,
 "box": 3153,
 "memory": 3154,
 "readable": 3155,
 "Ġ..": 3156,
 "ĠHTTP": 3157,
 "Ġboot": 3158,
 "Ġcookie": 3159,
 "Ġmin": 3160,
 "120": 3161,
 "_roundtrip": 3162,
 "like": 3163,
 "ĠAttributeError": 3164,
 "902": 3165,
 "Un": 3166,
 "_write": 3167,
 "aged": 3168,
 "chan": 3169,
 "nv": 3170,
 "oe": 3171,
 "ĠAv": 3172,
 "Ġintro": 3173,
 "Ġpeer": 3174,
 "Ġreal": 3175,
 "213": 3176,
 "List": 3177,
 "_failures": 3178,
 "install": 3179,
 "raph": 3180,
 "sys": 3181,
 "validate_": 3182,
 "Ġ00": 3183,
 "ĠWARN": 3184,
 "Ġannot": 3185,
 "Ġcare": 3186,
 "Ġindex": 3187,
 "Ġprecision": 3188,
 "550": 3189,
 "Config": 3190,
 "ending": 3191,
 "quit": 3192,
 "test_tokenizer": 3193,
 "Ġlogging": 3194,
 "Ġmetric": 3195,
 "less": 3196,
 "server": 3197,
 "stru": 3198,
 "ĠDEBUG": 3199,
 "Ġdeclared": 3200,
 "Ġinvariant": 3201,
 "Ġindentation": 3202,
 "_callback": 3203,
 "compile": 3204,
 "keys": 3205,
 "ĠAn": 3206,
 "Ġls": 3207,
 "Ġold": 3208,
 "Ġseq": 3209,
 "ear": 3210,
 "lier": 3211,
 "ten": 3212,
 "wn": 3213,
 "ĠPro": 3214,
 "Ġag": 3215,
 "Ġdf": 3216,
 "Ġoffset": 3217,
 "Ġparent": 3218,
 "all__": 3219,
 "bit": 3220,
 "future": 3221,
 "mbed": 3222,
 "med": 3223,
 "Ġ41": 3224,
 "Ġ83": 3225,
 "Linux": 3226,
 "ĠAug": 3227,
 "ĠState": 3228,
 "Ġattributes": 3229,
 "Ġfailures": 3230,
 "Ġmechan": 3231,
 "Ġopt": 3232,
 "Ġuname": 3233,
 "Ġverbose": 3234,
 "_data": 3235,
 "dd": 3236,
 "here": 3237,
 "ribut": 3238,
 "uman": 3239,
 "unctuation": 3240,
 "Ġ67": 3241,
 "Ġ88": 3242,
 "Ġahead": 3243,
 "Ġcallback": 3244,
 "Ġdon": 3245,
 "Ġlook": 3246,
 "Ġorig": 3247,
 "Ġshared": 3248,
 "attrs": 3249,
 "lias": 3250,
 "right": 3251,
 "Ġ234": 3252,
 "Ġ74": 3253,
 "Ġdistin": 3254,
 "Ġmember": 3255,
 "Ġmechanism": 3256,
 "_line": 3257,
 "_timeout": 3258,
 "deps": 3259,
 "fixture": 3260,
 "ipe": 3261,
 "pid": 3262,
 "ular": 3263,
 "Ġ148": 3264,
 "ĠSize": 3265,
 "Ġamb": 3266,
 "Ġasync": 3267,
 "Ġefficiency": 3268,
 "Ġphrase": 3269,
 "Ġseed": 3270,
 "...\"": 3271,
 "06": 3272,
 "5238": 3273,
 "[]'": 3274,
 "bs": 3275,
 "core": 3276,
 "lower": 3277,
 "unted": 3278,
 "ĠĠĠĠĠĠĠĠĠĠĠĠĠĠĠĠĠĠĠĠĠĠĠĠĠĠĠĠĠĠĠĠĠĠĠĠĠĠĠĠĠĠ": 3279,
 "Ġcurl": 3280,
 "Ġcharacter": 3281,
 "Ġpublish": 3282,
 "......": 3283,
 "..............": 3284,
 "..............................": 3285,
 "]:": 3286,
 "_files": 3287,
 "_style": 3288,
 "duces": 3289,
 "ilename": 3290,
 "mapping": 3291,
 "tests": 3292,
 "test_tokenizer_roundtrip": 3293,
 "Ġ03": 3294,
 "Ġ1284": 3295,
 "Ġ145238": 3296,
 "Ġ88213": 3297,
 "ĠAvail": 3298,
 "ĠMounted": 3299,
 "Ġdequeued": 3300,
 "Ġjq": 3301,
 "Ġmy": 3302,
 "Ġretryable": 3303,
 "Ġstaged": 3304,
 ">...\"": 3305,
 "Changes": 3306,
 "Def": 3307,
 "Filesystem": 3308,
 "Your": 3309,
 "decode": 3310,
 "iving": 3311,
 "nvme": 3312,
 "sS": 3313,
 "srm": 3314,
 "start": 3315,
 "ti": 3316,
 "tmpfs": 3317,
 "ĠSee": 3318,
 "Ġoptional": 3319,
 "843": 3320,
 "column": 3321,
 "depend": 3322,
 "ha": 3323,
 "ince": 3324,
 "verse": 3325,
 "}}": 3326,
 "Ġencoded": 3327,
 "Ġhuman": 3328,
 "Ġjob": 3329,
 "Ġjust": 3330,
 "Ġparameters": 3331,
 "OP": 3332,
 "find": 3333,
 "iet": 3334,
 "Ġbool": 3335,
 "Ġexplicit": 3336,
 "Ġitems": 3337,
 "Ġparses": 3338,
 "Ġsequence": 3339,
 "_per_token": 3340,
 "ameters": 3341,
 "curs": 3342,
 "fin": 3343,
 "outine": 3344,
 "ĠRound": 3345,
 "Ġcorrectness": 3346,
 "Ġreproducibility": 3347,
 "Ġroundtrip": 3348,
 "_char": 3349,
 "amily": 3350,
 "arial": 3351,
 "cre": 3352,
 "itative": 3353,
 "sep": 3354,
 "ulary": 3355,
 "versarial": 3356,
 "Ġcannot": 3357,
 "Ġlike": 3358,
 "_po": 3359,
 "26": 3360,
 "AME": 3361,
 "Byte": 3362,
 "Id": 3363,
 "s_per_token": 3364,
 "send": 3365,
 "ssl": 3366,
 "Ġevents": 3367,
 "Ġformats": 3368,
 "33": 3369,
 "END": 3370,
 "_exception": 3371,
 "register": 3372,
 "used": 3373,
 "versible": 3374,
 "Ġavailable": 3375,
 "Ġdistinct": 3376,
 "Ġpunctuation": 3377,
 "Ġroundtrip_failures": 3378,
 "__dict__": 3379,
 "chars_per_token": 3380,
 "goal": 3381,
 "iteral": 3382,
 "Ġunder": 3383,
 "Ġauthoritative": 3384,
 "Ġbytes_per_token": 3385,
 "Ġlogs": 3386,
 "Ġwor": 3387,
 "_set": 3388,
 "atches": 3389,
 "norm": 3390,
 "scanner": 3391,
 "tool_error": 3392,
 "Ġ'%": 3393,
 "Ġ_win": 3394,
 "Ġcache": 3395,
 "Ġsit": 3396,
 "Ġstandard": 3397,
 "Ġstrings": 3398,
 "Ġthem": 3399,
 ")]": 3400,
 "_protocol": 3401,
 "bud": 3402,
 "dence": 3403,
 "held": 3404,
 "lter": 3405,
 "preference": 3406,
 "riend": 3407,
 "safe": 3408,
 "ĠIts": 3409,
 "Ġpos": 3410,
 "################################": 3411,
 "129": 3412,
 "erely": 3413,
 "ights": 3414,
 "oted": 3415,
 "startswith": 3416,
 "til": 3417,
 "Ġ1843": 3418,
 "Ġ[\"--": 3419,
 "Ġ_winapi": 3420,
 "Ġmerely": 3421,
 "Ġnamespace": 3422,
 "Ġpair": 3423,
 "Ġvocabulary": 3424,
 "\"]}}": 3425,
 "Context": 3426,
 "ModuleNotFoundError": 3427,
 "Scanner": 3428,
 "ScannerError": 3429,
 "_cache": 3430,
 "addr": 3431,
 "budget_": 3432,
 "budget_steps": 3433,
 "exit_code": 3434,
 "last_error": 3435,
 "open_files": 3436,
 "reversible": 3437,
 "ride": 3438,
 "run_python": 3439,
 "validate_yaml": 3440,
 "ĊĠĠ": 3441,
 "Ġjuniper": 3442,
 "Ġambigu": 3443,
 "Ġemail": 3444,
 "Ġexplain": 3445,
 "Ġnat": 3446,
 "Ġpast": 3447,
 "Ġrequired": 3448,
 "Ġsituation": 3449,
 "Gener": 3450,
 "Successfully": 3451,
 "_dir": 3452,
 "adversarial": 3453,
 "confidence": 3454,
 "default_": 3455,
 "review_style": 3456,
 "tail": 3457,
 "ways": 3458,
 "Ġfriend": 3459,
 "duce": 3460,
 "ech": 3461,
 "loat": 3462,
 "ose": 3463,
 "parent": 3464,
 "scribing": 3465,
 "ĠRepro": 3466,
 "Ġboth": 3467,
 "Ġcommas": 3468,
 "Ġconsumes": 3469,
 "Ġnice": 3470,
 "Ġnatural": 3471,
 "Ġparag": 3472,
 "Ġparagraph": 3473,
 "Ġset_": 3474,
 "S_": 3475,
 "dependent": 3476,
 "echn": 3477,
 "ĠPrefer": 3478,
 "ĠReproducibility": 3479,
 "Ġaccept": 3480,
 "Ġreaches": 3481,
 "Ġung": 3482,
 "Struct": 3483,
 "mor": 3484,
 "orb": 3485,
 "roken": 3486,
 "Ġcallable": 3487,
 "Ġsentence": 3488,
 "_get_": 3489,
 "_ids": 3490,
 "indent": 3491,
 "ments": 3492,
 "ws": 3493,
 "ĠBase": 3494,
 "Ġambiguity": 3495,
 "Ġseparates": 3496,
 "aterial": 3497,
 "ects": 3498,
 "fa": 3499,
 "gate": 3500,
 "ĠAr": 3501,
 "Ġcarries": 3502,
 "Ġsituations": 3503,
 "Ġuntil": 3504,
 "EP": 3505,
 "atcher": 3506,
 "bearing": 3507,
 "iny": 3508,
 "wd": 3509,
 "Ġabsorb": 3510,
 "Ġio": 3511,
 "Ġinherits": 3512,
 "Ġintroduces": 3513,
 "Ġmaterial": 3514,
 "Ġposs": 3515,
 "Ġremain": 3516,
 "Ġtrade": 3517,
 "=[": 3518,
 "adding": 3519,
 "mod": 3520,
 "ormat": 3521,
 "ubi": 3522,
 "ĠFilename": 3523,
 "Ġanyone": 3524,
 "Ġfriendlier": 3525,
 "Ġglobal": 3526,
 "Ġquiet": 3527,
 "Ġquietly": 3528,
 "Ġreference": 3529,
 "Ġretraining": 3530,
 "Ġturning": 3531,
 "ctionary": 3532,
 "dense": 3533,
 "echnical": 3534,
 "esc": 3535,
 "stack": 3536,
 "Ġ''": 3537,
 "Ġfidel": 3538,
 "Ġfidelity": 3539,
 "Ġfragmentation": 3540,
 "Ġhttp": 3541,
 "Ġlossy": 3542,
 "Ġpasted": 3543,
 "Ġsand": 3544,
 "'\\": 3545,
 ")):": 3546,
 "En": 3547,
 "Structured": 3548,
 "_un": 3549,
 "acher": 3550,
 "anger": 3551,
 "attention": 3552,
 "hash": 3553,
 "link": 3554,
 "ray": 3555,
 "timeout": 3556,
 "vert": 3557,
 "vious": 3558,
 "Ġubi": 3559,
 "ĠDe": 3560,
 "ĠFilenames": 3561,
 "ĠImport": 3562,
 "Ġaccent": 3563,
 "Ġaccents": 3564,
 "Ġconfet": 3565,
 "Ġconfetti": 3566,
 "Ġfals": 3567,
 "Ġfalsify": 3568,
 "Ġflour": 3569,
 "Ġflourish": 3570,
 "Ġleans": 3571,
 "Ġmissing": 3572,
 "Ġmot": 3573,
 "Ġmessier": 3574,
 "Ġrewards": 3575,
 "Ġsound": 3576,
 "Ġsounds": 3577,
 "Ġtreacher": 3578,
 "Ġtreacherous": 3579,
 "Ġubiquit": 3580,
 "Ġubiquitous": 3581,
 "Ġunfor": 3582,
 "Ġunforg": 3583,
 "Ġunforgiving": 3584,
 "Ġungla": 3585,
 "Ġunglamor": 3586,
 "Ġunglamorous": 3587,
 "OC": 3588,
 "Technical": 3589,
 "_handle": 3590,
 "_sparse": 3591,
 "cache": 3592,
 "cational": 3593,
 "describing": 3594,
 "offs": 3595,
 "thing": 3596,
 "works": 3597,
 "ĠExplain": 3598,
 "ĠRuntime": 3599,
 "Ġdefense": 3600,
 "Ġmotivation": 3601,
 "Ġnicety": 3602,
 "Ġstranger": 3603,
 "Ġvisibly": 3604,
 "387": 3605,
 "Determinism": 3606,
 "Edu": 3607,
 "Educational": 3608,
 "Result": 3609,
 "_factory": 3610,
 "gest": 3611,
 "quote": 3612,
 "Ġfilter": 3613,
 "17": 3614,
 "buf": 3615,
 "mt": 3616,
 "stderr": 3617,
 "Ġfields": 3618,
 "AG": 3619,
 "_header": 3620,
 "ived": 3621,
 "rand": 3622,
 "unter": 3623,
 "ĠMoE": 3624,
 "Ġresponse": 3625,
 "Path": 3626,
 "ately": 3627,
 "full": 3628,
 "ĠSM": 3629,
 "rent_": 3630,
 "__all__": 3631,
 "_expert_": 3632,
 "ler": 3633,
 "IS": 3634,
 "Set": 3635,
 "_M": 3636,
 "case": 3637,
 "fir": 3638,
 "new__": 3639,
 "org": 3640,
 "rupt": 3641,
 "ĠWhen": 3642,
 "Ġ_re": 3643,
 "HTTP": 3644,
 "quence": 3645,
 "uri": 3646,
 "Ġproto": 3647,
 "Ġreplace": 3648,
 "================": 3649,
 "ALL": 3650,
 "Ġfiles": 3651,
 "Ġraised": 3652,
 "032": 3653,
 "_parser": 3654,
 "})": 3655,
 "Ġutil": 3656,
 "ĠException": 3657,
 "Ġdefaults": 3658,
 "Ġtraceback": 3659,
 "_trace": 3660,
 "lections": 3661,
 "qui": 3662,
 "scriptor": 3663,
 "values": 3664,
 "Ġ__repr__": 3665,
 "Ġpattern": 3666,
 "Message": 3667,
 "_host": 3668,
 "_child": 3669,
 "den": 3670,
 "erver": 3671,
 "update": 3672,
 "Ġdebug": 3673,
 "Ġflag": 3674,
 "Ġfut": 3675,
 "Ġopcode": 3676,
 "ailure": 3677,
 "covery": 3678,
 "ware": 3679,
 "Ġdiag": 3680,
 "Ġfd": 3681,
 "Ġparts": 3682,
 "Ġpoint": 3683,
 "Ġrouter": 3684,
 "PI": 3685,
 "_valid": 3686,
 "_idx": 3687,
 "av": 3688,
 "arning": 3689,
 "fileobj": 3690,
 "mbers": 3691,
 "okies": 3692,
 "}\")": 3693,
 "Ġdoesn": 3694,
 "Ġmock": 3695,
 "Ġtrans": 3696,
 "Child": 3697,
 "_argument": 3698,
 "cated": 3699,
 "iltin": 3700,
 "trace": 3701,
 "Ġselector": 3702,
 "_headers": 3703,
 "allow": 3704,
 "bels": 3705,
 "Ġrepr": 3706,
 "57": 3707,
 "_str": 3708,
 "dis": 3709,
 "enum": 3710,
 "ĠRuntimeError": 3711,
 "Ġappro": 3712,
 "Ġscript": 3713,
 "Ġselect": 3714,
 "Ġsystem": 3715,
 "pol": 3716,
 "rop": 3717,
 "ssion": 3718,
 "Ġiss": 3719,
 "Ġpolicy": 3720,
 "94": 3721,
 "OF": 3722,
 "errors": 3723,
 "position": 3724,
 "ugh": 3725,
 "ĠNote": 3726,
 "Ġdefined": 3727,
 "Ġexceptions": 3728,
 "Ġmanifest": 3729,
 "OM": 3730,
 "active": 3731,
 "domain": 3732,
 "rict": 3733,
 "ĊĠĠĠĠĠĠĠĠĠĠĠĠĠ": 3734,
 "Ġauto": 3735,
 "Ġelem": 3736,
 "Ġpickle": 3737,
 "Ġspecial": 3738,
 "_we": 3739,
 "frozen": 3740,
 "mbedding": 3741,
 "Ġalways": 3742,
 "Ġcalls": 3743,
 "Ġsince": 3744,
 "_address": 3745,
 "_text": 3746,
 "day": 3747,
 "eded": 3748,
 "Ġdirectory": 3749,
 "ONT": 3750,
 "_get": 3751,
 "_repr": 3752,
 "child": 3753,
 "dition": 3754,
 "item__": 3755,
 "pecifi": 3756,
 "ĠImportError": 3757,
 "Ġclasses": 3758,
 "Ġfunctions": 3759,
 "Ġthro": 3760,
 "87": 3761,
 "Invalid": 3762,
 "OS": 3763,
 "doc__": 3764,
 "event": 3765,
 "ically": 3766,
 "struction": 3767,
 "remove": 3768,
 "Ġ_is": 3769,
 "Ġexpert": 3770,
 "Ġintern": 3771,
 "loop": 3772,
 "omin": 3773,
 "prefix": 3774,
 "Ġraw": 3775,
 "Ġwant": 3776,
 "Ġwaiter": 3777,
 "CH": 3778,
 "_attrs": 3779,
 "quival": 3780,
 "raction": 3781,
 "ĠQ": 3782,
 "Ġ',": 3783,
 "Ġagain": 3784,
 "Ġdictionary": 3785,
 "Ġproxy": 3786,
 "CII": 3787,
 "ends": 3788,
 "rit": 3789,
 "}'": 3790,
 "Ġ'\\": 3791,
 "Ġcreated": 3792,
 "Ġtrace": 3793,
 "10": 3794,
 "Parser": 3795,
 "Tensor": 3796,
 "XX": 3797,
 "_future": 3798,
 "_has": 3799,
 "address": 3800,
 "shake": 3801,
 "Ġkeyword": 3802,
 "Ġremove": 3803,
 "Ġwrap": 3804,
 "Parse": 3805,
 "_at": 3806,
 "trol": 3807,
 "test_model": 3808,
 "Ġins": 3809,
 "Ġnever": 3810,
 "ables": 3811,
 "d_model": 3812,
 "Ġoriginal": 3813,
 "sparse": 3814,
 "Ġdone": 3815,
 "Ġthreading": 3816,
 "ID": 3817,
 "TH": 3818,
 "_or": 3819,
 "_version": 3820,
 "_format": 3821,
 "_routed": 3822,
 "initial": 3823,
 "mal": 3824,
 "Ġaddr": 3825,
 "Ġbeing": 3826,
 "Ġpipe": 3827,
 "Ġsecond": 3828,
 "Ġvi": 3829,
 "CT": 3830,
 "NAME": 3831,
 "_group": 3832,
 "batch": 3833,
 "Ġ10": 3834,
 "ĠPath": 3835,
 "ĠURL": 3836,
 "Ġdest": 3837,
 "device": 3838,
 "experiment": 3839,
 "fp": 3840,
 "lush": 3841,
 "Ġ['": 3842,
 "Ġclosed": 3843,
 "Ġfollowing": 3844,
 "Ġlow": 3845,
 "Ġnormal": 3846,
 "Ġpackage": 3847,
 "Ġtarinfo": 3848,
 "516": 3849,
 "SH": 3850,
 "TION": 3851,
 "_fd": 3852,
 "_transport": 3853,
 "zero": 3854,
 "Ġarchitecture": 3855,
 "Ġdir": 3856,
 "_local": 3857,
 "_reg": 3858,
 "cv": 3859,
 "input": 3860,
 "mbda": 3861,
 "ĠLo": 3862,
 "Ġpri": 3863,
 "Ġrecor": 3864,
 "Failure": 3865,
 "_new": 3866,
 "_spec": 3867,
 "andshake": 3868,
 "ffix": 3869,
 "float": 3870,
 "resh": 3871,
 "target": 3872,
 "Ġsend": 3873,
 "defaults": 3874,
 "ended": 3875,
 "ĠSSL": 3876,
 "Ġfinal": 3877,
 "Ġfp": 3878,
 "_IN": 3879,
 "_l": 3880,
 "slo": 3881,
 "Ġinclude": 3882,
 "Ġsup": 3883,
 "Event": 3884,
 "Iter": 3885,
 "_diagnostics": 3886,
 "ax": 3887,
 "add_argument": 3888,
 "ank": 3889,
 "anged": 3890,
 "modules": 3891,
 "ribution": 3892,
 "Ġparams": 3893,
 "SP": 3894,
 "db": 3895,
 "fileno": 3896,
 "ne": 3897,
 "ron": 3898,
 "uda": 3899,
 "Ġdense": 3900,
 "Ġoc": 3901,
 "Ġsubclass": 3902,
 "\"))": 3903,
 "isplay": 3904,
 "mlink": 3905,
 "ools": 3906,
 "Ġclient": 3907,
 "Ġdevice": 3908,
 "Ġpossible": 3909,
 "Ġwere": 3910,
 "46": 3911,
 "AP": 3912,
 "Lock": 3913,
 "STR": 3914,
 "_on": 3915,
 "_moe": 3916,
 "_num": 3917,
 "ather": 3918,
 "hook": 3919,
 "k_idx": 3920,
 "optim": 3921,
 "Ġemit": 3922,
 "Ġthese": 3923,
 "FAUL": 3924,
 "_for": 3925,
 "_layers": 3926,
 "buffer": 3927,
 "gram": 3928,
 "heme": 3929,
 "net": 3930,
 "terrupt": 3931,
 "ĠReturns": 3932,
 "Ġfe": 3933,
 "Ġseq_len": 3934,
 "Bytes": 3935,
 "Var": 3936,
 "_names": 3937,
 "ached": 3938,
 "face": 3939,
 "Ġcomplete": 3940,
 "Ġstill": 3941,
 "47": 3942,
 "_com": 3943,
 "_close": 3944,
 "auth": 3945,
 "conds": 3946,
 "inel": 3947,
 "ĊĊĠĠĠĠĠĠĠĠĠĠĠĠĠĠĠ": 3948,
 "Ġmemo": 3949,
 "Ġotherwise": 3950,
 "Ġtb": 3951,
 "6774": 3952,
 "]]": 3953,
 "__doc__": 3954,
 "seq": 3955,
 "taining": 3956,
 "zip": 3957,
 "ĊĠĠĠĠĠĠĠĠĠĠĠĠĠĠĠĠĠĠĠĠĠ": 3958,
 "Ġsignal": 3959,
 "MEN": 3960,
 "Y_": 3961,
 "_shutdown": 3962,
 "first": 3963,
 "****************": 3964,
 "_cur": 3965,
 "cesses": 3966,
 "handler": 3967,
 "param": 3968,
 "tag": 3969,
 "Ġbody": 3970,
 "Alias": 3971,
 "Element": 3972,
 "Protocol": 3973,
 "_closed": 3974,
 "current_": 3975,
 "pattern": 3976,
 "strap": 3977,
 "Ġfind": 3978,
 "Ġpayload": 3979,
 "Ġquote": 3980,
 "Ġter": 3981,
 "48387": 3982,
 "VER": 3983,
 "_ma": 3984,
 "_thread": 3985,
 "ason": 3986,
 "ove": 3987,
 "ynci": 3988,
 "Ġthrough": 3989,
 "\"{": 3990,
 "This": 3991,
 "_le": 3992,
 "_part": 3993,
 "_phase": 3994,
 "adata": 3995,
 "ants": 3996,
 "erate": 3997,
 "require": 3998,
 "sort": 3999,
 "seed": 4000,
 "uring": 4001,
 "ĊĊĠĠĠĠĠ": 4002,
 "Ġheap": 4003,
 "Ġ\"%": 4004,
 "Ġchange": 4005,
 "Ġext": 4006,
 "Ġonce": 4007,
 "Warning": 4008,
 "_heads": 4009,
 "_root": 4010,
 "ump": 4011,
 "Ġval": 4012,
 "Ġtemp": 4013,
 "_do": 4014,
 "acquire": 4015,
 "akref": 4016,
 "ibility": 4017,
 "lean": 4018,
 "namespace": 4019,
 "request": 4020,
 "router": 4021,
 "ww": 4022,
 "Ġactual": 4023,
 "Ġexample": 4024,
 "Ġmultip": 4025,
 "Ġpid": 4026,
 "Ġparam": 4027,
 "03225": 4028,
 "Defect": 4029,
 "ROOT": 4030,
 "_lines": 4031,
 "_prefix": 4032,
 "ators": 4033,
 "extra": 4034,
 "idden": 4035,
 "slots": 4036,
 "text_": 4037,
 "wrap": 4038,
 "ĊĠĠĠĠĠĠĠĠĠĠĠĠĠĠĠĠĠĠĠĠĠĠĠĠĠĠ": 4039,
 "Ġregister": 4040,
 "1935": 4041,
 "65": 4042,
 "O_ROOT": 4043,
 "UD": 4044,
 "Value": 4045,
 "_source": 4046,
 "ateg": 4047,
 "cmd": 4048,
 "field": 4049,
 "ignore": 4050,
 "yncio": 4051,
 "ĠPar": 4052,
 "Ġcompat": 4053,
 "Ġcontains": 4054,
 "Ġglobals": 4055,
 "Case": 4056,
 "_context": 4057,
 "_frame": 4058,
 "_request": 4059,
 "cimal": 4060,
 "dom": 4061,
 "gative": 4062,
 "ises": 4063,
 "owner": 4064,
 "Ġiterable": 4065,
 "8064": 4066,
 "HE": 4067,
 "Process": 4068,
 "_sub": 4069,
 "classes": 4070,
 "ominator": 4071,
 "onical": 4072,
 "precated": 4073,
 "ptional": 4074,
 "su": 4075,
 "Ġdescriptor": 4076,
 "Ġmapping": 4077,
 "Ġnewline": 4078,
 "Server": 4079,
 "_exc": 4080,
 "ceived": 4081,
 "headers": 4082,
 "imp": 4083,
 "lied": 4084,
 "task": 4085,
 "ĠNode": 4086,
 "Ġct": 4087,
 "Ġkind": 4088,
 "001": 4089,
 "28": 4090,
 "Dict": 4091,
 "ping": 4092,
 "tails": 4093,
 "ueue": 4094,
 "ĊĠĠĠĠĠĠĠĠĠĠĠĠĠĠ": 4095,
 "Ġloader": 4096,
 "Ġnow": 4097,
 "ION": 4098,
 "WS": 4099,
 "_method": 4100,
 "comple": 4101,
 "filter": 4102,
 "http": 4103,
 "root": 4104,
 "ĠMe": 4105,
 "Ġlong": 4106,
 "Ġresults": 4107,
 "Ġtop_k": 4108,
 "'))": 4109,
 "49": 4110,
 "HAS": 4111,
 "_strings": 4112,
 "aren": 4113,
 "itive": 4114,
 "slots__": 4115,
 "Ġ'{": 4116,
 "Ġelements": 4117,
 "Ġmap": 4118,
 "KE": 4119,
 "SE": 4120,
 "_sy": 4121,
 "cs": 4122,
 "ilder": 4123,
 "otstrap": 4124,
 "see": 4125,
 "ud": 4126,
 "weight": 4127,
 "Ġ_s": 4128,
 "Ġanother": 4129,
 "Ġcl": 4130,
 "Ġremo": 4131,
 "Ġsorted": 4132,
 "Ġvalid_mask": 4133,
 "=%": 4134,
 "ATE": 4135,
 "](": 4136,
 "_raw": 4137,
 "ape": 4138,
 "ecutor": 4139,
 "idate": 4140,
 "tb": 4141,
 "Ġindic": 4142,
 "Ar": 4143,
 "Generic": 4144,
 "_fork": 4145,
 "array": 4146,
 "extend": 4147,
 "most": 4148,
 "scription": 4149,
 "stats": 4150,
 "uplic": 4151,
 "width": 4152,
 "ĊĊĊĠĠĠ": 4153,
 "Ġappend": 4154,
 "Ġavoid": 4155,
 "Ġexisting": 4156,
 "Ġitself": 4157,
 "Ġpop": 4158,
 "Ġrel": 4159,
 "_cfg": 4160,
 "_dispatch": 4161,
 "_parts": 4162,
 "ctype": 4163,
 "element": 4164,
 "ities": 4165,
 "rans": 4166,
 "running": 4167,
 "stdin": 4168,
 "ĊĠĠĠĠĠĠ": 4169,
 "Ġ(`": 4170,
 "Ġablation": 4171,
 "Ġmail": 4172,
 "Ġmatching": 4173,
 "Ġrunning": 4174,
 ".\")": 4175,
 "516129": 4176,
 "QU": 4177,
 "ategory": 4178,
 "ident": 4179,
 "parser": 4180,
 "upported": 4181,
 "Ġannotations": 4182,
 "Ġcmd": 4183,
 "Ġnumer": 4184,
 "Ġoverride": 4185,
 "000": 4186,
 "Get": 4187,
 "LOC": 4188,
 "ZE": 4189,
 "_handshake": 4190,
 "defects": 4191,
 "enter": 4192,
 "mary": 4193,
 "Ġpresent": 4194,
 "_message": 4195,
 "ĠUni": 4196,
 "Ġrandom": 4197,
 "\"),": 4198,
 "13": 4199,
 "Document": 4200,
 "_expert": 4201,
 "_logit": 4202,
 "_pending": 4203,
 "_position": 4204,
 "_traceback": 4205,
 "abstract": 4206,
 "card": 4207,
 "chron": 4208,
 "help": 4209,
 "Ġ__slots__": 4210,
 "Ġcontaining": 4211,
 "Ġday": 4212,
 "Ġhandlers": 4213,
 "Ġkeys": 4214,
 "Ġreq": 4215,
 "FF": 4216,
 "OL": 4217,
 "abled": 4218,
 "actor": 4219,
 "body": 4220,
 "cuda": 4221,
 "cursive": 4222,
 "params": 4223,
 "traverse": 4224,
 "Ġcould": 4225,
 "Ġinternal": 4226,
 "Ġresol": 4227,
 "Ġsafe": 4228,
 "Ġsave": 4229,
 "Ġsig": 4230,
 "69": 4231,
 "Selector": 4232,
 "_key": 4233,
 "_event": 4234,
 "cedence": 4235,
 "inter": 4236,
 "lobj": 4237,
 "shared": 4238,
 "ĠĠĠĠĠĠĠĠĠ": 4239,
 "Ġcompute": 4240,
 "Ġexpert_": 4241,
 "Ġoptions": 4242,
 "Ġphase": 4243,
 "Ġvisit": 4244,
 "Ab": 4245,
 "][": 4246,
 "_top": 4247,
 "gger": 4248,
 "havi": 4249,
 "normal": 4250,
 "}')": 4251,
 "ĠRa": 4252,
 "Ġcookies": 4253,
 "Ġcollections": 4254,
 "Ġob": 4255,
 "Ġprevious": 4256,
 "Ġrefer": 4257,
 "Ġscripts": 4258,
 "'{": 4259,
 "096774": 4260,
 "REP": 4261,
 "_qu": 4262,
 "istic": 4263,
 "kwds": 4264,
 "rary": 4265,
 "tools": 4266,
 "ypes": 4267,
 "ĠGate": 4268,
 "ĠGateFailure": 4269,
 "ĠThere": 4270,
 "Ġequival": 4271,
 "Ġfamily": 4272,
 "Ġinterface": 4273,
 "Ġown": 4274,
 "Ġprovided": 4275,
 "Ġsupported": 4276,
 "75": 4277,
 "Proxy": 4278,
 "_architecture": 4279,
 "bin": 4280,
 "chunk": 4281,
 "flow": 4282,
 "tadata": 4283,
 "Ġinvalid": 4284,
 "Ġmanager": 4285,
 "NS": 4286,
 "atal": 4287,
 "ĊĠĠĠĠĠĠĠĠĠĠĠĠĠĠĠĠĠ": 4288,
 "Ġapplic": 4289,
 "Ġconn": 4290,
 "Ġexperiment": 4291,
 "Ġgo": 4292,
 "Ġuses": 4293,
 "SER": 4294,
 "_and": 4295,
 "_level": 4296,
 "_ssl": 4297,
 "_flags": 4298,
 "_ref": 4299,
 "andidate": 4300,
 "pth": 4301,
 "parameters": 4302,
 "ually": 4303,
 "ĊĠĠĠĠĠĠĠĠĠĠĠĠĠĠĠĠĠĠĠĠĠĠĠĠĠĠĠĠĠĠĠĠĠĠĠ": 4304,
 "Ġleast": 4305,
 "Ġmembers": 4306,
 "Ġprovide": 4307,
 "Ġsuch": 4308,
 "'re": 4309,
 "AM": 4310,
 "_member": 4311,
 "ases": 4312,
 "member": 4313,
 "pass": 4314,
 "tic": 4315,
 "ĠEOF": 4316,
 "Ġabove": 4317,
 "Ġagainst": 4318,
 "Ġinstances": 4319,
 "Ġoptim": 4320,
 "\"\\": 4321,
 "ORT": 4322,
 "_ab": 4323,
 "_after": 4324,
 "_exit": 4325,
 "emon": 4326,
 "man": 4327,
 "riter": 4328,
 "src": 4329,
 "Ġescape": 4330,
 "ĠOn": 4331,
 "ĠXXX": 4332,
 "Ġ__get": 4333,
 "Ġencode": 4334,
 "Ġim": 4335,
 "Ġparsing": 4336,
 "Ġwidth": 4337,
 "ENT_": 4338,
 "Run": 4339,
 "_B": 4340,
 "istics": 4341,
 "losing": 4342,
 "main__": 4343,
 "ĊĠĠĠĠĠĠĠĠĠ": 4344,
 "Ġcounts": 4345,
 "Ġmonth": 4346,
 "Add": 4347,
 "Create": 4348,
 "Loader": 4349,
 "No": 4350,
 "_length": 4351,
 "_tiny": 4352,
 "cul": 4353,
 "diff": 4354,
 "ell": 4355,
 "entic": 4356,
 "glob": 4357,
 "idual": 4358,
 "igits": 4359,
 "print": 4360,
 "sert": 4361,
 "term": 4362,
 "ves": 4363,
 "ĠOptional": 4364,
 "ĠSet": 4365,
 "Ġaccess": 4366,
 "Ġexists": 4367,
 "Ġgenerator": 4368,
 "Ġhapp": 4369,
 "Ġsplit": 4370,
 "Ġtok": 4371,
 "'),": 4372,
 "As": 4373,
 "AND": 4374,
 "Thread": 4375,
 "_test": 4376,
 "build": 4377,
 "charset": 4378,
 "epre": 4379,
 "onent": 4380,
 "print_": 4381,
 "readline": 4382,
 "Ġsimple": 4383,
 "ATH": 4384,
 "_done": 4385,
 "_fut": 4386,
 "abstractmethod": 4387,
 "ckling": 4388,
 "embedding": 4389,
 "exit__": 4390,
 "gument": 4391,
 "layer": 4392,
 "payload": 4393,
 "ubclass": 4394,
 "ĊĠĠĠĠĠĠĠĠĠĠĠĠĠĠĠĠĠĠĠĠĠĠ": 4395,
 "Ġduring": 4396,
 "Ġdecode": 4397,
 "Ġgot": 4398,
 "Ġref": 4399,
 "Ġsparse": 4400,
 "GI": 4401,
 "_D": 4402,
 "_block": 4403,
 "aris": 4404,
 "di": 4405,
 "ever": 4406,
 "flags": 4407,
 "ĊĠĠĠĠĠĠĠĠĠĠĠĠĠĠĠĠĠĠ": 4408,
 "ĠOther": 4409,
 "Ġassert_": 4410,
 "Ġattrs": 4411,
 "Ġdtype": 4412,
 "Ġeven": 4413,
 "Ġexecuted": 4414,
 "Ġrather": 4415,
 "Ġreason": 4416,
 ".')": 4417,
 "18": 4418,
 "ENT": 4419,
 "IP": 4420,
 "LOW": 4421,
 "NODE": 4422,
 "PRO": 4423,
 "_ent": 4424,
 "_filename": 4425,
 "_offset": 4426,
 "_index": 4427,
 "_seed": 4428,
 "assert_": 4429,
 "direct": 4430,
 "pair": 4431,
 "ustom": 4432,
 "Ġ-=": 4433,
 "Ġbehavi": 4434,
 "Ġcondition": 4435,
 "Ġdecor": 4436,
 "Ġdetect": 4437,
 "Ġdirectly": 4438,
 "Ġneeded": 4439,
 "193548387": 4440,
 "OD": 4441,
 "REPO_ROOT": 4442,
 "_connection": 4443,
 "come": 4444,
 "endswith": 4445,
 "ification": 4446,
 "lapped": 4447,
 "logger": 4448,
 "mon": 4449,
 "ook": 4450,
 "oundation": 4451,
 "space": 4452,
 "ĊĠĠĠĠĠĠĠĠĠĠĠĠĠĠĠĠĠĠĠĠĠĠĠĠĠĠĠĠĠĠ": 4453,
 "Ġ'<": 4454,
 "Ġbinary": 4455,
 "Ġmake_tiny": 4456,
 "Ġquoted": 4457,
 "Ġspace": 4458,
 "Ġsubprocess": 4459,
 "String": 4460,
 "_UN": 4461,
 "_glob": 4462,
 "_lost": 4463,
 "_pipe": 4464,
 "_with": 4465,
 "ational": 4466,
 "mean": 4467,
 "respon": 4468,
 "sure": 4469,
 "ĠAll": 4470,
 "ĠBy": 4471,
 "ĠSMTP": 4472,
 "Ġ_make": 4473,
 "Ġd_model": 4474,
 "Ġentries": 4475,
 "Ġplace": 4476,
 "Le": 4477,
 "Read": 4478,
 "URI": 4479,
 "_of": 4480,
 "_hostname": 4481,
 "bject": 4482,
 "encoded": 4483,
 "loader": 4484,
 "medi": 4485,
 "policy": 4486,
 "tect": 4487,
 "Ġbreakpoint": 4488,
 "Ġcalling": 4489,
 "Ġcompatibility": 4490,
 "Ġdefault_": 4491,
 "Ġimplemented": 4492,
 "Ġlater": 4493,
 "Ġpublic": 4494,
 "200": 4495,
 ":**": 4496,
 ">'": 4497,
 "LA": 4498,
 "NE": 4499,
 "TO": 4500,
 "UDA": 4501,
 "_reader": 4502,
 "_sent": 4503,
 "_tuple": 4504,
 "arent_": 4505,
 "clone": 4506,
 "erm": 4507,
 "function": 4508,
 "lection": 4509,
 "ough": 4510,
 "project": 4511,
 "ĊĠĠĠĠĠĠĠĠĠĠĠĠĠĠĠĠĠĠĠĠĠĠĠĠĠĠĠĠĠĠĠĠ": 4512,
 "ĠGener": 4513,
 "ĠUnicode": 4514,
 "Ġ_C": 4515,
 "Ġconver": 4516,
 "Ġcoroutine": 4517,
 "Ġkwds": 4518,
 "SSL": 4519,
 "Stream": 4520,
 "_load": 4521,
 "ability": 4522,
 "arison": 4523,
 "classmethod": 4524,
 "efore": 4525,
 "handlers": 4526,
 "pu": 4527,
 "specifi": 4528,
 "Ġappe": 4529,
 "Ġexpre": 4530,
 "Ġlabels": 4531,
 "Ġstore": 4532,
 "An": 4533,
 "ED_": 4534,
 "Phase": 4535,
 "_obj": 4536,
 "_only": 4537,
 "_params": 4538,
 "_sc": 4539,
 "ently": 4540,
 "forward": 4541,
 "pose": 4542,
 "release": 4543,
 "ĊĠĠĠĠĠĠĠĠĠĠĠĠĠĠĠĠĠĠĠĠĠĠĠĠ": 4544,
 "Ġ\")": 4545,
 "ĠContent": 4546,
 "Ġcases": 4547,
 "Ġctx": 4548,
 "Ġlocals": 4549,
 "Ġmatches": 4550,
 "Ġmodules": 4551,
 "Ġremoved": 4552,
 "Ġstrict": 4553,
 "Ġsuffix": 4554,
 "Ġvia": 4555,
 "Handle": 4556,
 "RIT": 4557,
 "SE_": 4558,
 "TYPE": 4559,
 "arri": 4560,
 "bers": 4561,
 "fied": 4562,
 "ĠFraction": 4563,
 "Ġenumerate": 4564,
 "Ġexplicitly": 4565,
 "Ġfileobj": 4566,
 "Ġmultiple": 4567,
 "Ġrow": 4568,
 "Ġtree": 4569,
 "44": 4570,
 "__new__": 4571,
 "_addr": 4572,
 "_no": 4573,
 "arrier": 4574,
 "cluding": 4575,
 "document": 4576,
 "finite": 4577,
 "invalid": 4578,
 "mat": 4579,
 "side": 4580,
 "shape": 4581,
 "ĠAPI": 4582,
 ")[": 4583,
 "GenericAlias": 4584,
 "Info": 4585,
 "MPTY": 4586,
 "_sign": 4587,
 "_sparse_config": 4588,
 "asic": 4589,
 "ficial": 4590,
 "hetic": 4591,
 "nthetic": 4592,
 "rc": 4593,
 "randn": 4594,
 "start_": 4595,
 "trans": 4596,
 "{}": 4597,
 "Ġ_P": 4598,
 "Ġali": 4599,
 "Ġassign": 4600,
 "Ġfullname": 4601,
 "Ġissubclass": 4602,
 "Ġmany": 4603,
 "Ġmailbox": 4604,
 "Ġmake_tiny_sparse_config": 4605,
 "Ġprior": 4606,
 "Ġsat": 4607,
 "Ġtokens": 4608,
 "(?": 4609,
 "Data": 4610,
 "ERROR": 4611,
 "KEN": 4612,
 "SS": 4613,
 "_all": 4614,
 "_set_": 4615,
 "_weights": 4616,
 "`)": 4617,
 "chars": 4618,
 "equal": 4619,
 "expert_": 4620,
 "mlinks": 4621,
 "round": 4622,
 "store": 4623,
 "ĠAny": 4624,
 "ĠCI": 4625,
 "ĠFuture": 4626,
 "Ġcorrespon": 4627,
 "Ġfactory": 4628,
 "Ġinv": 4629,
 "Ġrequires": 4630,
 "Ġrouting": 4631,
 ",))": 4632,
 "ACE": 4633,
 "BytesIO": 4634,
 "Content": 4635,
 "INE": 4636,
 "_ST": 4637,
 "cancel": 4638,
 "counting": 4639,
 "elem": 4640,
 "enominator": 4641,
 "Ġblocks": 4642,
 "Ġclone": 4643,
 "Ġdele": 4644,
 "Ġthose": 4645,
 "ORD": 4646,
 "Tab": 4647,
 "[:-": 4648,
 "_charset": 4649,
 "_parameter": 4650,
 "ayer": 4651,
 "polation": 4652,
 "Ġ]": 4653,
 "Ġ/,": 4654,
 "ĠFile": 4655,
 "Ġbelow": 4656,
 "ĠerrorTab": 4657,
 "Ġexecutor": 4658,
 "Ġspecify": 4659,
 "Ġyet": 4660,
 ")}": 4661,
 "45": 4662,
 "97": 4663,
 "Mo": 4664,
 "ORM": 4665,
 "_option": 4666,
 "_break": 4667,
 "anti": 4668,
 "complete": 4669,
 "ids": 4670,
 "imum": 4671,
 "missing": 4672,
 "month": 4673,
 "nel": 4674,
 "orms": 4675,
 "pawn": 4676,
 "Ġ100": 4677,
 "Ġ16": 4678,
 "ĠCh": 4679,
 "Ġ_set_": 4680,
 "Ġdeprecated": 4681,
 "Ġready": 4682,
 "Ġregular": 4683,
 "Ġstdin": 4684,
 "Ġurllib": 4685,
 "Ġvalidation": 4686,
 "Ġword": 4687,
 "AL_": 4688,
 "Mock": 4689,
 "Method": 4690,
 "_encoding": 4691,
 "_layer": 4692,
 "ension": 4693,
 "hore": 4694,
 "ixin": 4695,
 "lying": 4696,
 "non": 4697,
 "phases": 4698,
 "protocol": 4699,
 "usal": 4700,
 "ĠTo": 4701,
 "Ġcandidate": 4702,
 "Ġconnect": 4703,
 "Ġfunct": 4704,
 "Ġfunctools": 4705,
 "Ġ{'": 4706,
 "Manager": 4707,
 "Norm": 4708,
 "ONL": 4709,
 "Stat": 4710,
 "TR": 4711,
 "_W": 4712,
 "_col": 4713,
 "_empty": 4714,
 "_v": 4715,
 "_fds": 4716,
 "_reading": 4717,
 "akeup": 4718,
 "current": 4719,
 "environ": 4720,
 "epcopy": 4721,
 "ours": 4722,
 "processing": 4723,
 "scripts": 4724,
 "sgi": 4725,
 "tml": 4726,
 "warning": 4727,
 "Ġ'/": 4728,
 "ĠAS": 4729,
 "Ġcustom": 4730,
 "Ġlambda": 4731,
 "Ġoperation": 4732,
 "Ġpl": 4733,
 "Ġprocesses": 4734,
 "Ġredu": 4735,
 "Ġtri": 4736,
 "ELayer": 4737,
 "ITER": 4738,
 "_lineno": 4739,
 "_eof": 4740,
 "bool": 4741,
 "clus": 4742,
 "module__": 4743,
 "unknown": 4744,
 "ĠEn": 4745,
 "ĠSAX": 4746,
 "Ġappear": 4747,
 "Ġatt": 4748,
 "Ġattention": 4749,
 "Ġbatch": 4750,
 "Ġchunks": 4751,
 "Ġenv": 4752,
 "Ġrule": 4753,
 "Ġsatis": 4754,
 "Ġshutdown": 4755,
 "Ġspecific": 4756,
 "Ġstart_": 4757,
 "Ġtoo": 4758,
 "Ġwrapper": 4759,
 "68": 4760,
 "Cookie": 4761,
 "DO": 4762,
 "Exit": 4763,
 "LAG_": 4764,
 "ParseError": 4765,
 "_actions": 4766,
 "_function": 4767,
 "_not": 4768,
 "argin": 4769,
 "dest": 4770,
 "generator": 4771,
 "ifier": 4772,
 "lice": 4773,
 "parts": 4774,
 "ression": 4775,
 "types": 4776,
 "Ġuri": 4777,
 "ĠRE": 4778,
 "Ġbroken": 4779,
 "Ġdate": 4780,
 "Ġdot": 4781,
 "Ġexc_info": 4782,
 "Ġinterpre": 4783,
 "Ġpadding": 4784,
 "Ġpartial": 4785,
 "Ġscheme": 4786,
 "Ġsignature": 4787,
 "Ġtermin": 4788,
 "Attribute": 4789,
 "Iteration": 4790,
 "KEY": 4791,
 "OCK": 4792,
 "Transport": 4793,
 "_ss": 4794,
 "_match": 4795,
 "cessary": 4796,
 "eq": 4797,
 "enter__": 4798,
 "erator": 4799,
 "escap": 4800,
 "except": 4801,
 "fit": 4802,
 "lank": 4803,
 "quences": 4804,
 "tensor": 4805,
 "Ġdecoded": 4806,
 "Ġindependent": 4807,
 ")'": 4808,
 "BIN": 4809,
 "Form": 4810,
 "ING_": 4811,
 "LEN": 4812,
 "__module__": 4813,
 "_cor": 4814,
 "_node": 4815,
 "_work": 4816,
 "_waiter": 4817,
 "annotation": 4818,
 "mber_": 4819,
 "patch": 4820,
 "pipe": 4821,
 "returncode": 4822,
 "stop": 4823,
 "ĠJuniper": 4824,
 "Ġ//": 4825,
 "Ġbuild_model": 4826,
 "Ġcapt": 4827,
 "Ġsuite": 4828,
 "DEFAUL": 4829,
 "IR": 4830,
 "Reader": 4831,
 "Request": 4832,
 "VE_": 4833,
 "_default": 4834,
 "_q": 4835,
 "_CONT": 4836,
 "_children": 4837,
 "_pair": 4838,
 "atio": 4839,
 "ctx": 4840,
 "fficient": 4841,
 "hema": 4842,
 "mitted": 4843,
 "rel": 4844,
 "shutdown": 4845,
 "Ġright": 4846,
 "ĠWindows": 4847,
 "Ġ_format": 4848,
 "Ġbuiltin": 4849,
 "Ġforward": 4850,
 "Ġmo": 4851,
 "Ġnet": 4852,
 "Ġov": 4853,
 "Ġput": 4854,
 "Ġruntime": 4855,
 "Ġsem": 4856,
 "'''": 4857,
 "Block": 4858,
 "Err": 4859,
 "_before": 4860,
 "_proj": 4861,
 "ones": 4862,
 "tach": 4863,
 "uplicate": 4864,
 "xies": 4865,
 "|---": 4866,
 "Ġu": 4867,
 "ĠAl": 4868,
 "ĠOtherwise": 4869,
 "ĠRes": 4870,
 "Ġ_check": 4871,
 "Ġ__new__": 4872,
 "Ġequal": 4873,
 "Ġequivalent": 4874,
 "Ġiterator": 4875,
 "Ġreading": 4876,
 "Ġreturn_diagnostics": 4877,
 "Ġwriter": 4878,
 ",)": 4879,
 "53": 4880,
 "60": 4881,
 "Bu": 4882,
 "PE_": 4883,
 "_case": 4884,
 "_calls": 4885,
 "ekday": 4886,
 "plat": 4887,
 "sequence": 4888,
 "terministic": 4889,
 "ultip": 4890,
 "ĠĠĠĠĠĠĠĠĠĠĠĠĠ": 4891,
 "Ġcheckpoint": 4892,
 "Ġcompare": 4893,
 "Ġcomparison": 4894,
 "Ġrepresentation": 4895,
 "Ġseen": 4896,
 "Ġshort": 4897,
 "(-": 4898,
 "52": 4899,
 "ROL": 4900,
 "_FLAG_": 4901,
 "_ident": 4902,
 "_routed_experts": 4903,
 "_socket": 4904,
 "_writ": 4905,
 "board": 4906,
 "cale": 4907,
 "experiments": 4908,
 "gin": 4909,
 "gradient": 4910,
 "manual": 4911,
 "response": 4912,
 "row": 4913,
 "seline": 4914,
 "ters": 4915,
 "Ġ--------------------------------": 4916,
 "ĠDef": 4917,
 "ĠFP": 4918,
 "ĠStop": 4919,
 "Ġcal": 4920,
 "Ġcause": 4921,
 "Ġcommon": 4922,
 "Ġda": 4923,
 "Ġdrop": 4924,
 "Ġdocs": 4925,
 "Ġdocumentation": 4926,
 "Ġmask": 4927,
 "Ġprob": 4928,
 "Ġprobe": 4929,
 "Ġtimes": 4930,
 "78": 4931,
 "=-": 4932,
 "AF": 4933,
 "HeaderDefect": 4934,
 "allowed": 4935,
 "blocking": 4936,
 "cum": 4937,
 "ialize": 4938,
 "ider": 4939,
 "ists": 4940,
 "itional": 4941,
 "ocket": 4942,
 "posed": 4943,
 "sig": 4944,
 "year": 4945,
 "ynchron": 4946,
 "ĠPass": 4947,
 "ĠSMALL": 4948,
 "Ġcanonical": 4949,
 "Ġdst": 4950,
 "Ġhand": 4951,
 "Ġmulti": 4952,
 "Ġoff": 4953,
 "Ġreview": 4954,
 "Ġsen": 4955,
 "Ġshow": 4956,
 "Ġsupp": 4957,
 "Ġtak": 4958,
 "('-": 4959,
 "ASCII": 4960,
 "IX": 4961,
 "Interrupt": 4962,
 "Spec": 4963,
 "_auth": 4964,
 "_func": 4965,
 "_mode": 4966,
 "_parameters": 4967,
 "mock": 4968,
 "olute": 4969,
 "token_type": 4970,
 "uted": 4971,
 "}\"": 4972,
 "ĠASCII": 4973,
 "ĠBaseException": 4974,
 "ĠStat": 4975,
 "Ġinstanti": 4976,
 "Ġnumbers": 4977,
 "Ġtail": 4978,
 "Ġtasks": 4979,
 "---+": 4980,
 "Hel": 4981,
 "_encode": 4982,
 "_hook": 4983,
 "_queue": 4984,
 "dump": 4985,
 "erc": 4986,
 "hing": 4987,
 "ired": 4988,
 "istent": 4989,
 "mediately": 4990,
 "pickle": 4991,
 "unicode": 4992,
 "ĠCUDA": 4993,
 "ĠCounter": 4994,
 "Ġ_call": 4995,
 "Ġ_split": 4996,
 "Ġapplication": 4997,
 "Ġcaller": 4998,
 "Ġleft": 4999,
 "Ġproper": 5000,
 "Ġrouted": 5001,
 "Ġstacklevel": 5002,
 ",),": 5003,
 "8859": 5004,
 "Desc": 5005,
 "ETTER": 5006,
 "HeaderParseError": 5007,
 "Level": 5008,
 "Over": 5009,
 "PU": 5010,
 "Pipe": 5011,
 "_base": 5012,
 "_so": 5013,
 "_shutdown_timeout": 5014,
 "_soon": 5015,
 "_wrapper": 5016,
 "aseline": 5017,
 "ablation": 5018,
 "attribute": 5019,
 "boardInterrupt": 5020,
 "coder": 5021,
 "erminal": 5022,
 "file__": 5023,
 "platform": 5024,
 "str__": 5025,
 "Ġconvert": 5026,
 "Ġensure": 5027,
 "Ġour": 5028,
 "Ġvariable": 5029,
 "ARK": 5030,
 "CF": 5031,
 "LS": 5032,
 "Loop": 5033,
 "Queue": 5034,
 "_architecture_config": 5035,
 "_handshake_timeout": 5036,
 "_router": 5037,
 "ckler": 5038,
 "fws": 5039,
 "idx": 5040,
 "optimized": 5041,
 "ord": 5042,
 "ormal": 5043,
 "signature": 5044,
 "traceback": 5045,
 "umber": 5046,
 "ĊĠĠĠĠĠĠĠĠĠĠĠĠĠĠĠĠĠĠĠĠĠĠĠĠĠĠĠĠĠ": 5047,
 "Ġ''.": 5048,
 "ĠLETTER": 5049,
 "ĠProcess": 5050,
 "Ġbp": 5051,
 "Ġdiff": 5052,
 "Ġdistribution": 5053,
 "Ġimp": 5054,
 "Ġisn": 5055,
 "Ġmight": 5056,
 "Ġpositional": 5057,
 "Ġreferences": 5058,
 "Ġ{!": 5059,
 "Enum": 5060,
 "ONLY": 5061,
 "Returns": 5062,
 "Status": 5063,
 "_current_": 5064,
 "_hashes": 5065,
 "_import": 5066,
 "_kv": 5067,
 "_probs": 5068,
 "_query": 5069,
 "_return": 5070,
 "aused": 5071,
 "bootstrap": 5072,
 "chitecture": 5073,
 "dataclass": 5074,
 "jection": 5075,
 "maxsize": 5076,
 "qualname__": 5077,
 "uff": 5078,
 "udit": 5079,
 "ĠAs": 5080,
 "ĠAss": 5081,
 "ĠNe": 5082,
 "ĠText": 5083,
 "Ġids": 5084,
 "Ġload_architecture_config": 5085,
 "Ġpur": 5086,
 "Ġpairs": 5087,
 "Ġprogram": 5088,
 "Ġrecords": 5089,
 "Ġuseful": 5090,
 ")\"": 5091,
 "*.": 5092,
 "032258064": 5093,
 "ADER": 5094,
 "GOR": 5095,
 "NU": 5096,
 "Po": 5097,
 "UPP": 5098,
 "_RE": 5099,
 "_fields": 5100,
 "_pid": 5101,
 "_sslobj": 5102,
 "arge": 5103,
 "embeddings": 5104,
 "mote": 5105,
 "s__": 5106,
 "uble": 5107,
 "urro": 5108,
 "ĠDepre": 5109,
 "ĠElement": 5110,
 "ĠMessage": 5111,
 "Ġ_de": 5112,
 "Ġassume": 5113,
 "Ġbehavior": 5114,
 "Ġbufsize": 5115,
 "Ġdid": 5116,
 "Ġhappen": 5117,
 "Ġimmediately": 5118,
 "Ġlon": 5119,
 "Ġmath": 5120,
 "Ġmetadata": 5121,
 "Ġnecessary": 5122,
 "Ġquery": 5123,
 "Ġrecursive": 5124,
 "Ġsatisfied": 5125,
 ")),": 5126,
 ".\",": 5127,
 "=\"\"\"": 5128,
 "COD": 5129,
 "NORE": 5130,
 "SET": 5131,
 "_parent": 5132,
 "_send": 5133,
 "_start": 5134,
 "ably": 5135,
 "can": 5136,
 "entication": 5137,
 "future__": 5138,
 "hex": 5139,
 "ires": 5140,
 "ised": 5141,
 "junk": 5142,
 "jected": 5143,
 "otes": 5144,
 "proto": 5145,
 "range": 5146,
 "sens": 5147,
 "test_model_moe": 5148,
 "yntax": 5149,
 "Ġ\"<": 5150,
 "ĠCPU": 5151,
 "ĠComp": 5152,
 "ĠToken": 5153,
 "Ġ_M": 5154,
 "Ġ__future__": 5155,
 "Ġaccepted": 5156,
 "Ġactive": 5157,
 "Ġarchive": 5158,
 "Ġbias": 5159,
 "Ġcomment": 5160,
 "Ġcorresponding": 5161,
 "Ġdescription": 5162,
 "Ġformatter": 5163,
 "Ġhard": 5164,
 "Ġliteral": 5165,
 "Ġmut": 5166,
 "Ġneeds": 5167,
 "Ġoccur": 5168,
 "Ġseconds": 5169,
 "81": 5170,
 "CTION": 5171,
 "STRING": 5172,
 "_output": 5173,
 "__main__": 5174,
 "_dis": 5175,
 "_domain": 5176,
 "_remo": 5177,
 "_tasks": 5178,
 "gic": 5179,
 "itory": 5180,
 "manual_seed": 5181,
 "rag": 5182,
 "Ġ15": 5183,
 "ĠCopy": 5184,
 "ĠID": 5185,
 "Ġbit": 5186,
 "Ġdisplay": 5187,
 "Ġhigh": 5188,
 "Ġhashes": 5189,
 "Ġman": 5190,
 "Ġparent_": 5191,
 "Ġparsed": 5192,
 "Ġsure": 5193,
 "Ġsetattr": 5194,
 "Ġtopk_idx": 5195,
 "Ġtrack": 5196,
 "Ġvariables": 5197,
 "('\\": 5198,
 "83": 5199,
 "96": 5200,
 "BO": 5201,
 "DR": 5202,
 "MTP": 5203,
 "_commit": 5204,
 "_log": 5205,
 "_locals": 5206,
 "_pos": 5207,
 "ause": 5208,
 "ading": 5209,
 "environment": 5210,
 "ffn": 5211,
 "fill": 5212,
 "labels": 5213,
 "oll": 5214,
 "record": 5215,
 "reduce": 5216,
 "tell": 5217,
 "vid": 5218,
 "vars": 5219,
 "Ġ):": 5220,
 "ĠAdd": 5221,
 "ĠTra": 5222,
 "Ġ_bootstrap": 5223,
 "Ġ__name__": 5224,
 "Ġchecks": 5225,
 "Ġconstants": 5226,
 "Ġexpression": 5227,
 "Ġjoin": 5228,
 "Ġnargs": 5229,
 "Ġnextchar": 5230,
 "Ġprofile": 5231,
 "Ġresource": 5232,
 "012": 5233,
 "73": 5234,
 ":%": 5235,
 "===": 5236,
 ">\"": 5237,
 "CES": 5238,
 "IGNORE": 5239,
 "OUT": 5240,
 "VAL": 5241,
 "WORD": 5242,
 "_keys": 5243,
 "_filter": 5244,
 "_long": 5245,
 "_pattern": 5246,
 "_shared": 5247,
 "_types": 5248,
 "aded": 5249,
 "architecture_id": 5250,
 "cast": 5251,
 "cationWarning": 5252,
 "changed": 5253,
 "eq__": 5254,
 "errno": 5255,
 "hi": 5256,
 "hell": 5257,
 "ivity": 5258,
 "ors": 5259,
 "ycle": 5260,
 "ĠDo": 5261,
 "ĠIP": 5262,
 "ĠKeyboardInterrupt": 5263,
 "ĠNOT": 5264,
 "Ġbases": 5265,
 "Ġcategory": 5266,
 "Ġcover": 5267,
 "Ġenviron": 5268,
 "Ġinspect": 5269,
 "Ġmoe": 5270,
 "Ġpending": 5271,
 "Ġraises": 5272,
 "Ġrecorded": 5273,
 "Ġsuccess": 5274,
 "\"][\"": 5275,
 "Cannot": 5276,
 "Model": 5277,
 "Nodes": 5278,
 "Text": 5279,
 "_end": 5280,
 "_init": 5281,
 "_url": 5282,
 "__get": 5283,
 "_chars": 5284,
 "connect": 5285,
 "execut": 5286,
 "flush": 5287,
 "mall": 5288,
 "oo": 5289,
 "prog": 5290,
 "rint": 5291,
 "tavar": 5292,
 "tarinfo": 5293,
 "testing": 5294,
 "vals": 5295,
 "ĊĠĠĠĠĠĠĠĠĠĠĠĠĠĠĠĠĠĠĠĠĠĠĠĠĠĠĠĠĠĠĠĠĠ": 5296,
 "Ġ'-": 5297,
 "ĠName": 5298,
 "Ġcancel": 5299,
 "Ġcte": 5300,
 "Ġhead_dim": 5301,
 "Ġrecovery": 5302,
 "Ġweakref": 5303,
 "Ġwritten": 5304,
 "98": 5305,
 "EM": 5306,
 "_enum": 5307,
 "_out": 5308,
 "__qualname__": 5309,
 "_diff": 5310,
 "comment": 5311,
 "imer": 5312,
 "ionError": 5313,
 "miss": 5314,
 "partition": 5315,
 "reference": 5316,
 "skip": 5317,
 "staticmethod": 5318,
 "tract": 5319,
 "Ġ(?": 5320,
 "ĠLog": 5321,
 "ĠOR": 5322,
 "ĠRead": 5323,
 "Ġarbit": 5324,
 "Ġcurrently": 5325,
 "Ġdifference": 5326,
 "Ġextract": 5327,
 "Ġorigin": 5328,
 "Ġremaining": 5329,
 "Ġstack_after": 5330,
 "Ġstack_before": 5331,
 "Ġtable": 5332,
 "Ġunless": 5333,
 "Ġunderlying": 5334,
 "Ġwaiting": 5335,
 "Ġwrong": 5336,
 "Ġwrapped": 5337,
 "024": 5338,
 ":`": 5339,
 "ATE_": 5340,
 "FILE": 5341,
 "ODE": 5342,
 "Terminal": 5343,
 "Wrapper": 5344,
 "]))": 5345,
 "_al": 5346,
 "_values": 5347,
 "break": 5348,
 "conn": 5349,
 "efficient": 5350,
 "extract": 5351,
 "global": 5352,
 "orig": 5353,
 "partial": 5354,
 "rb": 5355,
 "vocab_size": 5356,
 "Ġbytearray": 5357,
 "Ġchanged": 5358,
 "Ġerrno": 5359,
 "Ġhi": 5360,
 "Ġlinesep": 5361,
 "Ġmessages": 5362,
 "Ġoption_string": 5363,
 "Ġremote": 5364,
 "Ġrelative": 5365,
 "Ġruns": 5366,
 "Ġstrip": 5367,
 "Ġunicode": 5368,
 "Ġusage": 5369,
 "82": 5370,
 "822": 5371,
 "=(": 5372,
 "ATEGOR": 5373,
 "Async": 5374,
 "Connection": 5375,
 "LI": 5376,
 "Ra": 5377,
 "RE_FLAG_": 5378,
 "_as": 5379,
 "_make": 5380,
 "_op": 5381,
 "_opt": 5382,
 "_CONTROL": 5383,
 "_experiment": 5384,
 "_globals": 5385,
 "_manifest": 5386,
 "_normal": 5387,
 "_registry": 5388,
 "_symlinks": 5389,
 "_total": 5390,
 "endar": 5391,
 "nl": 5392,
 "pare": 5393,
 "parator": 5394,
 "raps": 5395,
 "semb": 5396,
 "specific": 5397,
 "stant": 5398,
 "uns": 5399,
 "which": 5400,
 "ĊĠĠĠĠĠĠĠĠĠĠĠĠĠĠĠĠĠĠĠĠĠĠĠĠĠĠĠĠĠĠĠĠĠĠĠĠĠĠĠĠĠĠĠĠĠĠĠĠĠĠĠĠ": 5401,
 "Ġ200": 5402,
 "ĠST": 5403,
 "Ġ__set": 5404,
 "Ġalias": 5405,
 "Ġdetails": 5406,
 "Ġlb": 5407,
 "Ġmak": 5408,
 "Ġmaxsize": 5409,
 "Ġnothing": 5410,
 "Ġresume": 5411,
 "Ġreturncode": 5412,
 "Ġsupports": 5413,
 "Ġtakes": 5414,
 "Ġtool": 5415,
 "\"'": 5416,
 "Formatter": 5417,
 "VENT_": 5418,
 "_async": 5419,
 "_it": 5420,
 "_ok": 5421,
 "_order": 5422,
 "_external": 5423,
 "_hash": 5424,
 "_input": 5425,
 "_waiters": 5426,
 "assert_close": 5427,
 "atures": 5428,
 "closed": 5429,
 "clusive": 5430,
 "edDict": 5431,
 "formed": 5432,
 "gers": 5433,
 "ilter": 5434,
 "olve": 5435,
 "recv": 5436,
 "results": 5437,
 "routing": 5438,
 "tected": 5439,
 "terpolation": 5440,
 "uled": 5441,
 "www": 5442,
 "Ġ\"\"": 5443,
 "Ġ\".": 5444,
 "Ġ(%": 5445,
 "Ġ32": 5446,
 "ĠAB": 5447,
 "ĠArgument": 5448,
 "ĠDeprecationWarning": 5449,
 "ĠPo": 5450,
 "Ġ__exit__": 5451,
 "Ġalp": 5452,
 "Ġdelimit": 5453,
 "Ġfeature": 5454,
 "Ġjson": 5455,
 "Ġmeas": 5456,
 "Ġnamespaces": 5457,
 "Ġnegative": 5458,
 "Ġpaths": 5459,
 "Ġreturning": 5460,
 "Ġsco": 5461,
 "Ġtuples": 5462,
 "()`": 5463,
 "/`": 5464,
 "63": 5465,
 "BOX": 5466,
 "DEFAULT_": 5467,
 "EST_": 5468,
 "FIX": 5469,
 "ITERAL": 5470,
 "LED": 5471,
 "LOWBOX": 5472,
 "Mapping": 5473,
 "MENT": 5474,
 "MENT_": 5475,
 "Record": 5476,
 "Sub": 5477,
 "TE": 5478,
 "TestCase": 5479,
 "_std": 5480,
 "_left": 5481,
 "_writing": 5482,
 "call_soon": 5483,
 "cookie": 5484,
 "dic": 5485,
 "fork": 5486,
 "gine": 5487,
 "html": 5488,
 "proxy": 5489,
 "routed": 5490,
 "scape": 5491,
 "warnings": 5492,
 "ĊĠĠĠĠĠĠĠĠĠĠĠĠĠĠĠĠĠĠĠĠĠĠĠĠĠ": 5493,
 "ĠAp": 5494,
 "ĠThat": 5495,
 "Ġ_un": 5496,
 "Ġappropri": 5497,
 "Ġconsider": 5498,
 "Ġdri": 5499,
 "Ġfast": 5500,
 "Ġinherit": 5501,
 "Ġlookup": 5502,
 "Ġoperator": 5503,
 "Ġregistered": 5504,
 "Ġtyping": 5505,
 "Ġverify": 5506,
 "Ġzip": 5507,
 "###": 5508,
 "ATION": 5509,
 "EK": 5510,
 "System": 5511,
 "_NO": 5512,
 "_non": 5513,
 "_positions": 5514,
 "_query_heads": 5515,
 "_stop": 5516,
 "foo": 5517,
 "ibling": 5518,
 "iso": 5519,
 "pository": 5520,
 "seek": 5521,
 "select": 5522,
 "usage": 5523,
 "ĠArchitecture": 5524,
 "ĠStr": 5525,
 "ĠTest": 5526,
 "Ġasyncio": 5527,
 "Ġrepe": 5528,
 "Ġwords": 5529,
 "Ġyear": 5530,
 "ANC": 5531,
 "Key": 5532,
 "Msg": 5533,
 "PATH": 5534,
 "Sibling": 5535,
 "_item": 5536,
 "_action": 5537,
 "_paused": 5538,
 "_parse": 5539,
 "andling": 5540,
 "args__": 5541,
 "cpu": 5542,
 "connection": 5543,
 "coroutine": 5544,
 "crement": 5545,
 "env": 5546,
 "family": 5547,
 "k_weights": 5548,
 "mut": 5549,
 "oper": 5550,
 "resses": 5551,
 "topk_idx": 5552,
 "ĠĠĠĠĠĠĠĠĠĠĠĠĠĠĠ": 5553,
 "ĠAN": 5554,
 "Ġ__del": 5555,
 "Ġdecorator": 5556,
 "Ġformatted": 5557,
 "Ġitertools": 5558,
 "Ġmu": 5559,
 "Ġow": 5560,
 "Ġreceived": 5561,
 "Ġsetting": 5562,
 "Ġtake": 5563,
 "Ġweights": 5564,
 ".'": 5565,
 ".)": 5566,
 "71": 5567,
 "Object": 5568,
 "VAR": 5569,
 "WN": 5570,
 "_app": 5571,
 "_bu": 5572,
 "_closing": 5573,
 "_kv_heads": 5574,
 "ceed": 5575,
 "cogn": 5576,
 "correct": 5577,
 "event_loop": 5578,
 "flat": 5579,
 "isting": 5580,
 "iter__": 5581,
 "s_per": 5582,
 "Ġ'--": 5583,
 "ĠAt": 5584,
 "ĠCopyright": 5585,
 "ĠTar": 5586,
 "ĠThese": 5587,
 "Ġbackward": 5588,
 "Ġcomponent": 5589,
 "Ġdelay": 5590,
 "Ġns": 5591,
 "Ġopcodes": 5592,
 "Ġsil": 5593,
 "Ġsimp": 5594,
 "()):": 5595,
 "ART": 5596,
 "Close": 5597,
 "Mixin": 5598,
 "SMTP": 5599,
 "Same": 5600,
 "_open": 5601,
 "_step": 5602,
 "_logits": 5603,
 "_received": 5604,
 "ancelledError": 5605,
 "cannot": 5606,
 "cording": 5607,
 "diag": 5608,
 "files": 5609,
 "label": 5610,
 "lambda": 5611,
 "mark": 5612,
 "pen": 5613,
 "state__": 5614,
 "td": 5615,
 "tle": 5616,
 "tok": 5617,
 "ulation": 5618,
 "Ġ),": 5619,
 "ĠĠĠĠĠĠĠĠĠĠĠĠ": 5620,
 "Ġ\"-": 5621,
 "ĠCF": 5622,
 "ĠEach": 5623,
 "ĠField": 5624,
 "ĠInvalid": 5625,
 "Ġ__str__": 5626,
 "Ġatol": 5627,
 "Ġcapture": 5628,
 "Ġchildren": 5629,
 "Ġcommands": 5630,
 "Ġcoro": 5631,
 "Ġcurrent_": 5632,
 "Ġexecutable": 5633,
 "Ġfree": 5634,
 "Ġgu": 5635,
 "Ġignored": 5636,
 "Ġobs": 5637,
 "Ġplat": 5638,
 "Ġprint_": 5639,
 "Ġside": 5640,
 "Ġsemant": 5641,
 "Ġseparate": 5642,
 "\").": 5643,
 "').": 5644,
 "95": 5645,
 "APP": 5646,
 "For": 5647,
 "ILL": 5648,
 "ITION": 5649,
 "_active": 5650,
 "_const": 5651,
 "_conn": 5652,
 "_flag": 5653,
 "_policy": 5654,
 "_ready": 5655,
 "_routing": 5656,
 "_sig": 5657,
 "_time": 5658,
 "alid": 5659,
 "call__": 5660,
 "compat": 5661,
 "dr": 5662,
 "escaped": 5663,
 "ingIO": 5664,
 "quoted": 5665,
 "tion": 5666,
 "validate_phase": 5667,
 "wsgi": 5668,
 "ĊĠĠĠĠĠĠĠĠ": 5669,
 "ĊĠĠĠĠĠĠĠĠĠĠĠĠĠĠĠĠĠĠĠĠĠĠĠĠĠĠĠĠĠĠĠĠĠĠĠĠĠĠĠĠ": 5670,
 "ĠStack": 5671,
 "ĠStopIteration": 5672,
 "Ġ_new": 5673,
 "Ġallows": 5674,
 "Ġanything": 5675,
 "Ġarbitrary": 5676,
 "Ġblank": 5677,
 "Ġblocking": 5678,
 "Ġdigits": 5679,
 "Ġfork": 5680,
 "Ġhidden": 5681,
 "Ġissue": 5682,
 "Ġmade": 5683,
 "Ġplus": 5684,
 "Ġqname": 5685,
 "Ġsets": 5686,
 "Ġtarfile": 5687,
 "Ġunique": 5688,
 "Ġwarning": 5689,
 "IZE": 5690,
 "SIZE": 5691,
 "Tuple": 5692,
 "Wait": 5693,
 "[:]": 5694,
 "_default_": 5695,
 "_items": 5696,
 "_breakdown": 5697,
 "_debug": 5698,
 "_element": 5699,
 "_frozen": 5700,
 "_pass": 5701,
 "cat": 5702,
 "cing": 5703,
 "compress": 5704,
 "contain": 5705,
 "else": 5706,
 "entry": 5707,
 "fol": 5708,
 "ike": 5709,
 "lav": 5710,
 "outines": 5711,
 "signal": 5712,
 "vailable": 5713,
 "ĠPEP": 5714,
 "Ġentire": 5715,
 "Ġfutures": 5716,
 "Ġoverr": 5717,
 "Ġrece": 5718,
 "Ġreserved": 5719,
 "Ġspec_set": 5720,
 "'])": 5721,
 "('%": 5722,
 ").\"\"\"": 5723,
 "ACK": 5724,
 "Called": 5725,
 "Future": 5726,
 "HASE_": 5727,
 "Send": 5728,
 "Up": 5729,
 "]*": 5730,
 "_entropy": 5731,
 "_over": 5732,
 "_cancel": 5733,
 "_checkpoint": 5734,
 "_comple": 5735,
 "_denominator": 5736,
 "_share": 5737,
 "_start_": 5738,
 "actual": 5739,
 "arned": 5740,
 "assert": 5741,
 "attr__": 5742,
 "cd": 5743,
 "dicate": 5744,
 "ering": 5745,
 "number": 5746,
 "oundary": 5747,
 "raises": 5748,
 "setdefault": 5749,
 "tol": 5750,
 "variate": 5751,
 "ĠBIN": 5752,
 "ĠDOM": 5753,
 "ĠOK": 5754,
 "ĠOnly": 5755,
 "Ġabsolute": 5756,
 "Ġbpo": 5757,
 "Ġbetter": 5758,
 "Ġcomplex": 5759,
 "Ġcontents": 5760,
 "Ġeffect": 5761,
 "Ġexten": 5762,
 "Ġextended": 5763,
 "Ġfixed": 5764,
 "Ġhandling": 5765,
 "Ġhostname": 5766,
 "Ġincluding": 5767,
 "Ġlists": 5768,
 "Ġmeaning": 5769,
 "Ġpool": 5770,
 "Ġprovides": 5771,
 "Ġsmall": 5772,
 "Ġwhose": 5773,
 "(\"\\": 5774,
 "Abstract": 5775,
 "CRE": 5776,
 "EventLoop": 5777,
 "Fin": 5778,
 "ITH": 5779,
 "LU": 5780,
 "Sh": 5781,
 "_initial": 5782,
 "_int": 5783,
 "_router_": 5784,
 "__file__": 5785,
 "_caches": 5786,
 "_chunk": 5787,
 "_next": 5788,
 "acter": 5789,
 "ale": 5790,
 "atched": 5791,
 "atterns": 5792,
 "bar": 5793,
 "lavour": 5794,
 "nance": 5795,
 "olds": 5796,
 "recovery": 5797,
 "sentinel": 5798,
 "ulate": 5799,
 "ummary": 5800,
 "Ġlib": 5801,
 "ĠDEFAUL": 5802,
 "ĠInit": 5803,
 "ĠThread": 5804,
 "Ġ__enter__": 5805,
 "Ġacross": 5806,
 "Ġcomments": 5807,
 "Ġexerc": 5808,
 "Ġgenerated": 5809,
 "Ġinside": 5810,
 "Ġret": 5811,
 "Ġscope": 5812,
 "Ġsep": 5813,
 "Ġwin": 5814,
 "ARTI": 5815,
 "CP": 5816,
 "CRI": 5817,
 "CRIP": 5818,
 "Ite": 5819,
 "KEYWORD": 5820,
 "LINE": 5821,
 "Named": 5822,
 "ORMAT": 5823,
 "PUT": 5824,
 "Pool": 5825,
 "_limit": 5826,
 "_max": 5827,
 "_self": 5828,
 "_cond": 5829,
 "_fin": 5830,
 "_side": 5831,
 "_seconds": 5832,
 "_width": 5833,
 "_writer": 5834,
 "apt": 5835,
 "await": 5836,
 "adr": 5837,
 "defined": 5838,
 "eta": 5839,
 "gen": 5840,
 "itle": 5841,
 "iterable": 5842,
 "k_norm": 5843,
 "lations": 5844,
 "left": 5845,
 "normalization": 5846,
 "oices": 5847,
 "oked": 5848,
 "pickling": 5849,
 "tree": 5850,
 "top_k": 5851,
 "tribution": 5852,
 "vidence": 5853,
 "Ġ%(": 5854,
 "Ġ[(": 5855,
 "Ġallowance": 5856,
 "Ġannotation": 5857,
 "Ġbecome": 5858,
 "Ġexperts": 5859,
 "Ġidx": 5860,
 "Ġlonger": 5861,
 "Ġlower": 5862,
 "Ġnumeric": 5863,
 "Ġord": 5864,
 "Ġpoints": 5865,
 "Ġselected": 5866,
 "Ġserial": 5867,
 "Ġsoft": 5868,
 "Ġsupplied": 5869,
 "('/": 5870,
 "014": 5871,
 "047": 5872,
 "ELD": 5873,
 "Encoding": 5874,
 "IZ": 5875,
 "OSITION": 5876,
 "T_D": 5877,
 "__repr__": 5878,
 "_counter": 5879,
 "_effect": 5880,
 "_events": 5881,
 "_mut": 5882,
 "alk": 5883,
 "annotations": 5884,
 "bc": 5885,
 "clar": 5886,
 "ination": 5887,
 "latin": 5888,
 "okup": 5889,
 "parameter": 5890,
 "poll": 5891,
 "rstrip": 5892,
 "reader": 5893,
 "show": 5894,
 "tary": 5895,
 "vert_": 5896,
 "ĠClass": 5897,
 "ĠIndex": 5898,
 "Ġ__eq__": 5899,
 "Ġappropriate": 5900,
 "Ġbuilt": 5901,
 "Ġbytecode": 5902,
 "Ġcycle": 5903,
 "Ġdefect": 5904,
 "Ġklass": 5905,
 "Ġmarkobject": 5906,
 "Ġpermiss": 5907,
 "Ġproject": 5908,
 "Ġscal": 5909,
 "Ġsockets": 5910,
 "Ġstarted": 5911,
 "Ġwell": 5912,
 "(\",": 5913,
 "51612903225": 5914,
 "AY": 5915,
 "Builder": 5916,
 "Callable": 5917,
 "INT": 5918,
 "Pre": 5919,
 "_last": 5920,
 "_bias": 5921,
 "_port": 5922,
 "_probe": 5923,
 "_wh": 5924,
 "alias": 5925,
 "cessed": 5926,
 "exc_info": 5927,
 "insert": 5928,
 "lict": 5929,
 "linesep": 5930,
 "matically": 5931,
 "mbo": 5932,
 "ownerDocument": 5933,
 "random": 5934,
 "raise": 5935,
 "strict": 5936,
 "versed": 5937,
 "ĠError": 5938,
 "Ġ:=": 5939,
 "ĠADR": 5940,
 "ĠAuth": 5941,
 "ĠDon": 5942,
 "ĠEnum": 5943,
 "ĠHeader": 5944,
 "ĠSub": 5945,
 "Ġ_f": 5946,
 "Ġ_write": 5947,
 "Ġexecution": 5948,
 "Ġmon": 5949,
 "Ġnodes": 5950,
 "Ġprevent": 5951,
 "Ġprocessing": 5952,
 "Ġprotocol_factory": 5953,
 "Ġstatement": 5954,
 "(%": 5955,
 "(\"<": 5956,
 "('.')": 5957,
 "016": 5958,
 "402": 5959,
 "72": 5960,
 "92": 5961,
 ":])": 5962,
 "=[],": 5963,
 "ARTIFA": 5964,
 "Down": 5965,
 "From": 5966,
 "InvalidHeaderDefect": 5967,
 "SIG": 5968,
 "Socket": 5969,
 "Tra": 5970,
 "_ew": 5971,
 "__set": 5972,
 "_depth": 5973,
 "_removals": 5974,
 "eval": 5975,
 "foundation": 5976,
 "gal": 5977,
 "got": 5978,
 "gettext": 5979,
 "ight_": 5980,
 "itable": 5981,
 "itivity": 5982,
 "ittle": 5983,
 "jor": 5984,
 "mailbox": 5985,
 "path__": 5986,
 "spec__": 5987,
 "structions": 5988,
 "urrogate": 5989,
 "|---|---": 5990,
 "Ġ'')": 5991,
 "Ġ'\\\\": 5992,
 "ĠGRE": 5993,
 "ĠPy": 5994,
 "Ġbackend": 5995,
 "Ġbased": 5996,
 "Ġbegin": 5997,
 "Ġdataclass": 5998,
 "Ġdead": 5999,
 "Ġdouble": 6000,
 "Ġexternal": 6001,
 "Ġlarge": 6002,
 "Ġrtol": 6003,
 "Ġrv": 6004,
 "Ġreadable": 6005,
 "Ġreduction": 6006,
 "Ġsilently": 6007,
 "-------+": 6008,
 ">>>": 6009,
 "Action": 6010,
 "Line": 6011,
 "Map": 6012,
 "OSI": 6013,
 "OSIX": 6014,
 "PT": 6015,
 "VED": 6016,
 "ValueError": 6017,
 "Write": 6018,
 "_stats": 6019,
 "_connect": 6020,
 "_details": 6021,
 "_done_callback": 6022,
 "_loc": 6023,
 "_norms": 6024,
 "_process": 6025,
 "_skip": 6026,
 "_selector": 6027,
 "bp": 6028,
 "childNodes": 6029,
 "ensure": 6030,
 "exec": 6031,
 "finished": 6032,
 "independent": 6033,
 "ismatch": 6034,
 "mro": 6035,
 "memo": 6036,
 "olden": 6037,
 "po_root": 6038,
 "real": 6039,
 "running_loop": 6040,
 "sensitivity": 6041,
 "termine": 6042,
 "where": 6043,
 "ze": 6044,
 "Ġ\"\\": 6045,
 "Ġ\"\"\"),": 6046,
 "ĠDefault": 6047,
 "ĠEMPTY": 6048,
 "ĠIndexError": 6049,
 "ĠMoELayer": 6050,
 "ĠNon": 6051,
 "ĠProtocol": 6052,
 "ĠStream": 6053,
 "ĠUN": 6054,
 "ĠYou": 6055,
 "Ġabstract": 6056,
 "Ġcallers": 6057,
 "Ġcopi": 6058,
 "Ġcolumn": 6059,
 "Ġconversion": 6060,
 "Ġfresh": 6061,
 "Ġfrozenset": 6062,
 "Ġgeneric": 6063,
 "Ġimplementations": 6064,
 "Ġless": 6065,
 "Ġmime": 6066,
 "Ġredirect": 6067,
 "Ġrouter_": 6068,
 "Ġsearch": 6069,
 "ĠstandardMsg": 6070,
 "Ġstatistics": 6071,
 "Ġta": 6072,
 "Ġ|=": 6073,
 "(\"--": 6074,
 "('<": 6075,
 "=\"\"": 6076,
 "ATA": 6077,
 "Filter": 6078,
 "ProtocolState": 6079,
 "_NAME": 6080,
 "_copy": 6081,
 "_kwargs": 6082,
 "_callable": 6083,
 "_cancelled": 6084,
 "_detected": 6085,
 "_margin": 6086,
 "_search": 6087,
 "codeError": 6088,
 "csv": 6089,
 "curframe": 6090,
 "display": 6091,
 "expert": 6092,
 "ged": 6093,
 "gineering": 6094,
 "iler": 6095,
 "or__": 6096,
 "pers": 6097,
 "probe": 6098,
 "quired": 6099,
 "ressed": 6100,
 "serving": 6101,
 "Ġ79": 6102,
 "ĠAb": 6103,
 "ĠCreate": 6104,
 "ĠFLOWBOX": 6105,
 "ĠGeneric": 6106,
 "ĠSH": 6107,
 "Ġ_header": 6108,
 "Ġdaemon": 6109,
 "Ġfds": 6110,
 "Ġflat": 6111,
 "Ġgre": 6112,
 "Ġpassing": 6113,
 "Ġperform": 6114,
 "Ġreduce": 6115,
 "Ġserver_hostname": 6116,
 "Ġsomething": 6117,
 "********************************": 6118,
 "Ablation": 6119,
 "EXT": 6120,
 "Generator": 6121,
 "ITS": 6122,
 "LOCK": 6123,
 "Trans": 6124,
 "UR": 6125,
 "_config_path": 6126,
 "_fallback": 6127,
 "_seq": 6128,
 "_sequences": 6129,
 "``.": 6130,
 "added": 6131,
 "checkpoint": 6132,
 "cognized": 6133,
 "coro": 6134,
 "ention": 6135,
 "fullname": 6136,
 "ian": 6137,
 "igit": 6138,
 "ignment": 6139,
 "lapsed": 6140,
 "lies": 6141,
 "locked": 6142,
 "nodeType": 6143,
 "ocument": 6144,
 "ories": 6145,
 "origin__": 6146,
 "pwrite": 6147,
 "press": 6148,
 "profile": 6149,
 "recedence": 6150,
 "run_phase": 6151,
 "style": 6152,
 "weekday": 6153,
 "}.": 6154,
 "Ġ')": 6155,
 "Ġ'*": 6156,
 "ĠQueue": 6157,
 "ĠSRE_FLAG_": 6158,
 "Ġaround": 6159,
 "Ġaccording": 6160,
 "Ġcompile": 6161,
 "Ġexec": 6162,
 "Ġidentical": 6163,
 "Ġnetloc": 6164,
 "Ġtmp": 6165,
 "AblationConfig": 6166,
 "Dist": 6167,
 "ILTER": 6168,
 "LOB": 6169,
 "[^": 6170,
 "_defaults": 6171,
 "_server": 6172,
 "__origin__": 6173,
 "_context_": 6174,
 "_specifi": 6175,
 "_source_traceback": 6176,
 "_tar": 6177,
 "agic": 6178,
 "assemb": 6179,
 "cfws": 6180,
 "dim": 6181,
 "ially": 6182,
 "implement": 6183,
 "ittest": 6184,
 "my": 6185,
 "maphore": 6186,
 "named": 6187,
 "oci": 6188,
 "qa": 6189,
 "reduce__": 6190,
 "set_result": 6191,
 "tp": 6192,
 "tolist": 6193,
 "transport": 6194,
 "unded": 6195,
 "yntaxError": 6196,
 "Ġ34": 6197,
 "Ġ_create": 6198,
 "Ġ_parse": 6199,
 "Ġ_path": 6200,
 "Ġcap": 6201,
 "Ġchain": 6202,
 "Ġcreating": 6203,
 "Ġfails": 6204,
 "Ġimportlib": 6205,
 "Ġinput_ids": 6206,
 "Ġmaximum": 6207,
 "Ġnbytes": 6208,
 "Ġprofi": 6209,
 "Ġpurpose": 6210,
 "Ġrules": 6211,
 "Ġsa": 6212,
 "Ġshell": 6213,
 "Ġsp": 6214,
 "Ġtoken_type": 6215,
 "################################################################": 6216,
 "----------------------------------------": 6217,
 "42": 6218,
 "93": 6219,
 "=======": 6220,
 "ATEGORY_": 6221,
 "ENDS": 6222,
 "Executor": 6223,
 "Rep": 6224,
 "_allowed": 6225,
 "_indent": 6226,
 "_ns_": 6227,
 "_numerator": 6228,
 "_popen": 6229,
 "_true": 6230,
 "client": 6231,
 "cular": 6232,
 "cover": 6233,
 "flag": 6234,
 "ircular": 6235,
 "isfinite": 6236,
 "lover": 6237,
 "manager": 6238,
 "olog": 6239,
 "padding": 6240,
 "residual": 6241,
 "weakref": 6242,
 "ynchronous": 6243,
 "Ġ\",": 6244,
 "ĠAssert": 6245,
 "ĠFlag": 6246,
 "ĠGREEK": 6247,
 "ĠOF": 6248,
 "Ġ__getitem__": 6249,
 "Ġargparse": 6250,
 "Ġassoci": 6251,
 "Ġattn": 6252,
 "Ġenum_class": 6253,
 "Ġfilters": 6254,
 "Ġlabel": 6255,
 "Ġleading": 6256,
 "Ġmid": 6257,
 "Ġproble": 6258,
 "Ġrepository": 6259,
 "Ġreplaced": 6260,
 "Ġrepresenting": 6261,
 "Ġseparator": 6262,
 "191": 6263,
 "ICODE": 6264,
 "RITE": 6265,
 "_H": 6266,
 "_N": 6267,
 "_running": 6268,
 "_entries": 6269,
 "_fp": 6270,
 "_remove": 6271,
 "activation": 6272,
 "ager": 6273,
 "builtin": 6274,
 "cords": 6275,
 "ested": 6276,
 "hash__": 6277,
 "ices": 6278,
 "itter": 6279,
 "lete": 6280,
 "logging": 6281,
 "mtp": 6282,
 "ootstrap": 6283,
 "}\".": 6284,
 "ĊĠĠĠĠĠĠĠĠĠĠĠĠĠĠĠĠĠĠĠĠĠĠĠĠĠĠĠĠĠĠĠĠĠĠĠĠĠĠĠ": 6285,
 "ĠArchitectureConfig": 6286,
 "ĠChar": 6287,
 "ĠCookie": 6288,
 "ĠExample": 6289,
 "ĠHandle": 6290,
 "ĠUT": 6291,
 "ĠUser": 6292,
 "Ġ__call__": 6293,
 "Ġcollect": 6294,
 "Ġconverted": 6295,
 "Ġcoroutines": 6296,
 "Ġdepth": 6297,
 "Ġenc": 6298,
 "Ġfollowed": 6299,
 "Ġlocation": 6300,
 "Ġlogits": 6301,
 "Ġmultiprocessing": 6302,
 "Ġn_experts": 6303,
 "Ġpax": 6304,
 "Ġproxies": 6305,
 "Ġssl_handshake_timeout": 6306,
 "Ġssl_shutdown_timeout": 6307,
 "Ġworking": 6308,
 "Auth": 6309,
 "CON": 6310,
 "SOCK": 6311,
 "UPLE": 6312,
 "[:,": 6313,
 "_E": 6314,
 "_once": 6315,
 "_paths": 6316,
 "_prefixes": 6317,
 "_stack": 6318,
 "_track": 6319,
 "_value_": 6320,
 "`:": 6321,
 "alidation": 6322,
 "ante": 6323,
 "arante": 6324,
 "cread": 6325,
 "called": 6326,
 "control": 6327,
 "disable": 6328,
 "ensions": 6329,
 "fail": 6330,
 "inary": 6331,
 "ives": 6332,
 "klass": 6333,
 "lex": 6334,
 "ored": 6335,
 "resolve": 6336,
 "return_value": 6337,
 "set_exception": 6338,
 "synthetic": 6339,
 "ĊĠĠĠĠĠĠĠĠĠĠĠĠĠĠĠĠĠĠĠĠĠĠĠĠĠĠĠĠĠĠĠĠĠĠ": 6340,
 "Ġ'.'": 6341,
 "ĠLic": 6342,
 "ĠMAX": 6343,
 "ĠUnion": 6344,
 "ĠWh": 6345,
 "Ġ_compile": 6346,
 "Ġ_read": 6347,
 "Ġ__iter__": 6348,
 "Ġactions": 6349,
 "Ġadditional": 6350,
 "Ġauthkey": 6351,
 "Ġcausal": 6352,
 "Ġdataclasses": 6353,
 "Ġdecimal": 6354,
 "Ġdeep": 6355,
 "Ġet": 6356,
 "Ġextension": 6357,
 "Ġfinish": 6358,
 "Ġgroups": 6359,
 "Ġhad": 6360,
 "Ġinser": 6361,
 "Ġlocale": 6362,
 "Ġmedi": 6363,
 "Ġmsgid": 6364,
 "Ġnamedtuple": 6365,
 "Ġowner": 6366,
 "Ġresolved": 6367,
 "Ġselectors": 6368,
 "Ġstored": 6369,
 "Ġunpack": 6370,
 "Ġvalidate": 6371,
 "Ġvars": 6372,
 "Ġyaml": 6373,
 "================================": 6374,
 "ARG": 6375,
 "Fe": 6376,
 "Group": 6377,
 "MA": 6378,
 "RED": 6379,
 "_G": 6380,
 "_cb": 6381,
 "_into": 6382,
 "_pack": 6383,
 "_param": 6384,
 "_parameter_breakdown": 6385,
 "allen": 6386,
 "aving": 6387,
 "cased": 6388,
 "dated": 6389,
 "digits": 6390,
 "forms": 6391,
 "gi": 6392,
 "lapse": 6393,
 "lis": 6394,
 "members": 6395,
 "ntity": 6396,
 "ov": 6397,
 "onic": 6398,
 "operator": 6399,
 "sec": 6400,
 "seq_len": 6401,
 "splitlines": 6402,
 "terrupted": 6403,
 "ulti": 6404,
 "unctools": 6405,
 "Ġ512": 6406,
 "ĠBuffer": 6407,
 "ĠRout": 6408,
 "ĠTimeout": 6409,
 "Ġautomatically": 6410,
 "Ġbaseline": 6411,
 "Ġcompleted": 6412,
 "Ġcounter": 6413,
 "Ġdigest": 6414,
 "Ġdistribut": 6415,
 "Ġevidence": 6416,
 "Ġexpect": 6417,
 "Ġfailure": 6418,
 "Ġhandles": 6419,
 "Ġlittle": 6420,
 "Ġmtime": 6421,
 "Ġmaint": 6422,
 "Ġmodify": 6423,
 "Ġomitted": 6424,
 "Ġop_result": 6425,
 "(':": 6426,
 ".%": 6427,
 "031": 6428,
 "512": 6429,
 "={\"": 6430,
 "ARSE_": 6431,
 "EST": 6432,
 "MD": 6433,
 "Oper": 6434,
 "PECI": 6435,
 "Runner": 6436,
 "SPACE": 6437,
 "_msg": 6438,
 "_INET": 6439,
 "_callbacks": 6440,
 "_control": 6441,
 "_exp": 6442,
 "_locations": 6443,
 "_ratio": 6444,
 "_topk": 6445,
 "ailed": 6446,
 "best": 6447,
 "created": 6448,
 "f_code": 6449,
 "ffn_dim": 6450,
 "futures": 6451,
 "hab": 6452,
 "hours": 6453,
 "ience": 6454,
 "isit": 6455,
 "issue": 6456,
 "kg": 6457,
 "lear": 6458,
 "len__": 6459,
 "mpt": 6460,
 "n_tokens": 6461,
 "nargs": 6462,
 "save": 6463,
 "store_true": 6464,
 "tac": 6465,
 "trib": 6466,
 "ving": 6467,
 "validation": 6468,
 "variants": 6469,
 "writ": 6470,
 "|\\": 6471,
 "ĊĊĠĠĠĠĠĠĠĠĠĠĠĠĠĠĠĠĠĠĠ": 6472,
 "ĊĠĠĠĠĠĠĠĠĠĠĠĠĠĠĠĠĠĠĠĠĠĠĠĠĠĠĠĠĠĠĠĠĠĠĠĠĠĠ": 6473,
 "ĠABC": 6474,
 "ĠSy": 6475,
 "ĠStatistics": 6476,
 "ĠTask": 6477,
 "Ġ_find": 6478,
 "Ġ__reduce__": 6479,
 "Ġaltern": 6480,
 "Ġassociated": 6481,
 "Ġctype": 6482,
 "Ġclassmethod": 6483,
 "Ġconsidered": 6484,
 "Ġcontainer": 6485,
 "Ġcreation": 6486,
 "Ġdim": 6487,
 "Ġdatetime": 6488,
 "Ġear": 6489,
 "Ġflush": 6490,
 "Ġgets": 6491,
 "Ġguarante": 6492,
 "Ġinitializer": 6493,
 "Ġprotocols": 6494,
 "Ġreally": 6495,
 "Ġreadline": 6496,
 "Ġsever": 6497,
 "Ġstuff": 6498,
 "At": 6499,
 "Comp": 6500,
 "Equal": 6501,
 "Finder": 6502,
 "GTH": 6503,
 "Reg": 6504,
 "UTH": 6505,
 "__args__": 6506,
 "_bootstrap": 6507,
 "_from_": 6508,
 "_sem": 6509,
 "_when": 6510,
 "accept": 6511,
 "accounting": 6512,
 "aps": 6513,
 "backward": 6514,
 "based": 6515,
 "ched": 6516,
 "chain": 6517,
 "erge": 6518,
 "ersion": 6519,
 "habet": 6520,
 "header_": 6521,
 "iffer": 6522,
 "laces": 6523,
 "null": 6524,
 "older": 6525,
 "orary": 6526,
 "pytest": 6527,
 "rv": 6528,
 "requ": 6529,
 "required": 6530,
 "riptor": 6531,
 "ude": 6532,
 "uid": 6533,
 "ultipart": 6534,
 "unix": 6535,
 "venience": 6536,
 "ĠĠĠĠĠĠĠĠĠĠĠĠĠĠĠĠĠĠĠ": 6537,
 "Ġ\"{": 6538,
 "Ġ_debug": 6539,
 "Ġapplied": 6540,
 "Ġbarrier": 6541,
 "Ġder": 6542,
 "Ġdisable": 6543,
 "Ġknown": 6544,
 "Ġmeth": 6545,
 "Ġn_kv_heads": 6546,
 "Ġpredicate": 6547,
 "Ġpriority": 6548,
 "Ġvisit_": 6549,
 "'ll": 6550,
 "0008": 6551,
 "384": 6552,
 "ANG": 6553,
 "ASE": 6554,
 "Function": 6555,
 "OST": 6556,
 "ONG": 6557,
 "REAM": 6558,
 "TokenList": 6559,
 "WA": 6560,
 "WR": 6561,
 "WS_": 6562,
 "_STREAM": 6563,
 "_alive": 6564,
 "_create": 6565,
 "_is_detected": 6566,
 "_rate": 6567,
 "_su": 6568,
 "_table": 6569,
 "```": 6570,
 "alp": 6571,
 "ant_": 6572,
 "ays": 6573,
 "category": 6574,
 "cepth": 6575,
 "cepthook": 6576,
 "collections": 6577,
 "fds": 6578,
 "ftp": 6579,
 "ierarch": 6580,
 "input_ids": 6581,
 "ister_": 6582,
 "logits": 6583,
 "modified": 6584,
 "parent_": 6585,
 "prev": 6586,
 "previous": 6587,
 "rfc": 6588,
 "rp": 6589,
 "t_handler": 6590,
 "ĠGit": 6591,
 "ĠValue": 6592,
 "Ġbackwards": 6593,
 "Ġdefine": 6594,
 "Ġdelta": 6595,
 "Ġdependency": 6596,
 "Ġdirectories": 6597,
 "Ġembed": 6598,
 "Ġframes": 6599,
 "Ġmagic": 6600,
 "Ġoccurs": 6601,
 "Ġoverridden": 6602,
 "Ġpasses": 6603,
 "Ġsentinel": 6604,
 "Ġsubtype": 6605,
 "Ġtrigger": 6606,
 "Ġwho": 6607,
 ")\",": 6608,
 ")`": 6609,
 "0009": 6610,
 "ANCEL": 6611,
 "ANCELLED": 6612,
 "AutoModel": 6613,
 "COL": 6614,
 "Default": 6615,
 "Descriptor": 6616,
 "ERR": 6617,
 "HASH": 6618,
 "LET": 6619,
 "MAX": 6620,
 "Meta": 6621,
 "PEAT": 6622,
 "ST_": 6623,
 "TERN": 6624,
 "ValueTerminal": 6625,
 "]):": 6626,
 "_IGNORE": 6627,
 "_annotation": 6628,
 "_mtime": 6629,
 "_tree": 6630,
 "assed": 6631,
 "create_future": 6632,
 "dot": 6633,
 "daemon": 6634,
 "deepcopy": 6635,
 "eg": 6636,
 "events": 6637,
 "just": 6638,
 "nn": 6639,
 "oice": 6640,
 "ority": 6641,
 "registry": 6642,
 "sax": 6643,
 "ĠGroup": 6644,
 "ĠLiteral": 6645,
 "ĠMIME": 6646,
 "ĠMoEAblationConfig": 6647,
 "ĠParameter": 6648,
 "ĠWS": 6649,
 "Ġ_p": 6650,
 "Ġaren": 6651,
 "Ġclassdict": 6652,
 "Ġcompress": 6653,
 "Ġentity": 6654,
 "Ġerrwrite": 6655,
 "Ġformatting": 6656,
 "Ġheader_": 6657,
 "Ġhelper": 6658,
 "Ġintended": 6659,
 "Ġinterpreter": 6660,
 "Ġlinecache": 6661,
 "Ġmemoryview": 6662,
 "Ġnoqa": 6663,
 "Ġoccurred": 6664,
 "Ġoperations": 6665,
 "Ġpers": 6666,
 "Ġpositions": 6667,
 "Ġread_": 6668,
 "Ġthing": 6669,
 "Ġversions": 6670,
 "Ġyi": 6671,
 "=======+": 6672,
 "Expected": 6673,
 "Instruction": 6674,
 "NEW": 6675,
 "OLD": 6676,
 "ORTED": 6677,
 "Simple": 6678,
 "SION": 6679,
 "Stack": 6680,
 "TML": 6681,
 "_DE": 6682,
 "_kind": 6683,
 "_main": 6684,
 "_available": 6685,
 "_change": 6686,
 "_dtype": 6687,
 "_full": 6688,
 "_py": 6689,
 "``,": 6690,
 "allenge": 6691,
 "authkey": 6692,
 "bufsize": 6693,
 "delimit": 6694,
 "digest": 6695,
 "locale": 6696,
 "model_copy": 6697,
 "negative": 6698,
 "printable": 6699,
 "rep": 6700,
 "ssed": 6701,
 "serve": 6702,
 "tegers": 6703,
 "until": 6704,
 "xff": 6705,
 "ypedDict": 6706,
 "}\",": 6707,
 "ĊĊĠ": 6708,
 "Ġhe": 6709,
 "Ġ((": 6710,
 "ĠAL": 6711,
 "ĠAc": 6712,
 "ĠMake": 6713,
 "ĠSh": 6714,
 "ĠSol": 6715,
 "ĠSequence": 6716,
 "ĠTraceback": 6717,
 "Ġ_add": 6718,
 "Ġ_b": 6719,
 "Ġ_current_": 6720,
 "Ġ_get": 6721,
 "Ġ_load": 6722,
 "Ġaliases": 6723,
 "Ġblocksize": 6724,
 "Ġchars": 6725,
 "Ġconnections": 6726,
 "Ġfeed": 6727,
 "Ġgates": 6728,
 "Ġimported": 6729,
 "Ġinsert": 6730,
 "Ġinstructions": 6731,
 "Ġincludes": 6732,
 "Ġplatform": 6733,
 "Ġpositive": 6734,
 "Ġretri": 6735,
 "Ġreverse": 6736,
 "Ġspecifies": 6737,
 "Ġthough": 6738,
 "Ġtotal_sent": 6739,
 "Ġwon": 6740,
 "(**": 6741,
 "()'": 6742,
 "()))": 6743,
 ".**": 6744,
 ".\\": 6745,
 "019": 6746,
 "Clean": 6747,
 "DOM": 6748,
 "Dis": 6749,
 "Logger": 6750,
 "M_": 6751,
 "MSNorm": 6752,
 "OMP": 6753,
 "OUN": 6754,
 "Parameter": 6755,
 "SING": 6756,
 "SU": 6757,
 "SystemExit": 6758,
 "UNK": 6759,
 "]])": 6760,
 "_ignore": 6761,
 "_per": 6762,
 "_UNIX": 6763,
 "_accept": 6764,
 "_errors": 6765,
 "_flavour": 6766,
 "_fn": 6767,
 "_partial": 6768,
 "_resume": 6769,
 "_trans": 6770,
 "after": 6771,
 "cate": 6772,
 "callback": 6773,
 "contains__": 6774,
 "drop": 6775,
 "dtype": 6776,
 "description": 6777,
 "dumps": 6778,
 "executable": 6779,
 "expand": 6780,
 "git_commit": 6781,
 "ixed": 6782,
 "lstrip": 6783,
 "locals": 6784,
 "notated": 6785,
 "onnet": 6786,
 "orking": 6787,
 "reakpoint": 6788,
 "result_": 6789,
 "surrogate": 6790,
 "ties": 6791,
 "tin": 6792,
 "unlink": 6793,
 "utils": 6794,
 "when": 6795,
 "ĊĠĠĠĠĠĠĠĠĠĠĠĠĠĠĠĠĠĠĠĠĠĠĠĠĠĠĠĠĠĠĠĠĠĠĠĠĠĠĠĠĠĠ": 6796,
 "Ġvery": 6797,
 "ĠĠĠĠĠĠĠĠĠĠĠĠĠĠ": 6798,
 "Ġ29": 6799,
 "ĠBytes": 6800,
 "ĠEOFError": 6801,
 "ĠNeed": 6802,
 "ĠSo": 6803,
 "ĠStatisticsError": 6804,
 "Ġ__dict__": 6805,
 "Ġcwd": 6806,
 "Ġchecking": 6807,
 "Ġconsequence": 6808,
 "Ġconnected": 6809,
 "Ġdefects": 6810,
 "Ġdocstring": 6811,
 "Ġetc": 6812,
 "Ġloaded": 6813,
 "Ġnested": 6814,
 "Ġoutside": 6815,
 "Ġpasswd": 6816,
 "Ġprobably": 6817,
 "Ġrealm": 6818,
 "Ġresulting": 6819,
 "Ġsemantics": 6820,
 "Ġsubpattern": 6821,
 "Ġtargetpath": 6822,
 "Ġtopmost": 6823,
 "Ġunquote": 6824,
 "'[": 6825,
 "(\\": 6826,
 "09677419": 6827,
 "40": 6828,
 "62": 6829,
 "70": 6830,
 "Argument": 6831,
 "ER_": 6832,
 "IOBase": 6833,
 "LEADER": 6834,
 "MENT_NODE": 6835,
 "NULL": 6836,
 "Names": 6837,
 "Policy": 6838,
 "Rule": 6839,
 "To": 6840,
 "UE": 6841,
 "VED_CONTROL": 6842,
 "WS_LEADER": 6843,
 "_hel": 6844,
 "_object": 6845,
 "_INFO": 6846,
 "_buffer_size": 6847,
 "_cookies": 6848,
 "_field": 6849,
 "_futures": 6850,
 "_repo": 6851,
 "_sparse_dict": 6852,
 "_tb": 6853,
 "_toc": 6854,
 "`'": 6855,
 "`).": 6856,
 "aphore": 6857,
 "cket": 6858,
 "corpus": 6859,
 "crete": 6860,
 "discard": 6861,
 "ection": 6862,
 "emaphore": 6863,
 "ential": 6864,
 "er_state": 6865,
 "fut": 6866,
 "ighted": 6867,
 "kin": 6868,
 "linelen": 6869,
 "module_search": 6870,
 "n_routed_experts": 6871,
 "option_strings": 6872,
 "options": 6873,
 "orever": 6874,
 "posix": 6875,
 "supported": 6876,
 "sparse_config_path": 6877,
 "stit": 6878,
 "unnel": 6879,
 "ution": 6880,
 "Ġ'\"": 6881,
 "Ġ22": 6882,
 "ĠCFWS_LEADER": 6883,
 "ĠModule": 6884,
 "ĠUnix": 6885,
 "Ġ_S": 6886,
 "Ġ_co": 6887,
 "Ġ__hash__": 6888,
 "Ġ__del__": 6889,
 "Ġadapt": 6890,
 "Ġalive": 6891,
 "Ġatom": 6892,
 "Ġcached": 6893,
 "Ġconcurrent": 6894,
 "Ġeas": 6895,
 "Ġembedded": 6896,
 "Ġenco": 6897,
 "Ġindicates": 6898,
 "Ġjunk": 6899,
 "Ġloggers": 6900,
 "Ġn_routed_experts": 6901,
 "Ġrfc": 6902,
 "Ġrestore": 6903,
 "Ġspawn": 6904,
 "Ġsegment": 6905,
 "Ġsession": 6906,
 "Ġsimply": 6907,
 "Ġtz": 6908,
 "Ġwatcher": 6909,
 ")\")": 6910,
 "0004": 6911,
 "41": 6912,
 ":\"": 6913,
 "AT_": 6914,
 "CE": 6915,
 "CEP": 6916,
 "EVENT_": 6917,
 "Init": 6918,
 "Pi": 6919,
 "Remove": 6920,
 "RequestHandler": 6921,
 "SHA": 6922,
 "SPARSE_": 6923,
 "Time": 6924,
 "TOCOL": 6925,
 "[(": 6926,
 "_help": 6927,
 "_up": 6928,
 "_x": 6929,
 "__func": 6930,
 "_atom": 6931,
 "_body": 6932,
 "_content": 6933,
 "_imp": 6934,
 "_map_": 6935,
 "_ns": 6936,
 "_response": 6937,
 "_tail": 6938,
 "bias": 6939,
 "backend": 6940,
 "cap": 6941,
 "caten": 6942,
 "directory": 6943,
 "earDown": 6944,
 "emory": 6945,
 "f_back": 6946,
 "factory": 6947,
 "guments": 6948,
 "gnit": 6949,
 "gnitude": 6950,
 "groups": 6951,
 "ising": 6952,
 "mtime": 6953,
 "olean": 6954,
 "paw": 6955,
 "sol": 6956,
 "structor": 6957,
 "ushed": 6958,
 "validate_repo": 6959,
 "Ġ13": 6960,
 "ĠAlso": 6961,
 "ĠAssertionError": 6962,
 "ĠCON": 6963,
 "ĠConnection": 6964,
 "ĠDEFAULT": 6965,
 "ĠNO": 6966,
 "ĠRaise": 6967,
 "ĠRaises": 6968,
 "ĠSIG": 6969,
 "ĠSimple": 6970,
 "ĠSource": 6971,
 "ĠSyntaxError": 6972,
 "ĠTypeVar": 6973,
 "Ġ_imp": 6974,
 "Ġ_Call": 6975,
 "Ġ__len__": 6976,
 "Ġast": 6977,
 "Ġadding": 6978,
 "Ġaddresses": 6979,
 "Ġarray": 6980,
 "Ġbad": 6981,
 "Ġdelib": 6982,
 "Ġdelim": 6983,
 "Ġdescrib": 6984,
 "Ġdeterministic": 6985,
 "Ġdefinit": 6986,
 "Ġdidn": 6987,
 "Ġdirs": 6988,
 "Ġdoctype": 6989,
 "Ġerrmsg": 6990,
 "Ġeverything": 6991,
 "Ġexposed": 6992,
 "Ġfollow_symlinks": 6993,
 "Ġlearned": 6994,
 "ĠlocalName": 6995,
 "Ġmakes": 6996,
 "Ġnext_": 6997,
 "Ġofficial": 6998,
 "Ġpathlib": 6999,
 "Ġquotes": 7000,
 "Ġremains": 7001,
 "Ġrepresents": 7002,
 "Ġspe": 7003,
 "Ġstarts": 7004,
 "ĠsystemId": 7005,
 "Ġtreated": 7006,
 "Ġunchanged": 7007,
 "()]": 7008,
 "([[": 7009,
 "360": 7010,
 "480": 7011,
 "All": 7012,
 "Barrier": 7013,
 "Com": 7014,
 "ContextManager": 7015,
 "LAG": 7016,
 "MIT": 7017,
 "NG": 7018,
 "OCU": 7019,
 "PRE": 7020,
 "Python": 7021,
 "Tree": 7022,
 "UNICODE": 7023,
 "_KEYWORD": 7024,
 "_generator": 7025,
 "__forward": 7026,
 "_manager": 7027,
 "_payload": 7028,
 "_recv": 7029,
 "_register": 7030,
 "_signature": 7031,
 "_wakeup": 7032,
 "`),": 7033,
 "arily": 7034,
 "atom": 7035,
 "atal_error": 7036,
 "enum_class": 7037,
 "exists": 7038,
 "functools": 7039,
 "get_debug": 7040,
 "head_dim": 7041,
 "ignment_count": 7042,
 "ins": 7043,
 "ints": 7044,
 "iven": 7045,
 "literal": 7046,
 "moke": 7047,
 "module_search_locations": 7048,
 "namespaceURI": 7049,
 "off": 7050,
 "oftware": 7051,
 "pagate": 7052,
 "repo_root": 7053,
 "read_text": 7054,
 "sen": 7055,
 "sequ": 7056,
 "sorted": 7057,
 "uess": 7058,
 "urrent": 7059,
 "Ġ30": 7060,
 "ĠFRO": 7061,
 "ĠOver": 7062,
 "ĠServer": 7063,
 "ĠSince": 7064,
 "ĠStart": 7065,
 "ĠWITH": 7066,
 "Ġ_W": 7067,
 "Ġ_init": 7068,
 "Ġ_name": 7069,
 "Ġ_test": 7070,
 "Ġassignment": 7071,
 "Ġbasic": 7072,
 "Ġbuilder": 7073,
 "Ġconstant": 7074,
 "Ġduplicate": 7075,
 "Ġdetermine": 7076,
 "Ġexpert_ffn_dim": 7077,
 "Ġfileno": 7078,
 "Ġidentifier": 7079,
 "Ġn_query_heads": 7080,
 "ĠnamespaceURI": 7081,
 "Ġnote": 7082,
 "Ġopts": 7083,
 "Ġpat": 7084,
 "Ġskipped": 7085,
 "Ġsynchron": 7086,
 "Ġtimer": 7087,
 "Ġtrip": 7088,
 "Ġtaken": 7089,
 ".,": 7090,
 "0005": 7091,
 "011": 7092,
 "ATCH": 7093,
 "BJ": 7094,
 "Col": 7095,
 "Char": 7096,
 "Help": 7097,
 "IMEOUT": 7098,
 "ITY": 7099,
 "Item": 7100,
 "MARK": 7101,
 "Number": 7102,
 "NOT": 7103,
 "Operational": 7104,
 "Push": 7105,
 "Proactor": 7106,
 "RAM": 7107,
 "Start": 7108,
 "_artifact": 7109,
 "_CH": 7110,
 "_TO": 7111,
 "__func__": 7112,
 "_executor": 7113,
 "_iters": 7114,
 "_specified": 7115,
 "ash": 7116,
 "bad": 7117,
 "cb": 7118,
 "context_": 7119,
 "delay": 7120,
 "debuglevel": 7121,
 "getattr": 7122,
 "lash": 7123,
 "loads": 7124,
 "notify": 7125,
 "numerator": 7126,
 "rant": 7127,
 "rst": 7128,
 "related": 7129,
 "resume": 7130,
 "ription": 7131,
 "sv": 7132,
 "ulename": 7133,
 "variance": 7134,
 "wi": 7135,
 "xx": 7136,
 "ys": 7137,
 "zy": 7138,
 "Ġ----------------": 7139,
 "Ġke": 7140,
 "Ġ21": 7141,
 "ĠAF": 7142,
 "ĠGPT": 7143,
 "ĠNormal": 7144,
 "ĠOP": 7145,
 "ĠTarInfo": 7146,
 "ĠUTF": 7147,
 "Ġ_as": 7148,
 "Ġaccounting": 7149,
 "Ġalpha": 7150,
 "Ġappears": 7151,
 "Ġbits": 7152,
 "Ġcalcul": 7153,
 "Ġconstruction": 7154,
 "Ġdoing": 7155,
 "Ġembedding": 7156,
 "Ġengineering": 7157,
 "Ġenough": 7158,
 "Ġenter": 7159,
 "Ġexclude": 7160,
 "Ġexpert_id": 7161,
 "Ġfs": 7162,
 "Ġget_cfws": 7163,
 "Ġinner": 7164,
 "Ġinstruction": 7165,
 "Ġlayers": 7166,
 "Ġlistener": 7167,
 "Ġmetavar": 7168,
 "Ġnn": 7169,
 "Ġonexc": 7170,
 "Ġrc": 7171,
 "Ġrecent": 7172,
 "Ġremainder": 7173,
 "Ġslice": 7174,
 "Ġsignific": 7175,
 "Ġslots": 7176,
 "Ġsoftware": 7177,
 "Ġspecification": 7178,
 "Ġstructure": 7179,
 "Ġsubclasses": 7180,
 "\"].": 7181,
 ")],": 7182,
 "0000": 7183,
 "040": 7184,
 "129032258064": 7185,
 "322": 7186,
 "Ac": 7187,
 "LENGTH": 7188,
 "MoELayer": 7189,
 "Out": 7190,
 "RAN": 7191,
 "Ref": 7192,
 "Source": 7193,
 "TOKEN": 7194,
 "TypeError": 7195,
 "]')": 7196,
 "_ext": 7197,
 "_grad": 7198,
 "_owner": 7199,
 "_conn_lost": 7200,
 "_exception_handler": 7201,
 "_identical": 7202,
 "_passed": 7203,
 "_replace": 7204,
 "_sections": 7205,
 "_signal": 7206,
 "_ws": 7207,
 "cc": 7208,
 "commands": 7209,
 "dst": 7210,
 "denominator": 7211,
 "et_": 7212,
 "ertific": 7213,
 "gics": 7214,
 "gy": 7215,
 "gether": 7216,
 "getpid": 7217,
 "getvalue": 7218,
 "iagnostic": 7219,
 "layer_": 7220,
 "mask": 7221,
 "mk": 7222,
 "mul": 7223,
 "metadata": 7224,
 "ned": 7225,
 "ng": 7226,
 "oke": 7227,
 "package": 7228,
 "passwd": 7229,
 "routed_experts": 7230,
 "subprocess": 7231,
 "tty": 7232,
 "ummy": 7233,
 "wrapped": 7234,
 "ynam": 7235,
 "Ġund": 7236,
 "Ġ199": 7237,
 "Ġ2822": 7238,
 "ĠBroken": 7239,
 "ĠCY": 7240,
 "ĠCYR": 7241,
 "ĠCYRILL": 7242,
 "ĠCYRILLIC": 7243,
 "ĠDense": 7244,
 "ĠFinal": 7245,
 "ĠGet": 7246,
 "ĠLinux": 7247,
 "ĠPi": 7248,
 "ĠWith": 7249,
 "Ġ_alias": 7250,
 "Ġ_handle": 7251,
 "Ġ_over": 7252,
 "Ġ_thread": 7253,
 "Ġaudit": 7254,
 "Ġadds": 7255,
 "Ġapproval": 7256,
 "Ġbinascii": 7257,
 "Ġboolean": 7258,
 "Ġchunksize": 7259,
 "Ġdt": 7260,
 "Ġduplic": 7261,
 "Ġdestination": 7262,
 "Ġfig": 7263,
 "Ġimports": 7264,
 "Ġinference": 7265,
 "Ġintegers": 7266,
 "Ġleak": 7267,
 "Ġlibrary": 7268,
 "Ġnormalized": 7269,
 "Ġoptimizer": 7270,
 "Ġpatch": 7271,
 "Ġpost": 7272,
 "Ġprog": 7273,
 "Ġresult_": 7274,
 "Ġschema": 7275,
 "Ġseparators": 7276,
 "-%": 7277,
 "/*.": 7278,
 "045": 7279,
 ":-": 7280,
 "ABLE": 7281,
 "ARY": 7282,
 "Hub": 7283,
 "IF": 7284,
 "MB": 7285,
 "NOT_": 7286,
 "OSITIONAL_": 7287,
 "RESS": 7288,
 "]+": 7289,
 "_abs": 7290,
 "_def": 7291,
 "_stream": 7292,
 "_SIZE": 7293,
 "__spec__": 7294,
 "_byte": 7295,
 "_float": 7296,
 "_inner": 7297,
 "_matcher": 7298,
 "_memory": 7299,
 "_next_": 7300,
 "_padding": 7301,
 "_special": 7302,
 "_split": 7303,
 "_separator": 7304,
 "_sendfile": 7305,
 "_shares": 7306,
 "_tag": 7307,
 "`;": 7308,
 "aries": 7309,
 "arger": 7310,
 "bits": 7311,
 "ength": 7312,
 "erce": 7313,
 "feed": 7314,
 "funcs": 7315,
 "gid": 7316,
 "parentNode": 7317,
 "pawning": 7318,
 "pending": 7319,
 "point_": 7320,
 "rest": 7321,
 "resholds": 7322,
 "road": 7323,
 "sequences": 7324,
 "ssue": 7325,
 "state_lock": 7326,
 "that": 7327,
 "versal": 7328,
 "ĠZ": 7329,
 "Ġed": 7330,
 "Ġ\"<|": 7331,
 "Ġ'{}'": 7332,
 "Ġ+--------": 7333,
 "Ġ17": 7334,
 "ĠAd": 7335,
 "ĠGPU": 7336,
 "ĠInterrupted": 7337,
 "ĠList": 7338,
 "ĠMethod": 7339,
 "ĠPer": 7340,
 "ĠRNG": 7341,
 "ĠResource": 7342,
 "ĠSonnet": 7343,
 "ĠSSLProtocolState": 7344,
 "ĠTokenizer": 7345,
 "Ġ_type": 7346,
 "Ġ__all__": 7347,
 "Ġ_pprint_": 7348,
 "Ġapply": 7349,
 "Ġarg_strings": 7350,
 "Ġargrepr": 7351,
 "Ġascii": 7352,
 "Ġauthentication": 7353,
 "Ġcompact": 7354,
 "Ġcompression": 7355,
 "Ġcorrectly": 7356,
 "Ġcreates": 7357,
 "Ġdenominator": 7358,
 "Ġdays": 7359,
 "Ġderived": 7360,
 "Ġdescriptors": 7361,
 "Ġeq": 7362,
 "Ġerrcode": 7363,
 "Ġexercise": 7364,
 "Ġgen": 7365,
 "Ġimplements": 7366,
 "Ġincluded": 7367,
 "Ġiteration": 7368,
 "Ġlarger": 7369,
 "Ġnone": 7370,
 "ĠnewChild": 7371,
 "Ġnewlines": 7372,
 "Ġnotice": 7373,
 "Ġoverlapped": 7374,
 "Ġpip": 7375,
 "Ġpick": 7376,
 "Ġreuse": 7377,
 "Ġreversed": 7378,
 "Ġrequests": 7379,
 "Ġrows": 7380,
 "Ġshape": 7381,
 "Ġshare": 7382,
 "Ġtogether": 7383,
 "Ġview": 7384,
 "Al": 7385,
 "ATED": 7386,
 "ATTERN": 7387,
 "CESS": 7388,
 "CFWS": 7389,
 "Copy": 7390,
 "Control": 7391,
 "Di": 7392,
 "EMPTY": 7393,
 "Func": 7394,
 "Import": 7395,
 "LITERAL": 7396,
 "LETED": 7397,
 "MoE": 7398,
 "Namespace": 7399,
 "ONE": 7400,
 "REF": 7401,
 "SF": 7402,
 "TD": 7403,
 "UPPRESS": 7404,
 "Version": 7405,
 "Vari": 7406,
 "Wh": 7407,
 "XML": 7408,
 "_lm_loss": 7409,
 "_FORMAT": 7410,
 "_ass": 7411,
 "_dense": 7412,
 "_di": 7413,
 "_empty_waiter": 7414,
 "_forever": 7415,
 "_literal": 7416,
 "_official": 7417,
 "_segment": 7418,
 "activ": 7419,
 "anchor": 7420,
 "argument": 7421,
 "class_get": 7422,
 "compatible": 7423,
 "diagnostics": 7424,
 "emplate": 7425,
 "endian": 7426,
 "etscape": 7427,
 "heduled": 7428,
 "ialect": 7429,
 "idom": 7430,
 "ierarchy": 7431,
 "implementation": 7432,
 "internal": 7433,
 "long": 7434,
 "leave": 7435,
 "mber_name": 7436,
 "onest": 7437,
 "precedence": 7438,
 "racket": 7439,
 "ragma": 7440,
 "requency": 7441,
 "s_name": 7442,
 "second": 7443,
 "setter": 7444,
 "tary_dim": 7445,
 "tokens": 7446,
 "ttention": 7447,
 "typing": 7448,
 "uard": 7449,
 "urations": 7450,
 "Ġ##": 7451,
 "Ġ';": 7452,
 "Ġ'/'": 7453,
 "Ġ35": 7454,
 "Ġ36": 7455,
 "ĠFrozen": 7456,
 "ĠFunction": 7457,
 "ĠGNU": 7458,
 "ĠHTML": 7459,
 "ĠIssue": 7460,
 "ĠInterruptedError": 7461,
 "ĠREP": 7462,
 "ĠSkip": 7463,
 "ĠSome": 7464,
 "Ġable": 7465,
 "Ġaver": 7466,
 "Ġaccum": 7467,
 "Ġasynchronous": 7468,
 "Ġdeclar": 7469,
 "Ġdelimiter": 7470,
 "Ġgolden": 7471,
 "Ġgeneral": 7472,
 "Ġhandled": 7473,
 "Ġleader": 7474,
 "Ġloc": 7475,
 "Ġmaxlinelen": 7476,
 "Ġmedian": 7477,
 "Ġpure": 7478,
 "Ġposix": 7479,
 "Ġprev": 7480,
 "Ġproblem": 7481,
 "Ġsw": 7482,
 "Ġsynthetic": 7483,
 "Ġtokenize": 7484,
 "Ġvarious": 7485,
 "Ġverified": 7486,
 "'<": 7487,
 "()[": 7488,
 ")(": 7489,
 ")*": 7490,
 "0003": 7491,
 "19354838709": 7492,
 "='',": 7493,
 "AttributeError": 7494,
 "ABC": 7495,
 "Cal": 7496,
 "Call": 7497,
 "Do": 7498,
 "ED_ARTIFA": 7499,
 "HeaderError": 7500,
 "INFO": 7501,
 "Log": 7502,
 "More": 7503,
 "Non": 7504,
 "NOWN": 7505,
 "PECIAL": 7506,
 "Probe": 7507,
 "RESH": 7508,
 "RESHOLD": 7509,
 "_ascii": 7510,
 "_iter": 7511,
 "_user": 7512,
 "_zero": 7513,
 "_dist": 7514,
 "_domains": 7515,
 "_options": 7516,
 "_routed_expert": 7517,
 "_scale": 7518,
 "_tests": 7519,
 "_whitespace": 7520,
 "`/`": 7521,
 "andir": 7522,
 "angle": 7523,
 "appro": 7524,
 "batch_size": 7525,
 "cname": 7526,
 "cte": 7527,
 "digit": 7528,
 "delim": 7529,
 "doctype": 7530,
 "gree": 7531,
 "getter": 7532,
 "id_to": 7533,
 "injection": 7534,
 "ingIOError": 7535,
 "isinstance": 7536,
 "jitter": 7537,
 "ln": 7538,
 "lacement": 7539,
 "lastEvent": 7540,
 "lip": 7541,
 "mime": 7542,
 "nextSibling": 7543,
 "precision": 7544,
 "register_": 7545,
 "selector": 7546,
 "side_effect": 7547,
 "unittest": 7548,
 "using": 7549,
 "ybe": 7550,
 "zone": 7551,
 "Ġescaped": 7552,
 "Ġ31": 7553,
 "ĠCATEGORY_": 7554,
 "ĠCan": 7555,
 "ĠHel": 7556,
 "ĠIPv": 7557,
 "ĠMay": 7558,
 "ĠPopen": 7559,
 "ĠParse": 7560,
 "ĠURI": 7561,
 "Ġ_T": 7562,
 "Ġ_safe": 7563,
 "Ġam": 7564,
 "Ġcm": 7565,
 "Ġcallbacks": 7566,
 "Ġconflict": 7567,
 "Ġdra": 7568,
 "Ġdiscard": 7569,
 "Ġhist": 7570,
 "Ġhappens": 7571,
 "Ġnumerator": 7572,
 "Ġpartic": 7573,
 "Ġpossibly": 7574,
 "Ġprocessed": 7575,
 "Ġproven": 7576,
 "ĠpublicId": 7577,
 "Ġqnames": 7578,
 "Ġqual": 7579,
 "Ġrequirement": 7580,
 "Ġretrie": 7581,
 "Ġrol": 7582,
 "Ġscheduled": 7583,
 "Ġsemaphore": 7584,
 "Ġstale": 7585,
 "Ġsuc": 7586,
 "Ġsubset": 7587,
 "Ġunsigned": 7588,
 "Ġupper": 7589,
 "Ġvariance": 7590,
 ".'''": 7591,
 "026": 7592,
 "2231": 7593,
 "305": 7594,
 "='\\": 7595,
 "AGIC": 7596,
 "ARD": 7597,
 "COMP": 7598,
 "CODES": 7599,
 "EG": 7600,
 "Entity": 7601,
 "GEN": 7602,
 "HASHED_ARTIFA": 7603,
 "Int": 7604,
 "Inter": 7605,
 "Length": 7606,
 "LOBAL": 7607,
 "MESS": 7608,
 "MESSAG": 7609,
 "OW": 7610,
 "Supported": 7611,
 "Std": 7612,
 "Torch": 7613,
 "Use": 7614,
 "ULT": 7615,
 "UPPORTED": 7616,
 "We": 7617,
 "ZEN": 7618,
 "_run": 7619,
 "_status": 7620,
 "_steps": 7621,
 "_bit": 7622,
 "_blocks": 7623,
 "_clean": 7624,
 "_cls": 7625,
 "_convert_": 7626,
 "_connection_lost": 7627,
 "_identity": 7628,
 "_made": 7629,
 "_mutated": 7630,
 "_number": 7631,
 "_pairs_": 7632,
 "_proxy": 7633,
 "_rms": 7634,
 "_regex": 7635,
 "_sentinel": 7636,
 "_sigma": 7637,
 "_target": 7638,
 "_tracker": 7639,
 "_word": 7640,
 "_workers": 7641,
 "amma": 7642,
 "bb": 7643,
 "basename": 7644,
 "class_getitem__": 7645,
 "co_filename": 7646,
 "comm": 7647,
 "corator": 7648,
 "cursion": 7649,
 "datetime": 7650,
 "f_counter": 7651,
 "fast": 7652,
 "fb": 7653,
 "flows": 7654,
 "follow": 7655,
 "kinds": 7656,
 "listener": 7657,
 "metavar": 7658,
 "nodeName": 7659,
 "nsitive": 7660,
 "override": 7661,
 "pection": 7662,
 "rder": 7663,
 "reshold": 7664,
 "righ": 7665,
 "rols": 7666,
 "router_logits": 7667,
 "rtifact": 7668,
 "scheme": 7669,
 "serial": 7670,
 "shared_expert": 7671,
 "ssible": 7672,
 "tarfile": 7673,
 "ultiple": 7674,
 "unpack": 7675,
 "upper": 7676,
 "venv": 7677,
 "wakeup": 7678,
 "ĊĠĠĠĠĠĠĠĠĠĠĠĠĠĠĠĠĠĠĠĠĠĠĠĠĠĠĠĠĠĠĠĠĠĠĠĠĠ": 7679,
 "ĊĠĠĠĠĠĠĠĠĠĠĠĠĠĠĠĠĠĠĠĠĠĠĠĠĠĠĠĠĠĠĠĠĠĠĠĠĠĠĠĠĠĠĠ": 7680,
 "Ġ64": 7681,
 "Ġ'?": 7682,
 "Ġ'{}'\".": 7683,
 "Ġ255": 7684,
 "ĠAbstract": 7685,
 "ĠCancelledError": 7686,
 "ĠDecimal": 7687,
 "ĠEvery": 7688,
 "ĠLITERAL": 7689,
 "ĠPHASE_": 7690,
 "ĠRo": 7691,
 "Ġ_sys": 7692,
 "Ġaddition": 7693,
 "Ġartifacts": 7694,
 "Ġassigned": 7695,
 "Ġbreakpoints": 7696,
 "Ġclosing": 7697,
 "Ġclient_address": 7698,
 "Ġcore": 7699,
 "Ġdb": 7700,
 "Ġdiagnostics": 7701,
 "Ġdiv": 7702,
 "Ġenabled": 7703,
 "Ġendtime": 7704,
 "Ġexc_type": 7705,
 "Ġfinder": 7706,
 "Ġgzip": 7707,
 "Ġhardware": 7708,
 "Ġindicate": 7709,
 "Ġmanifests": 7710,
 "Ġmeasured": 7711,
 "Ġoptimized": 7712,
 "Ġout_b": 7713,
 "Ġpie": 7714,
 "Ġpercent": 7715,
 "Ġproperly": 7716,
 "Ġreach": 7717,
 "Ġsrc": 7718,
 "Ġsending": 7719,
 "Ġserver_side": 7720,
 "Ġsigma": 7721,
 "Ġstates": 7722,
 "Ġsymbol": 7723,
 "Ġtell": 7724,
 "Ġtemporary": 7725,
 "Ġterm": 7726,
 "Ġtopk_weights": 7727,
 "Ġtransp": 7728,
 "Ġtreat": 7729,
 "Ġvalidated": 7730,
 "Ġweek": 7731,
 "Ġweight": 7732,
 "#--------------------------------": 7733,
 "'\\\\": 7734,
 "(',": 7735,
 "-\\": 7736,
 "355": 7737,
 ">')": 7738,
 "CONT": 7739,
 "CT_": 7740,
 "CTS": 7741,
 "Decl": 7742,
 "ENDING": 7743,
 "HASHED_ARTIFACTS": 7744,
 "LAGS": 7745,
 "MT": 7746,
 "RIB": 7747,
 "ROUP": 7748,
 "Sequence": 7749,
 "TRIB": 7750,
 "TERS": 7751,
 "YPE_": 7752,
 "]),": 7753,
 "_AC": 7754,
 "_HASHED_ARTIFACTS": 7755,
 "_instance": 7756,
 "_abs_": 7757,
 "_getframe": 7758,
 "_imports": 7759,
 "_locked": 7760,
 "_pending_removals": 7761,
 "anager_": 7762,
 "broken": 7763,
 "curNode": 7764,
 "dirname": 7765,
 "fold": 7766,
 "found": 7767,
 "ft_": 7768,
 "formatter": 7769,
 "inery": 7770,
 "into": 7771,
 "is_file": 7772,
 "izing": 7773,
 "keyword": 7774,
 "keywords": 7775,
 "logue": 7776,
 "original": 7777,
 "peak": 7778,
 "priority": 7779,
 "randint": 7780,
 "ru_cache": 7781,
 "sa": 7782,
 "separator": 7783,
 "solete": 7784,
 "success": 7785,
 "tab": 7786,
 "taclass": 7787,
 "train": 7788,
 "urePath": 7789,
 "ĊĊĊ": 7790,
 "Ġutf": 7791,
 "Ġ<<": 7792,
 "ĠBINPUT": 7793,
 "ĠCGI": 7794,
 "ĠCONT": 7795,
 "ĠFull": 7796,
 "ĠNow": 7797,
 "ĠPOSIX": 7798,
 "ĠPRO": 7799,
 "ĠPUT": 7800,
 "ĠRaw": 7801,
 "ĠRemove": 7802,
 "Ġ__class_getitem__": 7803,
 "Ġcomb": 7804,
 "Ġcomput": 7805,
 "Ġdebugger": 7806,
 "Ġends": 7807,
 "Ġexpat": 7808,
 "Ġexpires": 7809,
 "Ġfill": 7810,
 "Ġfl": 7811,
 "Ġfaster": 7812,
 "Ġgid": 7813,
 "Ġmerges": 7814,
 "Ġmetrics": 7815,
 "Ġmuch": 7816,
 "Ġnorms": 7817,
 "Ġol": 7818,
 "ĠoldChild": 7819,
 "Ġoptimization": 7820,
 "Ġpermission": 7821,
 "Ġpersistent": 7822,
 "Ġprefixes": 7823,
 "Ġrecv": 7824,
 "Ġreceive": 7825,
 "Ġreplacement": 7826,
 "Ġreported": 7827,
 "Ġresolve": 7828,
 "Ġrollover": 7829,
 "Ġrouter_probs": 7830,
 "Ġsuitable": 7831,
 "Ġwraps": 7832,
 "Ġwritable": 7833,
 "\"])": 7834,
 ")')": 7835,
 "002": 7836,
 "193548387096774": 7837,
 "377": 7838,
 "AF_UNIX": 7839,
 "ALER": 7840,
 "CancelledError": 7841,
 "Check": 7842,
 "CRIPTION": 7843,
 "Comple": 7844,
 "Description": 7845,
 "ESCRIPTION": 7846,
 "IPE": 7847,
 "ICAL": 7848,
 "ISSING": 7849,
 "Iterator": 7850,
 "Loc": 7851,
 "Matcher": 7852,
 "ORE": 7853,
 "PIPE": 7854,
 "PIPE_": 7855,
 "Prefix": 7856,
 "RFC": 7857,
 "Semaphore": 7858,
 "Stop": 7859,
 "Transfer": 7860,
 "Watcher": 7861,
 "_MAX": 7862,
 "_SU": 7863,
 "_START": 7864,
 "_ablations": 7865,
 "_attributes": 7866,
 "_checkpointing": 7867,
 "_dot": 7868,
 "_deprecated": 7869,
 "_first": 7870,
 "_fixture": 7871,
 "_frames": 7872,
 "_locks": 7873,
 "_mu": 7874,
 "_mean": 7875,
 "anyobject": 7876,
 "assemble": 7877,
 "below": 7878,
 "cwrite": 7879,
 "chunks": 7880,
 "clean": 7881,
 "days": 7882,
 "detach": 7883,
 "eof": 7884,
 "elnet": 7885,
 "elements": 7886,
 "erately": 7887,
 "erts": 7888,
 "esting": 7889,
 "including": 7890,
 "irectory": 7891,
 "isect": 7892,
 "lli": 7893,
 "lections_": 7894,
 "lections_abc": 7895,
 "lerance": 7896,
 "moe_layers": 7897,
 "og": 7898,
 "opener": 7899,
 "pread": 7900,
 "reserved": 7901,
 "route": 7902,
 "simple": 7903,
 "spawning": 7904,
 "seu": 7905,
 "sendfile": 7906,
 "sequent": 7907,
 "seudo": 7908,
 "structured": 7909,
 "surrogateescape": 7910,
 "systemId": 7911,
 "title": 7912,
 "topk_weights": 7913,
 "ught": 7914,
 "uniform": 7915,
 "upports": 7916,
 "wer": 7917,
 "}',": 7918,
 "Ġ50": 7919,
 "Ġer": 7920,
 "Ġ':'": 7921,
 "Ġ60": 7922,
 "ĠContext": 7923,
 "ĠControl": 7924,
 "ĠExper": 7925,
 "ĠGB": 7926,
 "ĠHow": 7927,
 "ĠLogRecord": 7928,
 "ĠMARK": 7929,
 "ĠPATH": 7930,
 "ĠPSF": 7931,
 "ĠReg": 7932,
 "ĠRequest": 7933,
 "ĠTHE": 7934,
 "ĠThey": 7935,
 "Ġ_con": 7936,
 "Ġ_heap": 7937,
 "Ġ_shutdown": 7938,
 "Ġ_signature": 7939,
 "Ġ_overlapped": 7940,
 "Ġactivation": 7941,
 "Ġapproved": 7942,
 "Ġbeta": 7943,
 "Ġcircular": 7944,
 "Ġcleanup": 7945,
 "Ġcommuni": 7946,
 "Ġcompared": 7947,
 "Ġcomputed": 7948,
 "Ġdisp": 7949,
 "Ġdelete": 7950,
 "Ġdeleted": 7951,
 "Ġdepending": 7952,
 "Ġdescribed": 7953,
 "Ġencounter": 7954,
 "Ġentropy": 7955,
 "Ġequivalence": 7956,
 "Ġfall": 7957,
 "Ġfit": 7958,
 "Ġful": 7959,
 "Ġfixes": 7960,
 "Ġfoundation": 7961,
 "Ġgenerate": 7962,
 "Ġhome": 7963,
 "Ġindices": 7964,
 "Ġinitialization": 7965,
 "Ġmarked": 7966,
 "Ġmarkers": 7967,
 "Ġmaxlen": 7968,
 "Ġoption_strings": 7969,
 "Ġoverrides": 7970,
 "Ġparticular": 7971,
 "Ġpax_headers": 7972,
 "Ġprinted": 7973,
 "Ġproduce": 7974,
 "Ġrenormal": 7975,
 "Ġrequested": 7976,
 "Ġselection": 7977,
 "Ġseveral": 7978,
 "Ġshards": 7979,
 "Ġsslcontext": 7980,
 "Ġsuppress": 7981,
 "Ġsymlink": 7982,
 "Ġtarget_": 7983,
 "Ġtherefore": 7984,
 "Ġunsupported": 7985,
 "Ġvenv": 7986,
 "Ġwhenever": 7987,
 "Ġwork_item": 7988,
 "0012": 7989,
 "101": 7990,
 "301": 7991,
 "516129032258": 7992,
 "734": 7993,
 "8064516129": 7994,
 ":]:": 7995,
 "=\"%": 7996,
 "Address": 7997,
 "BY": 7998,
 "CODE_": 7999,
 "DATA": 8000,
 "DEBUG": 8001,
 "FN": 8002,
 "FFFF": 8003,
 "HED": 8004,
 "HEADER": 8005,
 "HelpFormatter": 8006,
 "LONG": 8007,
 "MIN": 8008,
 "METH": 8009,
 "PACE": 8010,
 "REPEAT": 8011,
 "ResultBase": 8012,
 "Summary": 8013,
 "TRIBUT": 8014,
 "T_NAME": 8015,
 "WRITE": 8016,
 "[...": 8017,
 "_ONLY": 8018,
 "_attr": 8019,
 "_comp": 8020,
 "_environment": 8021,
 "_extra": 8022,
 "_stat": 8023,
 "_FI": 8024,
 "_PORT": 8025,
 "_Precedence": 8026,
 "_SE": 8027,
 "_SSL": 8028,
 "__mro": 8029,
 "__path__": 8030,
 "__traceback": 8031,
 "__traceback__": 8032,
 "_callmethod": 8033,
 "_decl": 8034,
 "_exact": 8035,
 "_fe": 8036,
 "_ffn": 8037,
 "_magics": 8038,
 "_methods": 8039,
 "_mock_name": 8040,
 "_package": 8041,
 "_proactor": 8042,
 "_proc": 8043,
 "_records": 8044,
 "_reference": 8045,
 "_semlock": 8046,
 "_stderr": 8047,
 "_watcher": 8048,
 "_wor": 8049,
 "add_done_callback": 8050,
 "aging": 8051,
 "attention_mask": 8052,
 "calls": 8053,
 "check__": 8054,
 "conf": 8055,
 "duction": 8056,
 "edir": 8057,
 "f_globals": 8058,
 "gz": 8059,
 "get_content": 8060,
 "irection": 8061,
 "ively": 8062,
 "lt__": 8063,
 "multi": 8064,
 "mutable": 8065,
 "n_routed": 8066,
 "optimizer": 8067,
 "overnance": 8068,
 "perf_counter": 8069,
 "proxies": 8070,
 "query": 8071,
 "quivalence": 8072,
 "runtime": 8073,
 "reset": 8074,
 "requirements": 8075,
 "ricul": 8076,
 "roy": 8077,
 "router_probs": 8078,
 "stamp": 8079,
 "tained": 8080,
 "tore": 8081,
 "unexpected": 8082,
 "wb": 8083,
 "âĢ": 8084,
 "Ġ\"\".": 8085,
 "Ġ\"#": 8086,
 "Ġ\"&": 8087,
 "Ġ({": 8088,
 "ĠCol": 8089,
 "ĠFFN": 8090,
 "ĠGitHub": 8091,
 "ĠLike": 8092,
 "ĠLoc": 8093,
 "ĠNetscape": 8094,
 "ĠOpen": 8095,
 "ĠRMSNorm": 8096,
 "ĠREPO_ROOT": 8097,
 "ĠSpecial": 8098,
 "ĠSequenceMatcher": 8099,
 "ĠSystem": 8100,
 "ĠWait": 8101,
 "ĠWSGI": 8102,
 "Ġ_Un": 8103,
 "Ġ_active": 8104,
 "Ġ_in": 8105,
 "Ġ_warn": 8106,
 "Ġ_rebuild": 8107,
 "Ġacquired": 8108,
 "Ġamong": 8109,
 "Ġbuggy": 8110,
 "Ġcontrols": 8111,
 "Ġdump": 8112,
 "Ġdataset": 8113,
 "Ġexited": 8114,
 "Ġfuncname": 8115,
 "Ġgate_phase": 8116,
 "Ġguaranteed": 8117,
 "Ġhaving": 8118,
 "Ġkw_only": 8119,
 "Ġlayout": 8120,
 "Ġlocalname": 8121,
 "Ġlooking": 8122,
 "Ġmarker": 8123,
 "Ġnc": 8124,
 "Ġplain": 8125,
 "Ġpragma": 8126,
 "Ġpackages": 8127,
 "Ġpassword": 8128,
 "Ġprepare": 8129,
 "Ġproduces": 8130,
 "Ġprofiling": 8131,
 "Ġquot": 8132,
 "Ġrepl": 8133,
 "Ġsafe_repr": 8134,
 "Ġservers": 8135,
 "Ġsigned": 8136,
 "Ġstyle": 8137,
 "Ġstats": 8138,
 "Ġtab": 8139,
 "Ġtt": 8140,
 "Ġuniform": 8141,
 "Ġwsgi": 8142,
 "Ġ{})": 8143,
 "'],": 8144,
 "'}": 8145,
 "','": 8146,
 "(...": 8147,
 ".',": 8148,
 "0014": 8149,
 "004": 8150,
 "010": 8151,
 "224": 8152,
 "302": 8153,
 "797": 8154,
 "806": 8155,
 "ANON": 8156,
 "ASS": 8157,
 "ATES": 8158,
 "Any": 8159,
 "BOS": 8160,
 "BlockingIOError": 8161,
 "Buffered": 8162,
 "CL": 8163,
 "CFG": 8164,
 "DecodeError": 8165,
 "ECT": 8166,
 "EXT_": 8167,
 "HA": 8168,
 "Like": 8169,
 "Match": 8170,
 "MPL": 8171,
 "Overfit": 8172,
 "REQU": 8173,
 "RESER": 8174,
 "RESERVED_CONTROL": 8175,
 "Raw": 8176,
 "Writer": 8177,
 "_gradient": 8178,
 "_if": 8179,
 "_one": 8180,
 "_val": 8181,
 "_bases": 8182,
 "_change_rate": 8183,
 "_coefficient": 8184,
 "_cont_handler": 8185,
 "_counts": 8186,
 "_expert_ids": 8187,
 "_fatal_error": 8188,
 "_final": 8189,
 "_forkserver": 8190,
 "_helper": 8191,
 "_now": 8192,
 "_nodes": 8193,
 "_property": 8194,
 "_router_jitter": 8195,
 "_started": 8196,
 "_sys": 8197,
 "_words": 8198,
 "agicMock": 8199,
 "ailbox": 8200,
 "asks": 8201,
 "aturation": 8202,
 "bos": 8203,
 "cmp": 8204,
 "call_exception_handler": 8205,
 "choices": 8206,
 "charter": 8207,
 "coming": 8208,
 "construction": 8209,
 "df": 8210,
 "decoded": 8211,
 "deterministic": 8212,
 "drs": 8213,
 "extended": 8214,
 "fallback": 8215,
 "free": 8216,
 "ferred": 8217,
 "fields": 8218,
 "gover": 8219,
 "governance": 8220,
 "hand": 8221,
 "ili": 8222,
 "icro": 8223,
 "iguous": 8224,
 "ildir": 8225,
 "inyOverfit": 8226,
 "isdir": 8227,
 "las": 8228,
 "layer_kinds": 8229,
 "linkname": 8230,
 "maintype": 8231,
 "nbytes": 8232,
 "next__": 8233,
 "ology": 8234,
 "pat": 8235,
 "quee": 8236,
 "quires": 8237,
 "redirect": 8238,
 "riculum": 8239,
 "sect": 8240,
 "submodule_search_locations": 8241,
 "unicodestring": 8242,
 "uton": 8243,
 "verbose": 8244,
 "zipFile": 8245,
 "}.{": 8246,
 "Ġ':": 8247,
 "Ġ----------------------------------------------------------------": 8248,
 "Ġ19": 8249,
 "Ġ2965": 8250,
 "ĠAddress": 8251,
 "ĠArgumentDescriptor": 8252,
 "ĠAuthentication": 8253,
 "ĠBut": 8254,
 "ĠBuffered": 8255,
 "ĠCalled": 8256,
 "ĠContribut": 8257,
 "ĠDocument": 8258,
 "ĠEX": 8259,
 "ĠEvent": 8260,
 "ĠElementTree": 8261,
 "ĠFoundation": 8262,
 "ĠIO": 8263,
 "ĠLicen": 8264,
 "ĠLicensed": 8265,
 "ĠMa": 8266,
 "ĠStringIO": 8267,
 "ĠTry": 8268,
 "ĠURLError": 8269,
 "Ġ[],": 8270,
 "Ġ_F": 8271,
 "Ġ_iter": 8272,
 "Ġ_len": 8273,
 "Ġ__a": 8274,
 "Ġ__setstate__": 8275,
 "Ġ`...": 8276,
 "Ġaccepts": 8277,
 "Ġargval": 8278,
 "Ġautospec": 8279,
 "Ġbehaviour": 8280,
 "Ġcodes": 8281,
 "Ġdecision": 8282,
 "Ġdetermin": 8283,
 "Ġdebugging": 8284,
 "Ġffn": 8285,
 "Ġgiving": 8286,
 "Ġgoing": 8287,
 "Ġgood": 8288,
 "Ġhold": 8289,
 "Ġinherited": 8290,
 "Ġinitialized": 8291,
 "Ġkwonly": 8292,
 "Ġlimitations": 8293,
 "Ġmargin": 8294,
 "Ġminidom": 8295,
 "Ġmodification": 8296,
 "Ġpause": 8297,
 "Ġperformance": 8298,
 "Ġresearch": 8299,
 "Ġregard": 8300,
 "Ġrepeat": 8301,
 "Ġrunner": 8302,
 "Ġstripped": 8303,
 "Ġtim": 8304,
 "Ġthings": 8305,
 "Ġtriple": 8306,
 "Ġunix": 8307,
 "Ġupdated": 8308,
 "Ġvariants": 8309,
 "Ġwhole": 8310,
 "('--": 8311,
 "125": 8312,
 "=(),": 8313,
 ">\\": 8314,
 "ALE": 8315,
 "Artifact": 8316,
 "APPED": 8317,
 "ArtifactError": 8318,
 "AttributeNode": 8319,
 "ChildWatcher": 8320,
 "FFIX": 8321,
 "Fatal": 8322,
 "FILES": 8323,
 "ICT": 8324,
 "INIS": 8325,
 "INISHED": 8326,
 "Jar": 8327,
 "LOAD": 8328,
 "MoreData": 8329,
 "NotSupported": 8330,
 "PHASE_": 8331,
 "PROTOCOL": 8332,
 "PoolExecutor": 8333,
 "RLF": 8334,
 "Response": 8335,
 "SERVER": 8336,
 "SOCK_STREAM": 8337,
 "S_D": 8338,
 "Suite": 8339,
 "TO_": 8340,
 "US": 8341,
 "_EX": 8342,
 "_join": 8343,
 "_label": 8344,
 "_uri": 8345,
 "_MAP": 8346,
 "_attrsNS": 8347,
 "_cached": 8348,
 "_coroutine": 8349,
 "_decode": 8350,
 "_groups": 8351,
 "_intern": 8352,
 "_line_length": 8353,
 "_normcase": 8354,
 "_parent_": 8355,
 "_pool": 8356,
 "_pairs_hook": 8357,
 "_read_fut": 8358,
 "_safe": 8359,
 "_sensitive": 8360,
 "alys": 8361,
 "alysis": 8362,
 "amSpec": 8363,
 "appop": 8364,
 "arm": 8365,
 "construct": 8366,
 "context__": 8367,
 "dec": 8368,
 "decimal": 8369,
 "ecause": 8370,
 "elt": 8371,
 "entities": 8372,
 "fmt": 8373,
 "fragment": 8374,
 "feature": 8375,
 "gacy": 8376,
 "gories": 8377,
 "greement": 8378,
 "identity": 8379,
 "kw_only": 8380,
 "leep": 8381,
 "license": 8382,
 "major": 8383,
 "moe_diagnostics": 8384,
 "olved": 8385,
 "ond": 8386,
 "quir": 8387,
 "queeze": 8388,
 "reams": 8389,
 "ret": 8390,
 "run_cfg": 8391,
 "slice": 8392,
 "standard": 8393,
 "terminate": 8394,
 "terminated": 8395,
 "tokenize": 8396,
 "trace_dispatch": 8397,
 "trict": 8398,
 "velo": 8399,
 "xz": 8400,
 "ĊĠĠĠĠĠĠĠĠĠĠĠĠĠĠĠĠĠĠĠĠĠĠĠĠĠĠĠĠĠĠĠĠĠĠĠĠĠĠĠĠĠ": 8401,
 "Ġja": 8402,
 "Ġ\"\")": 8403,
 "Ġ'',": 8404,
 "Ġ'[": 8405,
 "Ġ---": 8406,
 "Ġ=====": 8407,
 "ĠALL": 8408,
 "ĠANY": 8409,
 "ĠApp": 8410,
 "ĠBoth": 8411,
 "ĠCom": 8412,
 "ĠClassVar": 8413,
 "ĠExpat": 8414,
 "ĠIS": 8415,
 "ĠIndependent": 8416,
 "ĠLe": 8417,
 "ĠMatch": 8418,
 "ĠNamespace": 8419,
 "ĠNeedMoreData": 8420,
 "ĠRES": 8421,
 "ĠWhether": 8422,
 "Ġ__contains__": 8423,
 "Ġ__main__": 8424,
 "Ġahi": 8425,
 "Ġanch": 8426,
 "Ġappended": 8427,
 "Ġassumed": 8428,
 "Ġauthority": 8429,
 "Ġbhi": 8430,
 "Ġbig": 8431,
 "Ġbey": 8432,
 "Ġbeginning": 8433,
 "Ġbeyond": 8434,
 "Ġctypes": 8435,
 "Ġcompressed": 8436,
 "Ġcond": 8437,
 "Ġdes": 8438,
 "Ġelapsed": 8439,
 "Ġest": 8440,
 "Ġentities": 8441,
 "Ġexc_value": 8442,
 "Ġflow": 8443,
 "Ġfmt": 8444,
 "Ġfai": 8445,
 "Ġfailobj": 8446,
 "Ġfeatures": 8447,
 "Ġfilenames": 8448,
 "Ġfromlist": 8449,
 "Ġgrp": 8450,
 "Ġglobalns": 8451,
 "Ġhit": 8452,
 "Ġhttp_error": 8453,
 "Ġinf": 8454,
 "Ġinstantiate": 8455,
 "Ġlinear": 8456,
 "Ġlocked": 8457,
 "Ġmaking": 8458,
 "Ġmaps": 8459,
 "Ġouter": 8460,
 "Ġpatterns": 8461,
 "Ġplaces": 8462,
 "Ġpickling": 8463,
 "Ġproperties": 8464,
 "Ġregression": 8465,
 "Ġresp": 8466,
 "Ġseparated": 8467,
 "Ġspeed": 8468,
 "Ġspecialization": 8469,
 "Ġsuccessfully": 8470,
 "Ġtiny": 8471,
 "Ġterminate": 8472,
 "Ġterminated": 8473,
 "Ġtracked": 8474,
 "Ġunmodified": 8475,
 "Ġvocab_size": 8476,
 "################################################################################": 8477,
 "(\":": 8478,
 "034": 8479,
 "009": 8480,
 "037": 8481,
 "241": 8482,
 "304": 8483,
 "887": 8484,
 "=======+=======+": 8485,
 ">.": 8486,
 "Ass": 8487,
 "Attention": 8488,
 "ALERT_D": 8489,
 "ALERT_DESCRIPTION": 8490,
 "ANDLE": 8491,
 "ArgumentParser": 8492,
 "Basic": 8493,
 "CGI": 8494,
 "CRIPT_NAME": 8495,
 "FIC": 8496,
 "FIELD": 8497,
 "ILD": 8498,
 "INIT": 8499,
 "LIN": 8500,
 "OBJ": 8501,
 "OCAB": 8502,
 "OSError": 8503,
 "Output": 8504,
 "ProcessError": 8505,
 "Skip": 8506,
 "Too": 8507,
 "Types": 8508,
 "Tests": 8509,
 "Variant": 8510,
 "WARN": 8511,
 "_AND": 8512,
 "_fileno": 8513,
 "_mailbox": 8514,
 "_var": 8515,
 "_TH": 8516,
 "_TOKEN": 8517,
 "__mro__": 8518,
 "_authkey": 8519,
 "_bin": 8520,
 "_bound": 8521,
 "_cal": 8522,
 "_check_closed": 8523,
 "_complete": 8524,
 "_dump": 8525,
 "_entity": 8526,
 "_inter": 8527,
 "_location": 8528,
 "_mark": 8529,
 "_newlines": 8530,
 "_normalized": 8531,
 "_off": 8532,
 "_reinit": 8533,
 "_result_": 8534,
 "_slo": 8535,
 "_summary": 8536,
 "_seen": 8537,
 "_tunnel": 8538,
 "_vram": 8539,
 "addrinfo": 8540,
 "annotations__": 8541,
 "antic": 8542,
 "arb": 8543,
 "archive": 8544,
 "breaks": 8545,
 "bugs": 8546,
 "cy": 8547,
 "cally": 8548,
 "canonical": 8549,
 "ceeds": 8550,
 "character": 8551,
 "cies": 8552,
 "commit": 8553,
 "compare": 8554,
 "compute": 8555,
 "current_process": 8556,
 "decess": 8557,
 "ducible": 8558,
 "ernel": 8559,
 "executor": 8560,
 "expr": 8561,
 "ffers": 8562,
 "filedate": 8563,
 "full_url": 8564,
 "hlo": 8565,
 "hashing": 8566,
 "inels": 8567,
 "lang": 8568,
 "lication": 8569,
 "maps": 8570,
 "ng_state": 8571,
 "ocp": 8572,
 "otonic": 8573,
 "parsed": 8574,
 "pickler": 8575,
 "poses": 8576,
 "prepare": 8577,
 "preter": 8578,
 "previousSibling": 8579,
 "prime": 8580,
 "publicId": 8581,
 "reshape": 8582,
 "seen": 8583,
 "spec_set": 8584,
 "stantive": 8585,
 "uine": 8586,
 "unsupported": 8587,
 "vant": 8588,
 "visit": 8589,
 "valid_mask": 8590,
 "weights": 8591,
 "xim": 8592,
 "}'.": 8593,
 "Ġ'<%": 8594,
 "Ġ=================": 8595,
 "ĠAgreement": 8596,
 "ĠAND": 8597,
 "ĠAsync": 8598,
 "ĠBreakpoint": 8599,
 "ĠEmpty": 8600,
 "ĠGET": 8601,
 "ĠInst": 8602,
 "ĠNOTE": 8603,
 "ĠPyTorch": 8604,
 "ĠSY": 8605,
 "ĠSign": 8606,
 "ĠSocket": 8607,
 "ĠTLS": 8608,
 "ĠTimeoutError": 8609,
 "ĠTokenizerArtifactError": 8610,
 "Ġ_col": 8611,
 "Ġ_hash": 8612,
 "Ġ_order": 8613,
 "Ġ_os": 8614,
 "Ġ__setitem__": 8615,
 "Ġ_deepcopy": 8616,
 "Ġannotated": 8617,
 "Ġbare": 8618,
 "Ġblo": 8619,
 "Ġbecomes": 8620,
 "Ġcum": 8621,
 "Ġchoices": 8622,
 "Ġcompresslevel": 8623,
 "Ġconfir": 8624,
 "Ġconvent": 8625,
 "Ġcontinuation": 8626,
 "Ġden": 8627,
 "Ġdisabled": 8628,
 "Ġdropless": 8629,
 "Ġftp": 8630,
 "Ġfinalizer": 8631,
 "Ġforce": 8632,
 "Ġfunctional": 8633,
 "Ġgarb": 8634,
 "Ġgetter": 8635,
 "Ġgreater": 8636,
 "Ġhig": 8637,
 "Ġign": 8638,
 "Ġimportant": 8639,
 "Ġincrement": 8640,
 "Ġlikely": 8641,
 "Ġlisted": 8642,
 "Ġmatched": 8643,
 "Ġmeasure": 8644,
 "Ġmime_version": 8645,
 "Ġonto": 8646,
 "Ġpoll": 8647,
 "Ġpushed": 8648,
 "Ġperformed": 8649,
 "Ġpositionals": 8650,
 "Ġprece": 8651,
 "Ġprobability": 8652,
 "Ġrank": 8653,
 "Ġregardless": 8654,
 "Ġrespect": 8655,
 "Ġservice": 8656,
 "Ġsubstit": 8657,
 "Ġtp": 8658,
 "Ġtesting": 8659,
 "Ġtyped": 8660,
 "Ġunlink": 8661,
 "Ġunsafe": 8662,
 "Ġwake": 8663,
 "Ġwrites": 8664,
 "0967741935": 8665,
 "127": 8666,
 "205": 8667,
 "252": 8668,
 "2965": 8669,
 "329": 8670,
 "794": 8671,
 "869": 8672,
 "AUTH": 8673,
 "ATOR": 8674,
 "BOSE": 8675,
 "CK": 8676,
 "Constant": 8677,
 "Depre": 8678,
 "DOWN": 8679,
 "FFIXES": 8680,
 "GLU": 8681,
 "IVE_": 8682,
 "If": 8683,
 "IGITS": 8684,
 "Implementation": 8685,
 "Interpolation": 8686,
 "Initialize": 8687,
 "LOG": 8688,
 "Memory": 8689,
 "Option": 8690,
 "Print": 8691,
 "StringIO": 8692,
 "TIMEOUT": 8693,
 "UMP": 8694,
 "VE": 8695,
 "_J": 8696,
 "_enc": 8697,
 "_th": 8698,
 "_usage": 8699,
 "_CL": 8700,
 "_CON": 8701,
 "_CHAR": 8702,
 "_PRE": 8703,
 "_TO_": 8704,
 "_TY": 8705,
 "_across": 8706,
 "_clear": 8707,
 "_condition": 8708,
 "_doc": 8709,
 "_drop": 8710,
 "_exceptions": 8711,
 "_global": 8712,
 "_id_cache": 8713,
 "_internal": 8714,
 "_manager_": 8715,
 "_orig": 8716,
 "_simple": 8717,
 "_scheduled": 8718,
 "_to_bytes": 8719,
 "audit": 8720,
 "abspath": 8721,
 "alidationError": 8722,
 "anging": 8723,
 "arator": 8724,
 "arena": 8725,
 "available": 8726,
 "ba": 8727,
 "bination": 8728,
 "cwd": 8729,
 "cause__": 8730,
 "ceive": 8731,
 "checked": 8732,
 "cod": 8733,
 "condition": 8734,
 "coroutinefunction": 8735,
 "counts": 8736,
 "curity": 8737,
 "dle": 8738,
 "delete": 8739,
 "ells": 8740,
 "entity": 8741,
 "eric": 8742,
 "ertain": 8743,
 "ertificate": 8744,
 "expert_id": 8745,
 "figs": 8746,
 "gated": 8747,
 "gle": 8748,
 "globals": 8749,
 "hashable": 8750,
 "ips": 8751,
 "istribution": 8752,
 "izes": 8753,
 "lashes": 8754,
 "licitly": 8755,
 "n_query_heads": 8756,
 "oS": 8757,
 "opcode": 8758,
 "parse_args": 8759,
 "rpartition": 8760,
 "retry": 8761,
 "s_and": 8762,
 "schema": 8763,
 "segment": 8764,
 "ste": 8765,
 "structure": 8766,
 "suffix": 8767,
 "subclass": 8768,
 "tation": 8769,
 "tiny": 8770,
 "tinue": 8771,
 "translate": 8772,
 "ulated": 8773,
 "ulative": 8774,
 "umns": 8775,
 "utable": 8776,
 "verifi": 8777,
 "wice": 8778,
 "wiGLU": 8779,
 "ĊĠĠĠĠĠĠĠĠĠĠĠĠĠĠĠĠĠĠĠĠĠĠĠĠĠĠĠĠĠĠĠĠĠĠĠĠĠĠĠĠĠĠĠĠ": 8780,
 "Ġhex": 8781,
 "ĠĠĠĠĠĠĠĠĠĠĠĠĠĠĠĠĠ": 8782,
 "Ġ'+": 8783,
 "Ġ1024": 8784,
 "Ġ150": 8785,
 "Ġ2060": 8786,
 "ĠArguments": 8787,
 "ĠCharset": 8788,
 "ĠComple": 8789,
 "ĠContributor": 8790,
 "ĠFROZEN": 8791,
 "ĠHE": 8792,
 "ĠHowever": 8793,
 "ĠImplement": 8794,
 "ĠInput": 8795,
 "ĠLI": 8796,
 "ĠMatches": 8797,
 "ĠMod": 8798,
 "ĠRouting": 8799,
 "ĠTH": 8800,
 "ĠUnpickling": 8801,
 "Ġ[('": 8802,
 "Ġ_FIELD": 8803,
 "Ġ_exit": 8804,
 "Ġ_has": 8805,
 "Ġ_sentinel": 8806,
 "Ġ_sha": 8807,
 "Ġ_wait": 8808,
 "Ġ_warnings": 8809,
 "Ġ_MAX": 8810,
 "Ġabort": 8811,
 "Ġaddr_spec": 8812,
 "Ġalternative": 8813,
 "Ġarg_string": 8814,
 "Ġbind": 8815,
 "Ġbuiltins": 8816,
 "Ġchecker": 8817,
 "Ġcoefficient": 8818,
 "Ġcodec": 8819,
 "Ġcomma": 8820,
 "Ġcomponents": 8821,
 "Ġcontribution": 8822,
 "Ġconditions": 8823,
 "Ġdeliberately": 8824,
 "Ġdisc": 8825,
 "Ġdistributions": 8826,
 "Ġduplicates": 8827,
 "Ġever": 8828,
 "Ġerrread": 8829,
 "Ġexponent": 8830,
 "Ġfew": 8831,
 "Ġfour": 8832,
 "Ġfra": 8833,
 "Ġfnmatch": 8834,
 "Ġfully": 8835,
 "Ġfuncopy": 8836,
 "Ġgarbage": 8837,
 "Ġgenuine": 8838,
 "Ġhonest": 8839,
 "Ġindependently": 8840,
 "Ġindicating": 8841,
 "Ġlex": 8842,
 "Ġlocks": 8843,
 "Ġlooks": 8844,
 "Ġmerge": 8845,
 "Ġmajor": 8846,
 "Ġmeant": 8847,
 "Ġmethod_a": 8848,
 "Ġminim": 8849,
 "Ġmodes": 8850,
 "Ġmultipart": 8851,
 "Ġnew_exc": 8852,
 "Ġnotify": 8853,
 "Ġoverhead": 8854,
 "Ġreached": 8855,
 "Ġreviewed": 8856,
 "Ġsur": 8857,
 "Ġsecure": 8858,
 "Ġsha": 8859,
 "Ġshow_caches": 8860,
 "Ġsubpart": 8861,
 "Ġsymlinks": 8862,
 "Ġtempfile": 8863,
 "Ġtransports": 8864,
 "Ġunwrap": 8865,
 "Ġusually": 8866,
 "Ġusername": 8867,
 "Ġutils": 8868,
 "Ġvariant": 8869,
 "Ġzlib": 8870,
 "(''.": 8871,
 "-------+-------+": 8872,
 "0021": 8873,
 "006": 8874,
 "015": 8875,
 "017": 8876,
 "4838709677419": 8877,
 "={!": 8878,
 "??": 8879,
 "ARAME": 8880,
 "ATTRIBUT": 8881,
 "CHAR": 8882,
 "Connect": 8883,
 "EDiagnostics": 8884,
 "ERTI": 8885,
 "Final": 8886,
 "He": 8887,
 "IOWrapper": 8888,
 "LIC": 8889,
 "MDF": 8890,
 "OK": 8891,
 "Overlapped": 8892,
 "Pattern": 8893,
 "Popen": 8894,
 "Pickler": 8895,
 "Profile": 8896,
 "Rout": 8897,
 "RES": 8898,
 "TES": 8899,
 "TX": 8900,
 "Tar": 8901,
 "UNI": 8902,
 "Unable": 8903,
 "Unknown": 8904,
 "ValidationError": 8905,
 "](../": 8906,
 "_R": 8907,
 "_append": 8908,
 "_COMP": 8909,
 "_CRE": 8910,
 "__context__": 8911,
 "__unittest": 8912,
 "_boundary": 8913,
 "_called": 8914,
 "_cdata": 8915,
 "_constant": 8916,
 "_fork_reinit": 8917,
 "_formatMessage": 8918,
 "_impl": 8919,
 "_limits": 8920,
 "_local_part": 8921,
 "_none": 8922,
 "_print": 8923,
 "_req": 8924,
 "_section": 8925,
 "_short": 8926,
 "_ssl_protocol": 8927,
 "_tstate_lock": 8928,
 "_waitpid": 8929,
 "_write_fut": 8930,
 "ausal": 8931,
 "abcd": 8932,
 "agent": 8933,
 "alt": 8934,
 "angle_from_": 8935,
 "arded": 8936,
 "assignment_count": 8937,
 "atalog": 8938,
 "ategories": 8939,
 "before": 8940,
 "cp": 8941,
 "callers": 8942,
 "connected": 8943,
 "ctet": 8944,
 "current_thread": 8945,
 "eep": 8946,
 "eration": 8947,
 "event_loop_policy": 8948,
 "existing": 8949,
 "fram": 8950,
 "gr": 8951,
 "geth": 8952,
 "gethost": 8953,
 "gorithms": 8954,
 "hn": 8955,
 "http_error": 8956,
 "ims": 8957,
 "infile": 8958,
 "ird": 8959,
 "ited": 8960,
 "legal": 8961,
 "losure": 8962,
 "nume": 8963,
 "namespaces": 8964,
 "ntl": 8965,
 "numel": 8966,
 "opri": 8967,
 "option_string": 8968,
 "optional": 8969,
 "out_a": 8970,
 "pkg": 8971,
 "plain": 8972,
 "position_encoding": 8973,
 "pression": 8974,
 "ratio": 8975,
 "rderedDict": 8976,
 "replacement": 8977,
 "scill": 8978,
 "set_precedence": 8979,
 "some": 8980,
 "sockopt": 8981,
 "unch": 8982,
 "unt_": 8983,
 "via": 8984,
 "water": 8985,
 "week": 8986,
 "written": 8987,
 "xtasks": 8988,
 "ynamic": 8989,
 "Ġoth": 8990,
 "Ġrigh": 8991,
 "Ġ\".\"": 8992,
 "Ġ'#": 8993,
 "Ġ18": 8994,
 "Ġ24": 8995,
 "Ġ33": 8996,
 "ĠACTION": 8997,
 "ĠCall": 8998,
 "ĠFILTER": 8999,
 "ĠIter": 9000,
 "ĠInterpolation": 9001,
 "ĠPipe": 9002,
 "ĠQK": 9003,
 "ĠRTX": 9004,
 "ĠSUPPRESS": 9005,
 "ĠSSLContext": 9006,
 "ĠTO": 9007,
 "ĠTrans": 9008,
 "ĠUnicodeEn": 9009,
 "ĠUnicodeEncodeError": 9010,
 "ĠUnpicklingError": 9011,
 "ĠWhat": 9012,
 "Ġ_clear": 9013,
 "Ġ_inst": 9014,
 "Ġ_log": 9015,
 "Ġ_n": 9016,
 "Ġ_ssl": 9017,
 "Ġ_bootstrap_external": 9018,
 "Ġ_unpack": 9019,
 "Ġalphabet": 9020,
 "Ġattention_mask": 9021,
 "Ġcase_sensitive": 9022,
 "Ġcome": 9023,
 "Ġcompiled": 9024,
 "Ġcompute_hashes": 9025,
 "Ġconcaten": 9026,
 "Ġconsist": 9027,
 "Ġdiagnostic": 9028,
 "Ġdue": 9029,
 "Ġdefinition": 9030,
 "Ġdelimiters": 9031,
 "Ġdifferences": 9032,
 "Ġevalu": 9033,
 "Ġexc_details": 9034,
 "Ġgovernance": 9035,
 "Ġincorrect": 9036,
 "Ġinitargs": 9037,
 "Ġinterval": 9038,
 "Ġkv": 9039,
 "Ġkey_valid": 9040,
 "Ġkeywords": 9041,
 "Ġlive": 9042,
 "Ġmis": 9043,
 "Ġmaintype": 9044,
 "Ġmodule_name": 9045,
 "Ġnetwork": 9046,
 "Ġnormally": 9047,
 "Ġopened": 9048,
 "Ġothers": 9049,
 "Ġoutcome": 9050,
 "Ġpdb": 9051,
 "Ġpopulation": 9052,
 "Ġregener": 9053,
 "Ġrequirements": 9054,
 "Ġrespon": 9055,
 "Ġreturn_trace": 9056,
 "Ġscale": 9057,
 "Ġsmoke": 9058,
 "Ġspecifying": 9059,
 "Ġstartup": 9060,
 "Ġstops": 9061,
 "Ġtm": 9062,
 "Ġtrained": 9063,
 "Ġunused": 9064,
 "Ġvarargs": 9065,
 "\"%": 9066,
 "\",\"": 9067,
 "'ve": 9068,
 "(':')": 9069,
 "()).": 9070,
 ")).": 9071,
 "*,": 9072,
 "19354838709677": 9073,
 "317": 9074,
 "328": 9075,
 "617": 9076,
 "874": 9077,
 "=\"\",": 9078,
 "=='": 9079,
 ">',": 9080,
 "Ap": 9081,
 "BUFF": 9082,
 "BUFFER": 9083,
 "Can": 9084,
 "DeclHandler": 9085,
 "EW": 9086,
 "Empty": 9087,
 "ERTIFIC": 9088,
 "EVENT_READ": 9089,
 "Find": 9090,
 "Frozen": 9091,
 "Feature": 9092,
 "FileLoader": 9093,
 "INGET": 9094,
 "Internal": 9095,
 "NING": 9096,
 "NUT": 9097,
 "TCP": 9098,
 "Vi": 9099,
 "VERBOSE": 9100,
 "_END": 9101,
 "_NODE": 9102,
 "_iterator": 9103,
 "_labels": 9104,
 "_serial": 9105,
 "_serving": 9106,
 "_PREFIX": 9107,
 "_THRESHOLD": 9108,
 "__annotations__": 9109,
 "__cause__": 9110,
 "_buf": 9111,
 "_builtin": 9112,
 "_elements": 9113,
 "_gold": 9114,
 "_handlers": 9115,
 "_lookup": 9116,
 "_manager_thread": 9117,
 "_member_map_": 9118,
 "_rejected": 9119,
 "_requested": 9120,
 "_results": 9121,
 "aby": 9122,
 "add__": 9123,
 "amble": 9124,
 "apes": 9125,
 "atype": 9126,
 "ball": 9127,
 "bind": 9128,
 "bz": 9129,
 "bosity": 9130,
 "calendar": 9131,
 "cked": 9132,
 "completeRead": 9133,
 "corded": 9134,
 "descriptor": 9135,
 "encies": 9136,
 "encoder": 9137,
 "esmtp": 9138,
 "escapes": 9139,
 "expires": 9140,
 "f_lineno": 9141,
 "filtered": 9142,
 "finity": 9143,
 "going": 9144,
 "ifferent": 9145,
 "ilities": 9146,
 "iliary": 9147,
 "initialization": 9148,
 "ividual": 9149,
 "lake": 9150,
 "localName": 9151,
 "matching": 9152,
 "meta": 9153,
 "mount": 9154,
 "n_experts": 9155,
 "opts": 9156,
 "psis": 9157,
 "randbits": 9158,
 "rive": 9159,
 "scillation": 9160,
 "setblocking": 9161,
 "setup": 9162,
 "sonnet": 9163,
 "star": 9164,
 "tegrity": 9165,
 "uming": 9166,
 "unctions": 9167,
 "unquote": 9168,
 "urpose": 9169,
 "urllib": 9170,
 "uxiliary": 9171,
 "verified": 9172,
 "versal_newlines": 9173,
 "wr": 9174,
 "wraps": 9175,
 "yet": 9176,
 "yield": 9177,
 "yncManager": 9178,
 "{!": 9179,
 "}{": 9180,
 "Ġ))": 9181,
 "Ġ'-'": 9182,
 "Ġ(((": 9183,
 "Ġ23": 9184,
 "ĠAST": 9185,
 "ĠAfter": 9186,
 "ĠAF_INET": 9187,
 "ĠBdb": 9188,
 "ĠCurrent": 9189,
 "ĠConfig": 9190,
 "ĠDistribution": 9191,
 "ĠMaildir": 9192,
 "ĠNormalDist": 9193,
 "ĠRejected": 9194,
 "ĠSOCK": 9195,
 "ĠSwiGLU": 9196,
 "ĠSTOP": 9197,
 "ĠShared": 9198,
 "ĠTinyOverfit": 9199,
 "ĠWH": 9200,
 "Ġ_GenericAlias": 9201,
 "Ġ_append": 9202,
 "Ġ_fix": 9203,
 "Ġ_time": 9204,
 "Ġ__doc__": 9205,
 "Ġ_sync": 9206,
 "Ġ`(": 9207,
 "Ġadaptive": 9208,
 "Ġapplications": 9209,
 "Ġarcname": 9210,
 "Ġbacklog": 9211,
 "Ġbuil": 9212,
 "Ġcc": 9213,
 "Ġcancellation": 9214,
 "Ġchunk_left": 9215,
 "Ġcollected": 9216,
 "Ġdeli": 9217,
 "Ġdeterminism": 9218,
 "Ġdev": 9219,
 "Ġdetected": 9220,
 "Ġdetermined": 9221,
 "Ġdicts": 9222,
 "Ġepi": 9223,
 "Ġearlier": 9224,
 "Ġhandshake": 9225,
 "Ġhook": 9226,
 "Ġheapq": 9227,
 "Ġide": 9228,
 "Ġip": 9229,
 "Ġignor": 9230,
 "Ġimmutable": 9231,
 "Ġinfos": 9232,
 "Ġinterpreted": 9233,
 "Ġinvoked": 9234,
 "Ġkept": 9235,
 "Ġlocalns": 9236,
 "Ġmapp": 9237,
 "Ġmove": 9238,
 "Ġmsv": 9239,
 "Ġmachinery": 9240,
 "Ġmsvc": 9241,
 "Ġmsvcrt": 9242,
 "Ġones": 9243,
 "Ġpad": 9244,
 "Ġpseudo": 9245,
 "Ġpartially": 9246,
 "Ġpeak": 9247,
 "Ġread_string": 9248,
 "Ġrelated": 9249,
 "Ġreleased": 9250,
 "Ġresidual": 9251,
 "Ġseek": 9252,
 "Ġsendfile": 9253,
 "Ġstand": 9254,
 "Ġsubsequent": 9255,
 "Ġtensor": 9256,
 "Ġtid": 9257,
 "Ġtimezone": 9258,
 "Ġtools": 9259,
 "Ġunpickling": 9260,
 "Ġvs": 9261,
 "Ġwalk": 9262,
 "Ġweekday": 9263,
 "Ġyiel": 9264,
 "\"\"\",": 9265,
 "(('": 9266,
 "()')": 9267,
 "()}": 9268,
 "------------------------------------------": 9269,
 "030": 9270,
 "0002": 9271,
 "0006": 9272,
 "003": 9273,
 "007": 9274,
 "316": 9275,
 "796": 9276,
 "AF_INET": 9277,
 "ALLOW": 9278,
 "ARAMETERS": 9279,
 "Code": 9280,
 "CloseHandle": 9281,
 "Count": 9282,
 "Date": 9283,
 "Diff": 9284,
 "FORM": 9285,
 "IND": 9286,
 "LOCALE": 9287,
 "LOCKSIZE": 9288,
 "Mix": 9289,
 "Optional": 9290,
 "OTE_": 9291,
 "OUR": 9292,
 "POSIX": 9293,
 "Pri": 9294,
 "QueryAttention": 9295,
 "RLock": 9296,
 "SC": 9297,
 "Union": 9298,
 "VOCAB": 9299,
 "WARE": 9300,
 "WARNING": 9301,
 "_ERROR": 9302,
 "_QU": 9303,
 "_ensure": 9304,
 "_variants": 9305,
 "____": 9306,
 "_amp": 9307,
 "_ablation": 9308,
 "_artifact_hashes": 9309,
 "_blank": 9310,
 "_broken": 9311,
 "_chunked": 9312,
 "_coactivation": 9313,
 "_cookie": 9314,
 "_date": 9315,
 "_dead": 9316,
 "_name_": 9317,
 "_random": 9318,
 "_rfc": 9319,
 "_scheme": 9320,
 "_sequence": 9321,
 "_sock_fd": 9322,
 "_star": 9323,
 "_threads": 9324,
 "_water": 9325,
 "_wrap": 9326,
 "_weight_": 9327,
 "_work_items": 9328,
 "aN": 9329,
 "abcdef": 9330,
 "abyl": 9331,
 "actions": 9332,
 "add_flag": 9333,
 "ainMap": 9334,
 "alformed": 9335,
 "alone": 9336,
 "ane": 9337,
 "attributes": 9338,
 "bf": 9339,
 "boundary": 9340,
 "cm": 9341,
 "cooked": 9342,
 "comments": 9343,
 "cookedq": 9344,
 "create_task": 9345,
 "ctest": 9346,
 "ctime": 9347,
 "culate": 9348,
 "current_frame": 9349,
 "deque": 9350,
 "decessors": 9351,
 "edQueryAttention": 9352,
 "end_lineno": 9353,
 "entrant": 9354,
 "erved": 9355,
 "executed": 9356,
 "failure": 9357,
 "gates": 9358,
 "get_context": 9359,
 "get_running_loop": 9360,
 "holder": 9361,
 "ift_": 9362,
 "lru_cache": 9363,
 "lates": 9364,
 "matches": 9365,
 "more": 9366,
 "mbolic": 9367,
 "official": 9368,
 "positional": 9369,
 "proc": 9370,
 "qk_norm": 9371,
 "relative": 9372,
 "safe_load": 9373,
 "shm": 9374,
 "short": 9375,
 "strings": 9376,
 "ulldom": 9377,
 "untra": 9378,
 "vide": 9379,
 "whitespace": 9380,
 "}\\": 9381,
 "ĊĊĊĠĠĠĠĠĠĠ": 9382,
 "Ġ\"--": 9383,
 "Ġ\"\\\\": 9384,
 "Ġ\"{}": 9385,
 "Ġ'(": 9386,
 "Ġ2001": 9387,
 "Ġ>>": 9388,
 "ĠAP": 9389,
 "ĠCallable": 9390,
 "ĠClose": 9391,
 "ĠChild": 9392,
 "ĠConver": 9393,
 "ĠDomain": 9394,
 "ĠEVENT_": 9395,
 "ĠFrame": 9396,
 "ĠGenerator": 9397,
 "ĠInt": 9398,
 "ĠInitialize": 9399,
 "ĠKeep": 9400,
 "ĠRun": 9401,
 "ĠReadError": 9402,
 "ĠSoftware": 9403,
 "ĠStreamReader": 9404,
 "ĠTarFile": 9405,
 "ĠTextContext": 9406,
 "ĠValidation": 9407,
 "ĠWarning": 9408,
 "Ġ_UN": 9409,
 "Ġ_ctx": 9410,
 "Ġ_sock": 9411,
 "Ġ_spec": 9412,
 "Ġ_Precedence": 9413,
 "Ġ__path__": 9414,
 "Ġ__r": 9415,
 "Ġ_coerce": 9416,
 "Ġ_new_parent": 9417,
 "Ġ_order_": 9418,
 "Ġalo": 9419,
 "Ġaway": 9420,
 "Ġabc": 9421,
 "Ġadvert": 9422,
 "Ġadd_flags": 9423,
 "Ġangle": 9424,
 "Ġapproxim": 9425,
 "Ġbisect": 9426,
 "Ġbracket": 9427,
 "Ġbreaks": 9428,
 "Ġcompatible": 9429,
 "Ġcontextlib": 9430,
 "Ġcopied": 9431,
 "Ġdrv": 9432,
 "Ġdefines": 9433,
 "Ġdiag_b": 9434,
 "Ġdisk": 9435,
 "Ġdisposition": 9436,
 "Ġep": 9437,
 "Ġeps": 9438,
 "Ġenable": 9439,
 "Ġencountered": 9440,
 "Ġexecuting": 9441,
 "Ġexpr": 9442,
 "Ġextensions": 9443,
 "Ġextra_args": 9444,
 "Ġfdst": 9445,
 "Ġfilesystem": 9446,
 "Ġfolder": 9447,
 "Ġgather": 9448,
 "Ġguess": 9449,
 "Ġhack": 9450,
 "Ġhours": 9451,
 "Ġhowever": 9452,
 "Ġidentify": 9453,
 "Ġinstantiating": 9454,
 "Ġliter": 9455,
 "Ġlimited": 9456,
 "Ġlosses": 9457,
 "Ġna": 9458,
 "Ġoptionally": 9459,
 "Ġordered": 9460,
 "Ġparsers": 9461,
 "Ġprompt": 9462,
 "Ġred": 9463,
 "Ġroutine": 9464,
 "Ġstrong": 9465,
 "Ġsummary": 9466,
 "Ġtabs": 9467,
 "Ġte": 9468,
 "Ġtitle": 9469,
 "Ġtrying": 9470,
 "Ġunit": 9471,
 "Ġunregister": 9472,
 "'m": 9473,
 "((\"": 9474,
 ")\"\"\"": 9475,
 ")}\")": 9476,
 "-------------------------------------------": 9477,
 "032258064516129": 9478,
 "192": 9479,
 "2109": 9480,
 "614": 9481,
 "616": 9482,
 "6774193548387": 9483,
 "864": 9484,
 "807": 9485,
 "90": 9486,
 ":],": 9487,
 ";')": 9488,
 "============": 9489,
 "AL_P": 9490,
 "ASE_": 9491,
 "ATTR": 9492,
 "CASE": 9493,
 "CUDA": 9494,
 "Calendar": 9495,
 "Convert": 9496,
 "EventLoopPolicy": 9497,
 "Exp": 9498,
 "Failed": 9499,
 "Flag": 9500,
 "Guard": 9501,
 "Hello": 9502,
 "JuniperAutoModel": 9503,
 "KEEP": 9504,
 "LOCAL": 9505,
 "METHOD": 9506,
 "OFT": 9507,
 "OFTWARE": 9508,
 "PEND": 9509,
 "Pass": 9510,
 "Per": 9511,
 "Py": 9512,
 "PROTO_": 9513,
 "ROM_": 9514,
 "START": 9515,
 "Success": 9516,
 "TestResult": 9517,
 "UNKNOWN": 9518,
 "UTDOWN": 9519,
 "VALU": 9520,
 "View": 9521,
 "_command": 9522,
 "_raise": 9523,
 "_FROM_": 9524,
 "_FIELD": 9525,
 "_TOKENS": 9526,
 "_bits": 9527,
 "_contribution": 9528,
 "_connected": 9529,
 "_device": 9530,
 "_elem": 9531,
 "_flush": 9532,
 "_group_depth": 9533,
 "_level_dir": 9534,
 "_missing": 9535,
 "_mock_new": 9536,
 "_option_string": 9537,
 "_pr": 9538,
 "_print_": 9539,
 "_qname": 9540,
 "_scal": 9541,
 "_spawn": 9542,
 "_sum": 9543,
 "_slot": 9544,
 "_trace_tokens": 9545,
 "_valid_token": 9546,
 "ags": 9547,
 "acters": 9548,
 "ager_task": 9549,
 "asyncio": 9550,
 "attribute__": 9551,
 "bot": 9552,
 "byn": 9553,
 "builder": 9554,
 "bynumber": 9555,
 "cached": 9556,
 "cref": 9557,
 "collapse": 9558,
 "dates": 9559,
 "display_name": 9560,
 "distribution": 9561,
 "elf": 9562,
 "emote": 9563,
 "enabled": 9564,
 "ensive": 9565,
 "ermiss": 9566,
 "filters": 9567,
 "gence": 9568,
 "hind": 9569,
 "hest": 9570,
 "inference": 9571,
 "isible": 9572,
 "lr": 9573,
 "leaseLock": 9574,
 "liant": 9575,
 "lished": 9576,
 "llipsis": 9577,
 "must": 9578,
 "minor": 9579,
 "monstr": 9580,
 "nor": 9581,
 "nt_": 9582,
 "netloc": 9583,
 "oscillation": 9584,
 "olded": 9585,
 "overfit": 9586,
 "ownerElement": 9587,
 "pairs": 9588,
 "quotes": 9589,
 "rammar": 9590,
 "report": 9591,
 "rev": 9592,
 "rena": 9593,
 "ritical": 9594,
 "sage": 9595,
 "sp": 9596,
 "scribe": 9597,
 "secure": 9598,
 "settrace": 9599,
 "suite": 9600,
 "table": 9601,
 "tb_frame": 9602,
 "unregister": 9603,
 "uppress": 9604,
 "usted": 9605,
 "version__": 9606,
 "ĠâĢ": 9607,
 "Ġ\"'": 9608,
 "Ġ\"<%": 9609,
 "Ġ'\"':": 9610,
 "Ġ40": 9611,
 "Ġ===": 9612,
 "ĠAT_": 9613,
 "ĠAccept": 9614,
 "ĠAnnotated": 9615,
 "ĠAuthor": 9616,
 "ĠExt": 9617,
 "ĠEntry": 9618,
 "ĠFirst": 9619,
 "ĠFrom": 9620,
 "ĠGroupedQueryAttention": 9621,
 "ĠHandler": 9622,
 "ĠInter": 9623,
 "ĠJuniperAutoModel": 9624,
 "ĠMISSING": 9625,
 "ĠParser": 9626,
 "ĠShould": 9627,
 "ĠSignature": 9628,
 "ĠSystemExit": 9629,
 "ĠWAR": 9630,
 "ĠWARRAN": 9631,
 "Ġ_G": 9632,
 "Ġ_State": 9633,
 "Ġ_empty": 9634,
 "Ġ_g": 9635,
 "Ġ_validate": 9636,
 "Ġ_w": 9637,
 "Ġ_POSITIONAL_": 9638,
 "Ġ_reduce": 9639,
 "Ġamount": 9640,
 "Ġautocast": 9641,
 "Ġcb": 9642,
 "Ġcertain": 9643,
 "Ġconnection_lost": 9644,
 "Ġconsistent": 9645,
 "Ġcontext_": 9646,
 "Ġcopyright": 9647,
 "Ġdeop": 9648,
 "Ġdetector": 9649,
 "Ġdisplay_name": 9650,
 "Ġexport": 9651,
 "Ġexitcode": 9652,
 "Ġexpans": 9653,
 "Ġfar": 9654,
 "Ġfc": 9655,
 "Ġfollows": 9656,
 "Ġformul": 9657,
 "Ġfunctionality": 9658,
 "Ġhierarchy": 9659,
 "Ġholds": 9660,
 "Ġinserts": 9661,
 "Ġinterpolation": 9662,
 "Ġkeyed": 9663,
 "Ġlegacy": 9664,
 "Ġlogic": 9665,
 "Ġmp": 9666,
 "Ġmember_": 9667,
 "Ġmetaclass": 9668,
 "Ġmodulename": 9669,
 "Ġmodule_globals": 9670,
 "Ġmoe_cfg": 9671,
 "Ġn_valid": 9672,
 "Ġnewurl": 9673,
 "Ġoverlap": 9674,
 "Ġpot": 9675,
 "Ġpermissions": 9676,
 "Ġprofiler": 9677,
 "Ġpurposes": 9678,
 "Ġrecomm": 9679,
 "Ġrecursion": 9680,
 "Ġreads": 9681,
 "Ġreasons": 9682,
 "Ġreply": 9683,
 "Ġsamples": 9684,
 "Ġscan": 9685,
 "Ġsecurity": 9686,
 "Ġsends": 9687,
 "Ġseparately": 9688,
 "Ġstructures": 9689,
 "Ġtmsg": 9690,
 "Ġtwice": 9691,
 "Ġtested": 9692,
 "Ġthrow": 9693,
 "Ġto_encode": 9694,
 "Ġtotal_parameters": 9695,
 "Ġunre": 9696,
 "Ġvalid_sparse_dict": 9697,
 "Ġvalidator": 9698,
 "Ġwrapping": 9699,
 "Ġ{}\".": 9700,
 "#---------------------------------------------------------------------------": 9701,
 "(\".": 9702,
 "(\"/": 9703,
 "('\\\\": 9704,
 "('/')": 9705,
 "(?:": 9706,
 "*?": 9707,
 "***": 9708,
 "+',": 9709,
 "013": 9710,
 "024193548387096774": 9711,
 "169": 9712,
 "234": 9713,
 "356": 9714,
 "404": 9715,
 "509": 9716,
 "675": 9717,
 "805": 9718,
 "8064516129032258": 9719,
 "999": 9720,
 "ANCE": 9721,
 "CE_": 9722,
 "COR": 9723,
 "Closed": 9724,
 "Cleanup": 9725,
 "DOCU": 9726,
 "DOT": 9727,
 "Dictionary": 9728,
 "Distribution": 9729,
 "ERT_": 9730,
 "Encode": 9731,
 "Filename": 9732,
 "FIED": 9733,
 "HEAD": 9734,
 "IAL": 9735,
 "IGH": 9736,
 "INDO": 9737,
 "Include": 9738,
 "LIST": 9739,
 "Missing": 9740,
 "MESSAGE": 9741,
 "NUTYPE_": 9742,
 "Open": 9743,
 "OSITIONAL": 9744,
 "OptionError": 9745,
 "Random": 9746,
 "Sep": 9747,
 "Size": 9748,
 "SPARSE_PATH": 9749,
 "STRU": 9750,
 "TYPE_": 9751,
 "UNNING": 9752,
 "VI": 9753,
 "[[": 9754,
 "_OP": 9755,
 "_CLASS": 9756,
 "_POSITIONAL": 9757,
 "_balance_loss_raw": 9758,
 "_col_offset": 9759,
 "_consts": 9760,
 "_current_line": 9761,
 "_exclusive": 9762,
 "_existing": 9763,
 "_family": 9764,
 "_find": 9765,
 "_foundation": 9766,
 "_fraction": 9767,
 "_foundation_probe": 9768,
 "_get_value": 9769,
 "_http": 9770,
 "_mapping": 9771,
 "_mod": 9772,
 "_mutually": 9773,
 "_mutually_exclusive": 9774,
 "_original": 9775,
 "_placement": 9776,
 "_passwd": 9777,
 "_precedence": 9778,
 "_rawq": 9779,
 "_rep": 9780,
 "_suffix": 9781,
 "_to_key": 9782,
 "_training": 9783,
 "_tuples": 9784,
 "_type_": 9785,
 "_type_check": 9786,
 "addresslist": 9787,
 "allclose": 9788,
 "arly": 9789,
 "armup": 9790,
 "bytearray": 9791,
 "chunk_left": 9792,
 "compiler": 9793,
 "compressed": 9794,
 "dn": 9795,
 "default_factory": 9796,
 "ername": 9797,
 "exceptions": 9798,
 "expat": 9799,
 "firstweekday": 9800,
 "generated": 9801,
 "goti": 9802,
 "gt__": 9803,
 "ick": 9804,
 "ied": 9805,
 "ifiedName": 9806,
 "ingInstruction": 9807,
 "interleave": 9808,
 "layers": 9809,
 "le__": 9810,
 "leader": 9811,
 "losses": 9812,
 "loader__": 9813,
 "localhost": 9814,
 "ns_": 9815,
 "ological": 9816,
 "orization": 9817,
 "orsel": 9818,
 "phrase": 9819,
 "parators": 9820,
 "parse_tree": 9821,
 "peername": 9822,
 "ptim": 9823,
 "quiring": 9824,
 "rfind": 9825,
 "rawq": 9826,
 "remain": 9827,
 "same": 9828,
 "scal": 9829,
 "scale": 9830,
 "sil": 9831,
 "shot": 9832,
 "spawning_popen": 9833,
 "st_mode": 9834,
 "super": 9835,
 "sumer": 9836,
 "though": 9837,
 "threading": 9838,
 "tom": 9839,
 "uss": 9840,
 "unique": 9841,
 "unsqueeze": 9842,
 "was": 9843,
 "writer": 9844,
 "waitpid": 9845,
 "ways_": 9846,
 "Ġescapes": 9847,
 "Ġquest": 9848,
 "ĠĠĠĠĠĠĠĠĠĠĠĠĠĠĠĠĠĠ": 9849,
 "ĠĠĠĠĠĠĠĠĠĠĠĠĠĠĠĠĠĠĠĠ": 9850,
 "Ġ'='": 9851,
 "Ġ'.':": 9852,
 "Ġ------------------------------------------------": 9853,
 "Ġ--------------------------------------------------------------------": 9854,
 "ĠCFWS": 9855,
 "ĠDTD": 9856,
 "ĠEN": 9857,
 "ĠExtract": 9858,
 "ĠGenericAlias": 9859,
 "ĠIDs": 9860,
 "ĠLOAD": 9861,
 "ĠModel": 9862,
 "ĠNOT_": 9863,
 "ĠPOP": 9864,
 "ĠPermiss": 9865,
 "ĠQP": 9866,
 "ĠRLock": 9867,
 "ĠReal": 9868,
 "ĠSame": 9869,
 "ĠSim": 9870,
 "ĠSHA": 9871,
 "ĠStackObject": 9872,
 "ĠTCP": 9873,
 "ĠTokenList": 9874,
 "ĠWrite": 9875,
 "ĠWARRANTI": 9876,
 "ĠWARRANTIES": 9877,
 "Ġ_VAR": 9878,
 "Ġ_cache": 9879,
 "Ġ_close": 9880,
 "Ġ_copy": 9881,
 "Ġ_dispatch": 9882,
 "Ġ_do": 9883,
 "Ġ_r": 9884,
 "Ġ__file__": 9885,
 "Ġ_asdict": 9886,
 "Ġ_collections_abc": 9887,
 "Ġamt": 9888,
 "Ġalloc": 9889,
 "Ġaname": 9890,
 "Ġblocked": 9891,
 "Ġbounded": 9892,
 "Ġcaught": 9893,
 "Ġcalendar": 9894,
 "Ġcapture_output": 9895,
 "Ġchr": 9896,
 "Ġclients": 9897,
 "Ġconfigs": 9898,
 "Ġconvenience": 9899,
 "Ġconfig_paths": 9900,
 "Ġconfigure": 9901,
 "Ġcontexts": 9902,
 "Ġcounted": 9903,
 "Ġcurr": 9904,
 "Ġdatagram": 9905,
 "Ġdeal": 9906,
 "Ġdecoding": 9907,
 "Ġdeepcopy": 9908,
 "Ġdescribe": 9909,
 "Ġdevi": 9910,
 "Ġdecorated": 9911,
 "Ġdesired": 9912,
 "Ġdomains": 9913,
 "Ġefficient": 9914,
 "Ġexpansion": 9915,
 "Ġexperiments": 9916,
 "Ġexplicit_arg": 9917,
 "Ġfolding": 9918,
 "Ġframe_summary": 9919,
 "Ġgettext": 9920,
 "Ġhashable": 9921,
 "Ġheads": 9922,
 "Ġhigher": 9923,
 "Ġhistory": 9924,
 "Ġincomplete": 9925,
 "Ġindividual": 9926,
 "Ġinstantiated": 9927,
 "Ġinvoke": 9928,
 "Ġismethod": 9929,
 "Ġleave": 9930,
 "Ġmmap": 9931,
 "Ġnb": 9932,
 "Ġnor": 9933,
 "Ġobtype": 9934,
 "Ġobs_local_part": 9935,
 "Ġordinary": 9936,
 "Ġpadded": 9937,
 "Ġpprint": 9938,
 "Ġparent_path": 9939,
 "Ġplatforms": 9940,
 "Ġpopped": 9941,
 "Ġpretty": 9942,
 "Ġprinting": 9943,
 "Ġprovenance": 9944,
 "Ġqk_norm": 9945,
 "Ġrer": 9946,
 "Ġrace": 9947,
 "Ġrebuild": 9948,
 "Ġreports": 9949,
 "Ġrouter_z_loss": 9950,
 "Ġscalar": 9951,
 "Ġsignificant": 9952,
 "Ġsomeone": 9953,
 "Ġsubstantive": 9954,
 "ĠtearDown": 9955,
 "Ġtext_": 9956,
 "Ġtemplate": 9957,
 "Ġtextwrap": 9958,
 "Ġthresholds": 9959,
 "Ġtrunc": 9960,
 "Ġunicodedata": 9961,
 "Ġwild": 9962,
 "Ġwindow": 9963,
 "().\"\"\"": 9964,
 "0123": 9965,
 "0024": 9966,
 "229": 9967,
 "258064516129": 9968,
 "315": 9969,
 "319": 9970,
 "333": 9971,
 "375": 9972,
 "396": 9973,
 "574": 9974,
 "589": 9975,
 "666": 9976,
 "767": 9977,
 "777": 9978,
 "814": 9979,
 "884": 9980,
 "9919354838709677": 9981,
 ":].": 9982,
 "AK": 9983,
 "ACHE": 9984,
 "AGES": 9985,
 "Annotated": 9986,
 "Assert": 9987,
 "AuthHandler": 9988,
 "COM": 9989,
 "CTION_NODE": 9990,
 "Comment": 9991,
 "CookieJar": 9992,
 "Datagram": 9993,
 "Decode": 9994,
 "Deprecated": 9995,
 "EST_FILES": 9996,
 "ElementHandler": 9997,
 "Factory": 9998,
 "Format": 9999,
 "HTTPRequestHandler": 10000,
 "Helper": 10001,
 "ILINE": 10002,
 "Items": 10003,
 "Mismatch": 10004,
 "Mutable": 10005,
 "NL": 10006,
 "Of": 10007,
 "OUND": 10008,
 "PET": 10009,
 "PipeError": 10010,
 "RAG": 10011,
 "RITICAL": 10012,
 "ROUPREF": 10013,
 "SOL": 10014,
 "SY": 10015,
 "STAR": 10016,
 "SUFFIXES": 10017,
 "Sendfile": 10018,
 "TA": 10019,
 "Task": 10020,
 "Traceback": 10021,
 "ULTILINE": 10022,
 "[^\\": 10023,
 "]).": 10024,
 "_alloc": 10025,
 "_NL": 10026,
 "_NOT_": 10027,
 "_TEST_FILES": 10028,
 "_TLS": 10029,
 "__dataclass": 10030,
 "_are": 10031,
 "_asyncio": 10032,
 "_atomic": 10033,
 "_bootstrap_external": 10034,
 "_causal": 10035,
 "_child_handler": 10036,
 "_chunks": 10037,
 "_descriptor": 10038,
 "_decl_handler": 10039,
 "_discard": 10040,
 "_empty_elements": 10041,
 "_fault_": 10042,
 "_fmt": 10043,
 "_fault_injection": 10044,
 "_fixtures": 10045,
 "_listener": 10046,
 "_magnitude": 10047,
 "_maybe": 10048,
 "_nan": 10049,
 "_pax": 10050,
 "_quoted": 10051,
 "_range": 10052,
 "_rel": 10053,
 "_single": 10054,
 "_subclass__": 10055,
 "_test_manifest": 10056,
 "_to_": 10057,
 "_to_type": 10058,
 "_transform": 10059,
 "_win": 10060,
 "_wait_for": 10061,
 "af": 10062,
 "always": 10063,
 "alphabet": 10064,
 "anded": 10065,
 "arer": 10066,
 "arens": 10067,
 "authored": 10068,
 "br": 10069,
 "cedure": 10070,
 "choice": 10071,
 "cleanup": 10072,
 "clusion": 10073,
 "code__": 10074,
 "drive": 10075,
 "default_section": 10076,
 "devnull": 10077,
 "equivalence": 10078,
 "edi": 10079,
 "excepthook": 10080,
 "external": 10081,
 "flowbox": 10082,
 "follow_symlinks": 10083,
 "forkserver": 10084,
 "framer": 10085,
 "frozen_v": 10086,
 "greg": 10087,
 "gate_passed": 10088,
 "ge__": 10089,
 "generate_phase": 10090,
 "get_payload": 10091,
 "headerlen": 10092,
 "iod": 10093,
 "import__": 10094,
 "infour": 10095,
 "infourl": 10096,
 "init_subclass__": 10097,
 "ithost": 10098,
 "jac": 10099,
 "lees": 10100,
 "lest": 10101,
 "limbo": 10102,
 "lm_head": 10103,
 "multipart": 10104,
 "mallest": 10105,
 "multiprocessing": 10106,
 "ocation": 10107,
 "olated": 10108,
 "package__": 10109,
 "pair_coactivation": 10110,
 "plithost": 10111,
 "qname": 10112,
 "reverse": 10113,
 "rows": 10114,
 "rowser": 10115,
 "rupted": 10116,
 "spawn": 10117,
 "s_per_expert": 10118,
 "sem": 10119,
 "sensitive": 10120,
 "should": 10121,
 "shared_expert_": 10122,
 "sockname": 10123,
 "stub": 10124,
 "tagName": 10125,
 "tying": 10126,
 "typeid": 10127,
 "unsafe": 10128,
 "uplex": 10129,
 "vs": 10130,
 "verifiable": 10131,
 "waiter": 10132,
 "what": 10133,
 "winerror": 10134,
 "writeln": 10135,
 "xmlns": 10136,
 "ĊĊĠĠĠĠĠĠĠĠĠĠ": 10137,
 "ĊĠĠĠĠĠĠĠĠĠĠĠĠĠĠĠĠĠĠĠĠĠĠĠĠĠĠĠĠĠĠĠĠĠĠĠĠĠĠĠĠĠĠĠĠĠĠĠĠĠ": 10138,
 "ĠQu": 10139,
 "Ġut": 10140,
 "Ġ'&": 10141,
 "Ġ'':": 10142,
 "Ġ2026": 10143,
 "ĠAUTH": 10144,
 "ĠArgs": 10145,
 "ĠBecause": 10146,
 "ĠBlock": 10147,
 "ĠCOR": 10148,
 "ĠCRLF": 10149,
 "ĠCONNE": 10150,
 "ĠCheckpoint": 10151,
 "ĠControlToken": 10152,
 "ĠConverting": 10153,
 "ĠData": 10154,
 "ĠDEFAULT_": 10155,
 "ĠExact": 10156,
 "ĠFI": 10157,
 "ĠGMT": 10158,
 "ĠHAS": 10159,
 "ĠIgnore": 10160,
 "ĠIncompleteRead": 10161,
 "ĠLicense": 10162,
 "ĠLogger": 10163,
 "ĠMH": 10164,
 "ĠNL": 10165,
 "ĠNew": 10166,
 "ĠNodeFilter": 10167,
 "ĠReview": 10168,
 "ĠReserved": 10169,
 "ĠSE": 10170,
 "ĠUSE": 10171,
 "ĠUNIX": 10172,
 "ĠWSP": 10173,
 "Ġ_c": 10174,
 "Ġ_complete": 10175,
 "Ġ_encode": 10176,
 "Ġ__lt__": 10177,
 "Ġ__spec__": 10178,
 "Ġ__getattr__": 10179,
 "Ġ_current_indent": 10180,
 "Ġ_current_indent_level": 10181,
 "Ġaccessed": 10182,
 "Ġans": 10183,
 "Ġanyway": 10184,
 "Ġattach": 10185,
 "Ġbuffers": 10186,
 "Ġbuffering": 10187,
 "Ġcaches": 10188,
 "Ġcategories": 10189,
 "Ġcapability": 10190,
 "Ġchallenge": 10191,
 "Ġcombined": 10192,
 "Ġcomparing": 10193,
 "Ġcompletion": 10194,
 "Ġconfigured": 10195,
 "Ġconnection_made": 10196,
 "Ġconsumed": 10197,
 "Ġcopies": 10198,
 "Ġdel_flags": 10199,
 "Ġdestroy": 10200,
 "Ġdiffering": 10201,
 "Ġdrift": 10202,
 "Ġeol": 10203,
 "Ġew": 10204,
 "Ġepilogue": 10205,
 "Ġexpanded": 10206,
 "Ġextraction": 10207,
 "Ġextras": 10208,
 "Ġextracted": 10209,
 "Ġfcntl": 10210,
 "Ġfilter_function": 10211,
 "Ġfrom_line": 10212,
 "Ġgh": 10213,
 "Ġgrammar": 10214,
 "Ġgoes": 10215,
 "Ġhashlib": 10216,
 "Ġhttp_error_": 10217,
 "Ġiff": 10218,
 "Ġinline": 10219,
 "Ġints": 10220,
 "Ġinteresting": 10221,
 "Ġis_package": 10222,
 "Ġissues": 10223,
 "Ġmatrix": 10224,
 "Ġmismatch": 10225,
 "Ġmanual": 10226,
 "Ġmethod_b": 10227,
 "Ġmiddle": 10228,
 "Ġndiff": 10229,
 "Ġolder": 10230,
 "Ġpkg": 10231,
 "Ġpow": 10232,
 "Ġparents": 10233,
 "Ġproactor": 10234,
 "Ġproduction": 10235,
 "Ġrecognized": 10236,
 "Ġreject": 10237,
 "Ġrely": 10238,
 "Ġread_uint": 10239,
 "Ġrepeated": 10240,
 "Ġresource_tracker": 10241,
 "Ġsays": 10242,
 "Ġsli": 10243,
 "Ġscandir": 10244,
 "Ġsemantic": 10245,
 "Ġsense": 10246,
 "Ġserve": 10247,
 "Ġsmaller": 10248,
 "Ġstreams": 10249,
 "Ġstaticmethod": 10250,
 "Ġsug": 10251,
 "Ġsubdir": 10252,
 "Ġsubparts": 10253,
 "Ġsymbolic": 10254,
 "Ġtells": 10255,
 "Ġtrain": 10256,
 "Ġtransform": 10257,
 "Ġtriggered": 10258,
 "Ġuid": 10259,
 "Ġweak": 10260,
 "Ġyy": 10261,
 "!\\": 10262,
 "'.\"\"\"": 10263,
 "']:": 10264,
 "('=": 10265,
 ",'": 10266,
 ".\"),": 10267,
 "064": 10268,
 "005": 10269,
 "057": 10270,
 "119": 10271,
 "130": 10272,
 "204": 10273,
 "2008": 10274,
 "255": 10275,
 "300": 10276,
 "324": 10277,
 "397": 10278,
 "4567": 10279,
 "5161": 10280,
 "655": 10281,
 "674": 10282,
 "784": 10283,
 ";\")": 10284,
 ">,": 10285,
 "?',": 10286,
 "ARGU": 10287,
 "ARGUMENT": 10288,
 "ATOM": 10289,
 "Bad": 10290,
 "CR": 10291,
 "Construct": 10292,
 "DEFAULT": 10293,
 "ELE": 10294,
 "EOF": 10295,
 "ENSE_": 10296,
 "Execut": 10297,
 "Fail": 10298,
 "FIR": 10299,
 "FIRST_": 10300,
 "FunctionType": 10301,
 "GET": 10302,
 "HANG": 10303,
 "IRED": 10304,
 "It": 10305,
 "INVAL": 10306,
 "JECT": 10307,
 "JSON": 10308,
 "KEN_FROM_": 10309,
 "KEN_FROM_ARGUMENT": 10310,
 "LD": 10311,
 "Mailbox": 10312,
 "MBER": 10313,
 "MixIn": 10314,
 "ORT_": 10315,
 "OUNT": 10316,
 "O_RE": 10317,
 "Only": 10318,
 "PES": 10319,
 "PipeTransport": 10320,
 "ProxyType": 10321,
 "REN": 10322,
 "Required": 10323,
 "Resol": 10324,
 "Resolver": 10325,
 "Single": 10326,
 "Special": 10327,
 "STD": 10328,
 "Subprocess": 10329,
 "TUPLE": 10330,
 "VENT": 10331,
 "VERSION": 10332,
 "ValueMismatch": 10333,
 "Weak": 10334,
 "[,": 10335,
 "_LEN": 10336,
 "_ctx": 10337,
 "_origin": 10338,
 "_static": 10339,
 "_until": 10340,
 "_use": 10341,
 "_COUNT": 10342,
 "_SUPPORTED": 10343,
 "__code__": 10344,
 "__del": 10345,
 "__next__": 10346,
 "__getitem__": 10347,
 "_after_fork": 10348,
 "_allocated": 10349,
 "_buffer_limits": 10350,
 "_checkClosed": 10351,
 "_completed": 10352,
 "_constructor": 10353,
 "_coro": 10354,
 "_corpus": 10355,
 "_declar": 10356,
 "_dirty": 10357,
 "_eval": 10358,
 "_ew_allowed": 10359,
 "_exec": 10360,
 "_field_type": 10361,
 "_filters": 10362,
 "_iocp": 10363,
 "_ip": 10364,
 "_matches": 10365,
 "_moe_layers": 10366,
 "_namespace": 10367,
 "_opener": 10368,
 "_ordering": 10369,
 "_outgoing": 10370,
 "_override": 10371,
 "_pri": 10372,
 "_password": 10373,
 "_reduce": 10374,
 "_report": 10375,
 "_required": 10376,
 "_router_logit": 10377,
 "_scaling": 10378,
 "_second": 10379,
 "_select": 10380,
 "_shape": 10381,
 "_show": 10382,
 "_stopped": 10383,
 "_try": 10384,
 "_threshold": 10385,
 "_valid_token_count": 10386,
 "_vram_bytes": 10387,
 "_write_ready": 10388,
 "acility": 10389,
 "activated": 10390,
 "ancy": 10391,
 "aneous": 10392,
 "bases__": 10393,
 "cr": 10394,
 "ceeded": 10395,
 "chunked": 10396,
 "cipi": 10397,
 "cipient": 10398,
 "cklingError": 10399,
 "cls_name": 10400,
 "cons": 10401,
 "contextmanager": 10402,
 "dropout": 10403,
 "duced": 10404,
 "ern": 10405,
 "exe": 10406,
 "experts": 10407,
 "failureException": 10408,
 "ffff": 10409,
 "finalizer": 10410,
 "finished_tasks": 10411,
 "force": 10412,
 "have": 10413,
 "inher": 10414,
 "inv": 10415,
 "jacent": 10416,
 "lu": 10417,
 "learned": 10418,
 "mber_names_": 10419,
 "meas": 10420,
 "monotonic": 10421,
 "n_kv_heads": 10422,
 "na": 10423,
 "namedtuple": 10424,
 "normalized": 10425,
 "nsure": 10426,
 "ominant_": 10427,
 "orkingPickler": 10428,
 "ormatter": 10429,
 "owned": 10430,
 "pathname": 10431,
 "rastructure": 10432,
 "resource": 10433,
 "set_data": 10434,
 "shlex": 10435,
 "signature__": 10436,
 "sonly": 10437,
 "subdir": 10438,
 "subtype": 10439,
 "tz": 10440,
 "tainer": 10441,
 "test_model_fault_injection": 10442,
 "trained": 10443,
 "uck": 10444,
 "untrained": 10445,
 "urther": 10446,
 "void": 10447,
 "valid_sparse_dict": 10448,
 "wrapper": 10449,
 "zeros": 10450,
 "á²": 10451,
 "ĊĊĠĠĠĠĠĠĠĠĠ": 10452,
 "Ġ\"*": 10453,
 "Ġ\"\"\")": 10454,
 "Ġ'\"'": 10455,
 "Ġ'$": 10456,
 "Ġ'*'": 10457,
 "Ġ-->": 10458,
 "Ġ...]": 10459,
 "Ġ1000": 10460,
 "Ġ2045": 10461,
 "ĠAppro": 10462,
 "ĠAssume": 10463,
 "ĠBar": 10464,
 "ĠCont": 10465,
 "ĠDis": 10466,
 "ĠFind": 10467,
 "ĠGzipFile": 10468,
 "ĠInstead": 10469,
 "ĠNonCallable": 10470,
 "ĠOne": 10471,
 "ĠPIPE": 10472,
 "ĠPOST": 10473,
 "ĠPrint": 10474,
 "ĠPurePath": 10475,
 "ĠRecovery": 10476,
 "ĠRoPE": 10477,
 "ĠSOFTWARE": 10478,
 "ĠSPECIAL": 10479,
 "ĠSend": 10480,
 "ĠString": 10481,
 "ĠTUPLE": 10482,
 "ĠTypedDict": 10483,
 "Ġ_acquire": 10484,
 "Ġ_class": 10485,
 "Ġ_layer": 10486,
 "Ġ_lock": 10487,
 "Ġ_logger": 10488,
 "Ġ_stub": 10489,
 "Ġ__import__": 10490,
 "Ġ__delitem__": 10491,
 "Ġ__getstate__": 10492,
 "Ġ_new_name": 10493,
 "Ġ_stub_layer": 10494,
 "Ġ_test_generator": 10495,
 "Ġalone": 10496,
 "Ġanyobject": 10497,
 "Ġapplies": 10498,
 "Ġassert_frozen_v": 10499,
 "Ġatexit": 10500,
 "Ġawaited": 10501,
 "Ġbroad": 10502,
 "Ġbeg": 10503,
 "Ġcnt_": 10504,
 "Ġchan": 10505,
 "Ġchannel": 10506,
 "Ġcollapsed": 10507,
 "Ġcollection": 10508,
 "Ġcolumns": 10509,
 "Ġcomptype": 10510,
 "Ġconstructed": 10511,
 "Ġconverting": 10512,
 "Ġdigit": 10513,
 "Ġdeadlock": 10514,
 "Ġdebuglevel": 10515,
 "Ġdeclaration": 10516,
 "Ġdense_layers": 10517,
 "Ġdrive": 10518,
 "Ġearly": 10519,
 "Ġemitted": 10520,
 "Ġenumeration": 10521,
 "Ġexiting": 10522,
 "Ġexpress": 10523,
 "Ġfname": 10524,
 "Ġfws": 10525,
 "Ġframework": 10526,
 "Ġgive": 10527,
 "Ġheadersonly": 10528,
 "Ġimpro": 10529,
 "Ġincre": 10530,
 "Ġinfile": 10531,
 "Ġinit_cfg": 10532,
 "Ġinitialize": 10533,
 "Ġiso": 10534,
 "Ġispkg": 10535,
 "Ġkeeps": 10536,
 "Ġlost": 10537,
 "Ġmanag": 10538,
 "Ġmixed": 10539,
 "Ġmm": 10540,
 "Ġmaintain": 10541,
 "Ġminimum": 10542,
 "Ġminor": 10543,
 "Ġminus": 10544,
 "Ġmodels": 10545,
 "Ġnt": 10546,
 "Ġnexttok": 10547,
 "Ġnormalization": 10548,
 "Ġoffsets": 10549,
 "Ġpieces": 10550,
 "Ġpropagate": 10551,
 "Ġran": 10552,
 "Ġrational": 10553,
 "Ġrecursively": 10554,
 "Ġrenormalize": 10555,
 "Ġreplaces": 10556,
 "Ġretrieved": 10557,
 "Ġrot": 10558,
 "Ġsr": 10559,
 "Ġsaved": 10560,
 "Ġsettings": 10561,
 "Ġsort_keys": 10562,
 "Ġsource_address": 10563,
 "Ġspecialized": 10564,
 "Ġspecifically": 10565,
 "Ġspecifier": 10566,
 "Ġstartupinfo": 10567,
 "Ġsuggest": 10568,
 "Ġterminal": 10569,
 "Ġtotal_parameter_breakdown": 10570,
 "Ġtrick": 10571,
 "Ġupon": 10572,
 "Ġvarkw": 10573,
 "Ġwants": 10574,
 "#!": 10575,
 "########################################################################": 10576,
 "')):": 10577,
 "(\".\")": 10578,
 "(\">": 10579,
 "('\"": 10580,
 "*()": 10581,
 "035": 10582,
 "098": 10583,
 "107": 10584,
 "116": 10585,
 "121": 10586,
 "334": 10587,
 "314": 10588,
 "359": 10589,
 "389": 10590,
 "484": 10591,
 "555": 10592,
 "679": 10593,
 "795": 10594,
 "815": 10595,
 "857": 10596,
 "=''):": 10597,
 "><": 10598,
 "></": 10599,
 "Available": 10600,
 "AL_ARTIFA": 10601,
 "AL_ARTIFAC": 10602,
 "AL_ARTIFACT_D": 10603,
 "AL_ARTIFACT_DIR": 10604,
 "ANDSHA": 10605,
 "ANONIC": 10606,
 "ANONICAL_ARTIFACT_DIR": 10607,
 "Arg": 10608,
 "Asyncio": 10609,
 "BUF": 10610,
 "CDATA": 10611,
 "CHLD": 10612,
 "Condition": 10613,
 "DIGITS": 10614,
 "ElementNS": 10615,
 "Hook": 10616,
 "Index": 10617,
 "LOS": 10618,
 "Linear": 10619,
 "Load": 10620,
 "MOD": 10621,
 "MULTILINE": 10622,
 "MEx": 10623,
 "MException": 10624,
 "NamedItem": 10625,
 "NotAvailable": 10626,
 "OUS": 10627,
 "Pair": 10628,
 "Raised": 10629,
 "Reset": 10630,
 "Strict": 10631,
 "SPARSE_CFG": 10632,
 "SSLContext": 10633,
 "TestRun": 10634,
 "TestsFrom": 10635,
 "USE_": 10636,
 "Unix": 10637,
 "Warn": 10638,
 "WRAPPED": 10639,
 "_ep": 10640,
 "_old": 10641,
 "_uint": 10642,
 "_via": 10643,
 "_HANDLE": 10644,
 "__bases__": 10645,
 "_attribute": 10646,
 "_baseline": 10647,
 "_clip": 10648,
 "_callers": 10649,
 "_clip_norm": 10650,
 "_coprime": 10651,
 "_comment": 10652,
 "_commit_removals": 10653,
 "_coprime_int": 10654,
 "_coprime_ints": 10655,
 "_curriculum": 10656,
 "_curriculum_state": 10657,
 "_excepthook": 10658,
 "_executor_manager_thread": 10659,
 "_freq": 10660,
 "_features": 10661,
 "_fill": 10662,
 "_finish": 10663,
 "_finite": 10664,
 "_formats": 10665,
 "_gen": 10666,
 "_high": 10667,
 "_inst": 10668,
 "_initializer": 10669,
 "_interning": 10670,
 "_list_len": 10671,
 "_loggers": 10672,
 "_merges": 10673,
 "_multipart": 10674,
 "_must": 10675,
 "_mock_call": 10676,
 "_mock_children": 10677,
 "_notifier": 10678,
 "_official_model": 10679,
 "_prob": 10680,
 "_resumed": 10681,
 "_segments": 10682,
 "_tags": 10683,
 "_tz": 10684,
 "auss": 10685,
 "acing": 10686,
 "add_parser": 10687,
 "alpha": 10688,
 "anity": 10689,
 "andbelow": 10690,
 "apshot": 10691,
 "assignment_counts_per_expert": 10692,
 "atives": 10693,
 "attrtext": 10694,
 "aves": 10695,
 "bound": 10696,
 "bpbynumber": 10697,
 "byname": 10698,
 "cdata": 10699,
 "chmod": 10700,
 "co_name": 10701,
 "don": 10702,
 "dense_ffn": 10703,
 "does": 10704,
 "every": 10705,
 "enticated": 10706,
 "er_index": 10707,
 "exc_value": 10708,
 "final_norm": 10709,
 "flat_x": 10710,
 "flowError": 10711,
 "full_path": 10712,
 "gra": 10713,
 "getLogger": 10714,
 "hig": 10715,
 "high": 10716,
 "href": 10717,
 "hemat": 10718,
 "iB": 10719,
 "iding": 10720,
 "isk": 10721,
 "itch": 10722,
 "ksum": 10723,
 "lacing": 10724,
 "lazy": 10725,
 "legate": 10726,
 "levant": 10727,
 "look": 10728,
 "math": 10729,
 "may": 10730,
 "main_thread": 10731,
 "minate": 10732,
 "module_name": 10733,
 "moe_ablations": 10734,
 "moe_dispatch": 10735,
 "mpath": 10736,
 "n_sequences": 10737,
 "napshot": 10738,
 "newline": 10739,
 "notify_all": 10740,
 "ntact": 10741,
 "oining": 10742,
 "pdb": 10743,
 "pgettext": 10744,
 "parsers": 10745,
 "plural": 10746,
 "popleft": 10747,
 "probs": 10748,
 "processes": 10749,
 "process_obj": 10750,
 "ptext": 10751,
 "random_router": 10752,
 "reason": 10753,
 "reed": 10754,
 "rome": 10755,
 "rough": 10756,
 "sample": 10757,
 "single": 10758,
 "s_per_second": 10759,
 "setsockopt": 10760,
 "set_defaults": 10761,
 "set_seq": 10762,
 "share": 10763,
 "stand": 10764,
 "stems": 10765,
 "tb_next": 10766,
 "test_model_moe_dispatch": 10767,
 "times": 10768,
 "uch": 10769,
 "ulator": 10770,
 "urrogates": 10771,
 "walk": 10772,
 "windows": 10773,
 "wrapped__": 10774,
 "|>\",": 10775,
 "}]": 10776,
 "},'": 10777,
 "ĊĠĠĠĠĠĠĠĠĠĠĠĠĠĠĠĠĠĠĠĠĠĠĠĠĠĠĠĠĠĠĠĠĠĠĠĠĠĠĠĠĠĠĠĠĠĠ": 10778,
 "ĊĠĠĠĠĠĠĠĠĠĠĠĠĠĠĠĠĠĠĠĠĠĠĠĠĠĠĠĠĠĠĠĠĠĠĠĠĠĠĠĠĠĠĠĠĠĠĠĠ": 10779,
 "Ġ\"),": 10780,
 "Ġ\";": 10781,
 "Ġ\"/\"": 10782,
 "Ġ'@": 10783,
 "Ġ(),": 10784,
 "Ġ(*": 10785,
 "Ġ--------------------------------------------------------------------------": 10786,
 "Ġ27": 10787,
 "Ġ=================================": 10788,
 "ĠAllow": 10789,
 "ĠAttributes": 10790,
 "ĠBrokenPipeError": 10791,
 "ĠCondition": 10792,
 "ĠDAM": 10793,
 "ĠDAMAGES": 10794,
 "ĠFINISHED": 10795,
 "ĠFileNotFoundError": 10796,
 "ĠHEAD": 10797,
 "ĠHTTPStatus": 10798,
 "ĠInputSource": 10799,
 "ĠJuniperTokenizer": 10800,
 "ĠLM": 10801,
 "ĠLevel": 10802,
 "ĠMock": 10803,
 "ĠNodeList": 10804,
 "ĠParamSpec": 10805,
 "ĠPicklingError": 10806,
 "ĠPolicy": 10807,
 "ĠProxy": 10808,
 "ĠQName": 10809,
 "ĠRest": 10810,
 "ĠSupports": 10811,
 "ĠUserString": 10812,
 "ĠXMLParser": 10813,
 "Ġ_D": 10814,
 "Ġ_base": 10815,
 "Ġ_patch": 10816,
 "Ġ_process": 10817,
 "Ġ_socket": 10818,
 "Ġ_wrap": 10819,
 "Ġ_CallList": 10820,
 "Ġ__get_": 10821,
 "Ġ_convert_": 10822,
 "Ġ_deepcopy_atomic": 10823,
 "Ġ_require": 10824,
 "Ġaddress_list": 10825,
 "Ġalmost": 10826,
 "Ġattrib": 10827,
 "Ġattached": 10828,
 "Ġavoids": 10829,
 "Ġcapath": 10830,
 "Ġchanging": 10831,
 "Ġclaims": 10832,
 "Ġcommunicate": 10833,
 "Ġconcrete": 10834,
 "Ġconvention": 10835,
 "Ġcycles": 10836,
 "Ġdirection": 10837,
 "Ġdeci": 10838,
 "Ġdetail": 10839,
 "Ġdisting": 10840,
 "Ġdistingu": 10841,
 "Ġdivmod": 10842,
 "Ġdomain_literal": 10843,
 "Ġeasier": 10844,
 "Ġending": 10845,
 "Ġerhn": 10846,
 "Ġestab": 10847,
 "Ġexec_module": 10848,
 "Ġexpand": 10849,
 "Ġexpected_regex": 10850,
 "Ġfoo": 10851,
 "Ġfraction": 10852,
 "Ġfield_name": 10853,
 "Ġfield_names": 10854,
 "Ġfinding": 10855,
 "Ġgenerators": 10856,
 "Ġgenuinely": 10857,
 "Ġhlist": 10858,
 "Ġignore_exp": 10859,
 "Ġintegrity": 10860,
 "Ġkernel": 10861,
 "Ġlimitation": 10862,
 "Ġlineterm": 10863,
 "Ġload_bin": 10864,
 "Ġlongest": 10865,
 "Ġmanip": 10866,
 "Ġmaybe": 10867,
 "Ġmeaningful": 10868,
 "Ġmocks": 10869,
 "Ġmoe_layers": 10870,
 "Ġmonkey": 10871,
 "Ġn_layers": 10872,
 "Ġnewl": 10873,
 "Ġnonlocal": 10874,
 "Ġopmap": 10875,
 "Ġoptionals": 10876,
 "Ġoutfile": 10877,
 "Ġprefix_skip": 10878,
 "Ġpreviously": 10879,
 "Ġprintable": 10880,
 "Ġprove": 10881,
 "Ġrisk": 10882,
 "Ġraising": 10883,
 "Ġreduct": 10884,
 "Ġreductor": 10885,
 "Ġrouter_logits": 10886,
 "Ġsamp": 10887,
 "Ġscaler": 10888,
 "Ġsections": 10889,
 "Ġserialized": 10890,
 "Ġshouldn": 10891,
 "Ġsocktype": 10892,
 "Ġstructural": 10893,
 "Ġsuccessful": 10894,
 "Ġsuffixes": 10895,
 "Ġthird": 10896,
 "Ġtimed": 10897,
 "Ġtransfer": 10898,
 "Ġtypically": 10899,
 "Ġunlocked": 10900,
 "Ġunders": 10901,
 "Ġuniversal_newlines": 10902,
 "Ġwaiters": 10903,
 "Ġwhence": 10904,
 "Ġ{}'.": 10905,
 "\"\",": 10906,
 "'^": 10907,
 "'}:": 10908,
 "''.": 10909,
 "(\"'": 10910,
 "()\")": 10911,
 "()),": 10912,
 ")',": 10913,
 "0017": 10914,
 "095": 10915,
 "128": 10916,
 "405": 10917,
 "649": 10918,
 "850": 10919,
 "986": 10920,
 "=\\": 10921,
 "AW": 10922,
 "ANCELLED_AND": 10923,
 "ANCELLED_AND_NO": 10924,
 "ANCELLED_AND_NOTI": 10925,
 "ANCELLED_AND_NOTIFIED": 10926,
 "Array": 10927,
 "CATEGORY_": 10928,
 "CEPT": 10929,
 "CEPTION": 10930,
 "CLUD": 10931,
 "CORE": 10932,
 "Character": 10933,
 "DP": 10934,
 "DOMImplementation": 10935,
 "ENTI": 10936,
 "ERATOR": 10937,
 "ER_ID": 10938,
 "EXCEPTION": 10939,
 "EXT_NODE": 10940,
 "FORMAT": 10941,
 "HAVE_": 10942,
 "IA": 10943,
 "IST": 10944,
 "IPPET": 10945,
 "IPPETS": 10946,
 "IZER_ID": 10947,
 "Input": 10948,
 "Instance": 10949,
 "IntEnum": 10950,
 "Iterable": 10951,
 "LOSED": 10952,
 "Mod": 10953,
 "NIPPETS": 10954,
 "NEWLINE": 10955,
 "NOHANG": 10956,
 "NUMBER": 10957,
 "OPRI": 10958,
 "PATTERN": 10959,
 "PN": 10960,
 "Point": 10961,
 "PrefixMapping": 10962,
 "ResultMixin": 10963,
 "SRE_FLAG_": 10964,
 "SyncManager": 10965,
 "S_IS": 10966,
 "SetUp": 10967,
 "StateError": 10968,
 "SystemId": 10969,
 "VID": 10970,
 "](../../": 10971,
 "_DEFAULT_": 10972,
 "_fix": 10973,
 "_stdout": 10974,
 "_unix": 10975,
 "_COMPLETED": 10976,
 "_MOD": 10977,
 "_Special": 10978,
 "__exit__": 10979,
 "__str__": 10980,
 "__getattribute__": 10981,
 "_active_parameter_breakdown": 10982,
 "_args_list": 10983,
 "_backward": 10984,
 "_basestring": 10985,
 "_bound_arg": 10986,
 "_bypass": 10987,
 "_client": 10988,
 "_chain": 10989,
 "_correct": 10990,
 "_defect": 10991,
 "_exclude": 10992,
 "_execut": 10993,
 "_failed": 10994,
 "_from_coprime_ints": 10995,
 "_golden": 10996,
 "_group_actions": 10997,
 "_interpolation": 10998,
 "_ipv": 10999,
 "_loader": 11000,
 "_low": 11001,
 "_member_": 11002,
 "_ne": 11003,
 "_or_type": 11004,
 "_overfit": 11005,
 "_poll": 11006,
 "_pairs": 11007,
 "_reuse": 11008,
 "_softmax": 11009,
 "_script": 11010,
 "_sep": 11011,
 "_sha": 11012,
 "_shared_expert": 11013,
 "_socket_": 11014,
 "_start_element": 11015,
 "_threadsafe": 11016,
 "_unpack": 11017,
 "_validation": 11018,
 "_weighted": 11019,
 "ackage": 11020,
 "alf": 11021,
 "alive": 11022,
 "always_": 11023,
 "analysis": 11024,
 "angling": 11025,
 "argparse": 11026,
 "baseFilename": 11027,
 "candidate": 11028,
 "cut": 11029,
 "celain": 11030,
 "cip": 11031,
 "co_flags": 11032,
 "could": 11033,
 "code_or_type": 11034,
 "colon": 11035,
 "configure": 11036,
 "constants": 11037,
 "context_length": 11038,
 "currences": 11039,
 "eager_task": 11040,
 "ehlo": 11041,
 "emLock": 11042,
 "extension": 11043,
 "f_locals": 11044,
 "fhandle": 11045,
 "fl": 11046,
 "findall": 11047,
 "fspath": 11048,
 "gname": 11049,
 "getcwd": 11050,
 "gettimeout": 11051,
 "hash_manifest": 11052,
 "imed": 11053,
 "inser": 11054,
 "initialspace": 11055,
 "isdigit": 11056,
 "issues": 11057,
 "listdir": 11058,
 "logit": 11059,
 "marker": 11060,
 "message_from": 11061,
 "mkdir": 11062,
 "mous": 11063,
 "model_fixtures": 11064,
 "mul__": 11065,
 "next_": 11066,
 "normcase": 11067,
 "orcelain": 11068,
 "orth": 11069,
 "osfhandle": 11070,
 "osen": 11071,
 "pared": 11072,
 "parents": 11073,
 "profi": 11074,
 "propagate": 11075,
 "quivalent": 11076,
 "rain": 11077,
 "recorded": 11078,
 "redential": 11079,
 "redirected": 11080,
 "reply": 11081,
 "rope": 11082,
 "slashes": 11083,
 "sn": 11084,
 "ssibly": 11085,
 "start_method": 11086,
 "string_type": 11087,
 "sym": 11088,
 "tasks": 11089,
 "trunc": 11090,
 "transfer": 11091,
 "uediv": 11092,
 "umption": 11093,
 "uname": 11094,
 "urlparse": 11095,
 "uses": 11096,
 "vergence": 11097,
 "wa": 11098,
 "{}'.": 11099,
 "|'": 11100,
 "ĊĊĠĠĠĠĠĠ": 11101,
 "Ġlicense": 11102,
 "ĠĠĠĠĠĠĠĠĠĠĠĠĠĠĠĠĠĠĠĠĠĠĠĠ": 11103,
 "Ġ('',": 11104,
 "Ġ*(": 11105,
 "Ġ128": 11106,
 "Ġ204": 11107,
 "Ġ<-": 11108,
 "ĠAsyncMock": 11109,
 "ĠBU": 11110,
 "ĠBabyl": 11111,
 "ĠBe": 11112,
 "ĠBytesIO": 11113,
 "ĠCH": 11114,
 "ĠCOMP": 11115,
 "ĠEnsure": 11116,
 "ĠEMPTYSTRING": 11117,
 "ĠEnvironment": 11118,
 "ĠExecut": 11119,
 "ĠExpatBuilder": 11120,
 "ĠFutures": 11121,
 "ĠHelper": 11122,
 "ĠIMP": 11123,
 "ĠINT": 11124,
 "ĠInternal": 11125,
 "ĠInitVar": 11126,
 "ĠJSONDecodeError": 11127,
 "ĠLet": 11128,
 "ĠLoad": 11129,
 "ĠMapping": 11130,
 "ĠMon": 11131,
 "ĠOption": 11132,
 "ĠOpenSSL": 11133,
 "ĠPri": 11134,
 "ĠPoint": 11135,
 "ĠPosition": 11136,
 "ĠReference": 11137,
 "ĠResourceWarning": 11138,
 "ĠSP": 11139,
 "ĠSection": 11140,
 "ĠSOCK_STREAM": 11141,
 "ĠTuple": 11142,
 "ĠTHIS": 11143,
 "ĠTestCase": 11144,
 "ĠURLs": 11145,
 "ĠWeak": 11146,
 "ĠXMLReader": 11147,
 "Ġ[[": 11148,
 "Ġ_L": 11149,
 "Ġ_after": 11150,
 "Ġ_validate_": 11151,
 "Ġ__aexit__": 11152,
 "Ġ_clear_id_cache": 11153,
 "Ġ_heapreplace": 11154,
 "Ġ_sift": 11155,
 "Ġ_splithost": 11156,
 "Ġ_unquote": 11157,
 "Ġ`.": 11158,
 "Ġacc": 11159,
 "Ġaccount": 11160,
 "Ġaccepting": 11161,
 "Ġallowing": 11162,
 "Ġanchors": 11163,
 "Ġanswer": 11164,
 "Ġarchitecture_id": 11165,
 "Ġarchitectures": 11166,
 "Ġask": 11167,
 "Ġassertion": 11168,
 "Ġbs": 11169,
 "Ġbase_events": 11170,
 "Ġbox": 11171,
 "Ġcp": 11172,
 "Ġcut": 11173,
 "Ġchoice": 11174,
 "Ġcheckers": 11175,
 "Ġcomparisons": 11176,
 "Ġcontract": 11177,
 "Ġconsistency": 11178,
 "Ġcur_len": 11179,
 "Ġcur_line": 11180,
 "Ġdevelo": 11181,
 "Ġdiscover": 11182,
 "Ġentered": 11183,
 "Ġexecute": 11184,
 "Ġextend": 11185,
 "Ġfet": 11186,
 "Ġfron": 11187,
 "Ġfurther": 11188,
 "Ġfigure": 11189,
 "Ġfiltered": 11190,
 "Ġfront": 11191,
 "Ġfull_path": 11192,
 "Ġgamma": 11193,
 "Ġgraph": 11194,
 "Ġgate_passed": 11195,
 "Ġhasn": 11196,
 "Ġignore_expires": 11197,
 "Ġimplicit": 11198,
 "Ġimplementing": 11199,
 "Ġin_table": 11200,
 "Ġjump": 11201,
 "Ġkey_valid_mask": 11202,
 "Ġlast_charset": 11203,
 "Ġlevels": 11204,
 "Ġlisten": 11205,
 "Ġlocal_addr": 11206,
 "Ġlogged": 11207,
 "Ġmat": 11208,
 "Ġmixin": 11209,
 "Ġmro": 11210,
 "Ġmanage": 11211,
 "Ġmoved": 11212,
 "Ġmutated": 11213,
 "Ġnormalize": 11214,
 "Ġoperand": 11215,
 "Ġoutqueue": 11216,
 "Ġpathname": 11217,
 "Ġprefixed": 11218,
 "Ġprobs": 11219,
 "Ġprocedure": 11220,
 "Ġprogress": 11221,
 "Ġproxyhost": 11222,
 "Ġquote_types": 11223,
 "Ġreplacing": 11224,
 "Ġrepresented": 11225,
 "Ġreproducible": 11226,
 "Ġresolution": 11227,
 "Ġsect": 11228,
 "Ġseeded": 11229,
 "Ġsegments": 11230,
 "Ġseq_type": 11231,
 "Ġsetup": 11232,
 "Ġshut": 11233,
 "Ġsignificand": 11234,
 "Ġskipinitialspace": 11235,
 "Ġskipping": 11236,
 "Ġstar": 11237,
 "Ġstart_index": 11238,
 "Ġsubpatternappend": 11239,
 "Ġsuppre": 11240,
 "Ġsystems": 11241,
 "ĠtagName": 11242,
 "Ġterms": 11243,
 "Ġtheta": 11244,
 "Ġtimestamp": 11245,
 "Ġtopk": 11246,
 "Ġtraces": 11247,
 "Ġverification": 11248,
 "Ġworkflow": 11249,
 "Ġyr": 11250,
 "Ġyields": 11251,
 "Ġzone": 11252,
 "ĠâĢĶ": 11253,
 "'%": 11254,
 "'+": 11255,
 "'<{": 11256,
 "('@": 11257,
 "('-',": 11258,
 "('.')[": 11259,
 ")?": 11260,
 "-------------------+": 11261,
 "------------------------": 11262,
 "0019": 11263,
 "0023": 11264,
 "008": 11265,
 "025": 11266,
 "029": 11267,
 "094": 11268,
 "122": 11269,
 "227": 11270,
 "259": 11271,
 "374": 11272,
 "354": 11273,
 "357": 11274,
 "399": 11275,
 "423": 11276,
 "456789": 11277,
 "482": 11278,
 "804": 11279,
 "844": 11280,
 "849": 11281,
 "885": 11282,
 "ADR": 11283,
 "ATTRIBUTE_": 11284,
 "Accept": 11285,
 "Attr": 11286,
 "BACK": 11287,
 "BITS": 11288,
 "BYTES": 11289,
 "BaseHandler": 11290,
 "CACHE": 11291,
 "CaseClass": 11292,
 "Cleanups": 11293,
 "DAY": 11294,
 "DN": 11295,
 "DEF": 11296,
 "DOMException": 11297,
 "Delete": 11298,
 "ERTIFICATE_": 11299,
 "Enabled": 11300,
 "Encoder": 11301,
 "Exists": 11302,
 "ExistsError": 11303,
 "FOR": 11304,
 "Fd": 11305,
 "GH": 11306,
 "HER": 11307,
 "ILED": 11308,
 "IRE": 11309,
 "Is": 11310,
 "IGNORECASE": 11311,
 "ING_IN": 11312,
 "Infinity": 11313,
 "LES": 11314,
 "LOG_": 11315,
 "Make": 11316,
 "MoEDiagnostics": 11317,
 "OVER": 11318,
 "Ow": 11319,
 "OCKET": 11320,
 "ONG_": 11321,
 "OROUT": 11322,
 "PACK": 11323,
 "PATH_INFO": 11324,
 "Property": 11325,
 "Runtime": 11326,
 "ROUT": 11327,
 "Raises": 11328,
 "Report": 11329,
 "Routing": 11330,
 "SCRIPT_NAME": 11331,
 "Section": 11332,
 "SIVE_": 11333,
 "SIGINT": 11334,
 "STOP": 11335,
 "USE": 11336,
 "Using": 11337,
 "UMP_": 11338,
 "VALUE": 11339,
 "With": 11340,
 "XY": 11341,
 "YY": 11342,
 "[\\": 11343,
 "_limbo": 11344,
 "_ov": 11345,
 "_vari": 11346,
 "_vars": 11347,
 "_INTER": 11348,
 "_SOCKET": 11349,
 "__eq__": 11350,
 "__iter__": 11351,
 "__setattr__": 11352,
 "_accum": 11353,
 "_add_reader": 11354,
 "_and_": 11355,
 "_app_protocol": 11356,
 "_app_transport": 11357,
 "_cpu": 11358,
 "_common": 11359,
 "_data_handler": 11360,
 "_dataclass": 11361,
 "_ex__": 11362,
 "_exitcode": 11363,
 "_expert_id": 11364,
 "_expert_output": 11365,
 "_failure": 11366,
 "_finalizer": 11367,
 "_forward": 11368,
 "_is_rejected": 11369,
 "_job": 11370,
 "_mro": 11371,
 "_name_len": 11372,
 "_namespaces": 11373,
 "_next_value": 11374,
 "_official_architecture": 11375,
 "_option_string_actions": 11376,
 "_parsing": 11377,
 "_profile": 11378,
 "_reserved": 11379,
 "_rope": 11380,
 "_separators": 11381,
 "_shutdown_lock": 11382,
 "_skipped": 11383,
 "_state_dict": 11384,
 "_subprocess": 11385,
 "_to_typeid": 11386,
 "_window": 11387,
 "_weight_tying": 11388,
 "_winapi": 11389,
 "addresses": 11390,
 "all_seconds": 11391,
 "amb": 11392,
 "ametr": 11393,
 "argest": 11394,
 "asing": 11395,
 "atexit": 11396,
 "att": 11397,
 "autospec": 11398,
 "crc": 11399,
 "causal": 11400,
 "child_watcher": 11401,
 "desc": 11402,
 "ee": 11403,
 "eve": 11404,
 "etloc": 11405,
 "exc_type": 11406,
 "fresh": 11407,
 "fto": 11408,
 "failfast": 11409,
 "features": 11410,
 "ffort": 11411,
 "finish": 11412,
 "formance": 11413,
 "from_": 11414,
 "ftover": 11415,
 "gens": 11416,
 "generate_next_value": 11417,
 "global_step": 11418,
 "grade": 11419,
 "gression": 11420,
 "hard": 11421,
 "highest": 11422,
 "imit": 11423,
 "ifted": 11424,
 "importlib": 11425,
 "infos": 11426,
 "instancecheck__": 11427,
 "interval": 11428,
 "ipes": 11429,
 "islink": 11430,
 "kill": 11431,
 "lan": 11432,
 "lax": 11433,
 "leted": 11434,
 "multiple": 11435,
 "magic": 11436,
 "meth": 11437,
 "modname": 11438,
 "modulename": 11439,
 "mtree": 11440,
 "ne__": 11441,
 "normpath": 11442,
 "normalize": 11443,
 "omous": 11444,
 "olding": 11445,
 "ordiv": 11446,
 "output_charset": 11447,
 "pow": 11448,
 "pulldom": 11449,
 "pathlib": 11450,
 "peat": 11451,
 "pecting": 11452,
 "perchild": 11453,
 "prompt": 11454,
 "relation": 11455,
 "reversed": 11456,
 "replace_routed_expert": 11457,
 "rotary_dim": 11458,
 "saturation": 11459,
 "sb": 11460,
 "slash": 11461,
 "sqrt": 11462,
 "synchron": 11463,
 "selection": 11464,
 "separ": 11465,
 "selves": 11466,
 "self__": 11467,
 "serialize": 11468,
 "specification": 11469,
 "ssl_handshake_timeout": 11470,
 "ssl_shutdown_timeout": 11471,
 "tition": 11472,
 "tls": 11473,
 "topk": 11474,
 "total_ordering": 11475,
 "trics": 11476,
 "uv": 11477,
 "unless": 11478,
 "upFd": 11479,
 "utonomous": 11480,
 "validate_caches": 11481,
 "wfile": 11482,
 "warnmsg": 11483,
 "weight_": 11484,
 "while": 11485,
 "write_buffer_size": 11486,
 "xtext": 11487,
 "xtasksperchild": 11488,
 "z_raw": 11489,
 "zma": 11490,
 "|---|---|": 11491,
 "|>\"": 11492,
 "}:{": 11493,
 "Ġ\":\"": 11494,
 "Ġ'/'.": 11495,
 "Ġ(-": 11496,
 "Ġ***": 11497,
 "Ġ2047": 11498,
 "Ġ25": 11499,
 "Ġ5322": 11500,
 "ĠAT": 11501,
 "ĠAuthenticationError": 11502,
 "ĠBad": 11503,
 "ĠBasic": 11504,
 "ĠBu": 11505,
 "ĠCTE": 11506,
 "ĠDiffer": 11507,
 "ĠFOR": 11508,
 "ĠGNUTYPE_": 11509,
 "ĠHTTPError": 11510,
 "ĠIND": 11511,
 "ĠInitial": 11512,
 "ĠLAT": 11513,
 "ĠLATIN": 11514,
 "ĠLOG_LOCAL": 11515,
 "ĠNaN": 11516,
 "ĠNamed": 11517,
 "ĠPdb": 11518,
 "ĠPATH_INFO": 11519,
 "ĠProcessError": 11520,
 "ĠRational": 11521,
 "ĠRemote": 11522,
 "ĠREAD": 11523,
 "ĠSparse": 11524,
 "ĠSourceSpec": 11525,
 "ĠTextContextVariant": 11526,
 "Ġ_Barrier": 11527,
 "Ġ_Selector": 11528,
 "Ġ_cal": 11529,
 "Ġ_no": 11530,
 "Ġ_on": 11531,
 "Ġ_parent": 11532,
 "Ġ_strip": 11533,
 "Ġ_weakref": 11534,
 "Ġ_BarrierState": 11535,
 "Ġ_acquireLock": 11536,
 "Ġ_iterencode": 11537,
 "Ġ_splittype": 11538,
 "Ġauthorization": 11539,
 "Ġbpe": 11540,
 "Ġbitwise": 11541,
 "Ġcertificate": 11542,
 "Ġcauses": 11543,
 "Ġchosen": 11544,
 "Ġclose_fds": 11545,
 "Ġcolno": 11546,
 "Ġcolon": 11547,
 "Ġcomputation": 11548,
 "Ġcumulative": 11549,
 "Ġdependencies": 11550,
 "Ġdepends": 11551,
 "Ġdestroyed": 11552,
 "Ġem": 11553,
 "Ġeasy": 11554,
 "Ġeffective": 11555,
 "Ġeval_str": 11556,
 "Ġexha": 11557,
 "Ġexcluded": 11558,
 "Ġexist_ok": 11559,
 "Ġexpensive": 11560,
 "Ġfigures": 11561,
 "Ġfloats": 11562,
 "Ġfolded": 11563,
 "Ġforkserver": 11564,
 "Ġfractions": 11565,
 "Ġgetproxies": 11566,
 "Ġhonestly": 11567,
 "Ġidea": 11568,
 "Ġidentities": 11569,
 "Ġignore_discard": 11570,
 "Ġinqueue": 11571,
 "Ġinserted": 11572,
 "Ġiscased": 11573,
 "Ġisolated": 11574,
 "Ġlp": 11575,
 "Ġlasti": 11576,
 "Ġlink_next": 11577,
 "Ġlinkname": 11578,
 "Ġlinks": 11579,
 "Ġload_tests": 11580,
 "Ġloops": 11581,
 "Ġmalformed": 11582,
 "Ġmand": 11583,
 "Ġmangle_from_": 11584,
 "Ġmarks": 11585,
 "Ġmaxheaderlen": 11586,
 "Ġmeasurement": 11587,
 "Ġminimal": 11588,
 "Ġmonths": 11589,
 "Ġmsg_id": 11590,
 "Ġns_": 11591,
 "Ġnegoti": 11592,
 "Ġnew_params": 11593,
 "Ġnumerical": 11594,
 "Ġobtained": 11595,
 "Ġobject_hook": 11596,
 "Ġobject_pairs_hook": 11597,
 "Ġopener": 11598,
 "Ġordering": 11599,
 "Ġoverwrite": 11600,
 "Ġpwd": 11601,
 "Ġpause_writing": 11602,
 "Ġpickled": 11603,
 "Ġplural": 11604,
 "Ġposition_ids": 11605,
 "Ġpreferred": 11606,
 "Ġprotect": 11607,
 "Ġprovid": 11608,
 "Ġproviding": 11609,
 "Ġqualname": 11610,
 "Ġrejected": 11611,
 "Ġreli": 11612,
 "Ġrepo_root": 11613,
 "Ġreceiving": 11614,
 "Ġregex": 11615,
 "Ġreturn_when": 11616,
 "Ġslow": 11617,
 "Ġsmallest": 11618,
 "Ġsemi": 11619,
 "ĠsetUp": 11620,
 "Ġshift_": 11621,
 "Ġsole": 11622,
 "Ġsock_recv": 11623,
 "Ġsoftmax": 11624,
 "Ġstandard_active_parameter_breakdown": 11625,
 "Ġstart_response": 11626,
 "ĠsuiteClass": 11627,
 "Ġsupposed": 11628,
 "Ġsupporting": 11629,
 "Ġsuppressed": 11630,
 "Ġtup": 11631,
 "Ġtargets": 11632,
 "Ġtest_case": 11633,
 "Ġtest_sparse": 11634,
 "Ġtoken_ids": 11635,
 "Ġtranslate": 11636,
 "Ġunavailable": 11637,
 "Ġunne": 11638,
 "Ġunixfrom": 11639,
 "Ġviol": 11640,
 "Ġweight_": 11641,
 "Ġwinner": 11642,
 "Ġworkflows": 11643,
 "Ġwrite_eof": 11644,
 "\"\\\\": 11645,
 "'-": 11646,
 "(['": 11647,
 "------": 11648,
 "0011": 11649,
 "0015": 11650,
 "018": 11651,
 "027": 11652,
 "056": 11653,
 "078": 11654,
 "099": 11655,
 "124": 11656,
 "326": 11657,
 "369": 11658,
 "38709677419": 11659,
 "507": 11660,
 "51612903225806": 11661,
 "644": 11662,
 "646": 11663,
 "744": 11664,
 "847": 11665,
 "859": 11666,
 "866": 11667,
 "917": 11668,
 ":',": 11669,
 "ANT": 11670,
 "ARCH": 11671,
 "ATEGORY": 11672,
 "BAD": 11673,
 "CRITICAL": 11674,
 "Current": 11675,
 "CORE_CONTROL": 11676,
 "Decorator": 11677,
 "DescriptorType": 11678,
 "EGIN": 11679,
 "ENDED": 11680,
 "ERG": 11681,
 "EVENT_WRITE": 11682,
 "Extract": 11683,
 "FD": 11684,
 "FLAGS": 11685,
 "Fraction": 11686,
 "GNU": 11687,
 "HLO": 11688,
 "Holder": 11689,
 "IM": 11690,
 "IGIT": 11691,
 "INS": 11692,
 "IPPROTO_": 11693,
 "IRECT": 11694,
 "ITES": 11695,
 "LOGG": 11696,
 "Listener": 11697,
 "MMDF": 11698,
 "MagicMock": 11699,
 "ModuleLock": 11700,
 "New": 11701,
 "NameP": 11702,
 "NamePatterns": 11703,
 "NotFoundErr": 11704,
 "O_CRE": 11705,
 "OUNDARY": 11706,
 "Owner": 11707,
 "OwnerDocument": 11708,
 "PY": 11709,
 "Part": 11710,
 "PEP": 11711,
 "RAC": 11712,
 "REAK": 11713,
 "REG": 11714,
 "Register": 11715,
 "Sect": 11716,
 "Some": 11717,
 "SOL_SOCKET": 11718,
 "STATE_": 11719,
 "S_DIR": 11720,
 "SectionError": 11721,
 "Show": 11722,
 "TypedDict": 11723,
 "TERM": 11724,
 "TIONAL": 11725,
 "Ver": 11726,
 "XXX": 11727,
 "[...,": 11728,
 "_ERR": 11729,
 "_NUMBER": 11730,
 "_READ": 11731,
 "_arguments": 11732,
 "_array": 11733,
 "_defects": 11734,
 "_verbose": 11735,
 "_COROUT": 11736,
 "_DIR": 11737,
 "_MAGIC": 11738,
 "_NAMESPACE": 11739,
 "_PRO": 11740,
 "_SSLv": 11741,
 "_TYPES": 11742,
 "__self__": 11743,
 "__weakref": 11744,
 "__weakref__": 11745,
 "_await": 11746,
 "_aware": 11747,
 "_balance_raw": 11748,
 "_boundary_": 11749,
 "_cases": 11750,
 "_circular": 11751,
 "_callees": 11752,
 "_call_connection_lost": 11753,
 "_checkable": 11754,
 "_cleanups": 11755,
 "_close_conn": 11756,
 "_convert_string_type": 11757,
 "_down": 11758,
 "_digest": 11759,
 "_expert_gradient": 11760,
 "_fd_no": 11761,
 "_fd_no_transport": 11762,
 "_hours": 11763,
 "_iter_": 11764,
 "_logit_abs_": 11765,
 "_mask_": 11766,
 "_member_type_": 11767,
 "_newline": 11768,
 "_norm_mean": 11769,
 "_nowait": 11770,
 "_pi": 11771,
 "_pipes": 11772,
 "_put": 11773,
 "_prob_margin": 11774,
 "_remain": 11775,
 "_remove_reader": 11776,
 "_rmsnorm": 11777,
 "_side_effect": 11778,
 "_simple_enum": 11779,
 "_to_exitcode": 11780,
 "_tolerance": 11781,
 "_tunnel_host": 11782,
 "_unhashable": 11783,
 "_unregister": 11784,
 "activate": 11785,
 "ali": 11786,
 "arDown": 11787,
 "armup_iters": 11788,
 "asyncgen": 11789,
 "bsolete": 11790,
 "begin": 11791,
 "behind": 11792,
 "bsoleteHeaderDefect": 11793,
 "copydoc": 11794,
 "curindex": 11795,
 "d_value": 11796,
 "dantic": 11797,
 "duplicate": 11798,
 "dense_layers": 11799,
 "dirs": 11800,
 "disabled": 11801,
 "email": 11802,
 "emit": 11803,
 "end_col_offset": 11804,
 "enders": 11805,
 "epi": 11806,
 "ety": 11807,
 "flatten": 11808,
 "folded": 11809,
 "haps": 11810,
 "hib": 11811,
 "iglu": 11812,
 "igint_": 11813,
 "inenum": 11814,
 "is_alive": 11815,
 "is_closed": 11816,
 "isabs": 11817,
 "itize": 11818,
 "ithme": 11819,
 "ithread": 11820,
 "ithmetic": 11821,
 "later": 11822,
 "linear": 11823,
 "loaded": 11824,
 "lookup": 11825,
 "loggerDict": 11826,
 "max_line_length": 11827,
 "measured": 11828,
 "member_map_": 11829,
 "mutex": 11830,
 "n_protocol": 11831,
 "name_from": 11832,
 "never": 11833,
 "newurl": 11834,
 "no_grad": 11835,
 "nonce": 11836,
 "numeric": 11837,
 "ounded": 11838,
 "oldedCase": 11839,
 "ops": 11840,
 "opcodes": 11841,
 "osix": 11842,
 "outfile": 11843,
 "overload": 11844,
 "popen": 11845,
 "parameters__": 11846,
 "predecessors": 11847,
 "quick": 11848,
 "rfile": 11849,
 "rote": 11850,
 "samp": 11851,
 "suppress": 11852,
 "safe_repr": 11853,
 "semble": 11854,
 "send_error": 11855,
 "setLevel": 11856,
 "set_name__": 11857,
 "stances": 11858,
 "statement": 11859,
 "status_to_exitcode": 11860,
 "such": 11861,
 "synchronize": 11862,
 "tearDown": 11863,
 "token_ids": 11864,
 "tokenizer_id": 11865,
 "upCount": 11866,
 "voke": 11867,
 "wargs": 11868,
 "workflows": 11869,
 "xfb": 11870,
 "yml": 11871,
 "zlib": 11872,
 "})\".": 11873,
 "ĊĠĠĠĠĠĠĠĠĠĠĠĠĠĠĠĠĠĠĠĠĠĠĠĠĠĠĠĠĠĠĠĠĠĠĠĠĠĠĠĠĠĠĠĠĠĠĠĠĠĠĠĠĠĠĠĠĠĠĠ": 11874,
 "Ġ;": 11875,
 "Ġge": 11876,
[...]
